, 100
▁ 100
. 100
▁the 100
s 100
。 100
▁and 100
▁of 100
的 100
▁to 100
▁in 100
▁a 100
: 100
- 100
) 100
和 100
▁is 100
、 100
▁for 100
▁( 100
▁that 100
▁you 100
▁on 100
▁with 100
▁The 100
在 100
ing 100
' 100
▁or 100
( 100
/ 100
▁- 100
d 100
ed 100
▁" 100
▁be 100
▁I 100
▁from 100
▁are 100
了 100
▁as 100
▁was 100
▁by 100
▁not 100
▁it 100
? 100
▁your 100
是 100
t 100
▁this 100
▁/ 100
▁at 100
; 100
" 100
▁) 100
或 100
▁have 100
▁URL 100
中 100
▁will 100
年 100
▁all 100
▁can 100
▁: 100
与 100
▁an 100
为 100
er 100
有 100
▁A 100
▁any 100
e 100
ly 100
人 100
▁In 100
▁has 100
! 100
上 100
不 100
对 100
y 100
▁he 100
▁we 100
com 100
S 100
▁“ 100
我 100
▁在 100
▁. 100
a 100
到 100
▁1 100
将 100
▁。 100
▁which 100
并 100
▁more 100
▁other 100
1 100
▁our 100
2 100
▁Hotel 100
3 100
al 100
你 100
地 100
▁2 100
▁their 100
n 100
▁use 100
▁his 100
▁do 100
他 100
aspx 100
o 100
时 100
▁its 100
▁but 100
▁3 100
以 100
▁S 100
A 100
▁also 100
月 100
▁time 100
我们 100
▁4 100
提供 100
▁one 100
一个 100
▁This 100
从 100
C 100
▁information 100
m 100
一 100
▁” 100
服务 100
▁Page 100
’ 100
来 100
▁about 100
被 100
▁they 100
4 100
▁her 100
B 100
酒店 100
▁Datasheet 100
▁请求的 100
使用 100
以及 100
大 100
会 100
数据表 100
in 100
可 100
_ 100
i 100
▁It 100
▁had 100
▁out 100
es 100
▁C 100
及 100
▁such 100
D 100
re 100
性 100
r 100
▁may 100
而 100
▁We 100
说 100
就 100
5 100
日 100
▁so 100
c 100
▁been 100
▁up 100
or 100
▁were 100
” 100
▁B 100
于 100
也 100
可以 100
▁You 100
▁me 100
th 100
等 100
▁– 100
后 100
她 100
▁He 100
▁no 100
进行 100
▁my 100
▁E 100
着 100
▁5 100
▁new 100
▁map 100
所 100
▁there 100
T 100
▁them 100
其 100
6 100
b 100
您 100
▁P 100
▁who 100
▁into 100
▁if 100
▁when 100
向 100
▁我 100
下 100
▁over 100
“ 100
他们 100
▁Requeste 100
▁de 100
里 100
▁km 100
I 100
▁United 100
▁she 100
▁only 100
▁what 100
都 100
▁would 100
▁& 100
▁China 100
包括 100
▁If 100
7 100
10 100
g 100
P 100
▁For 100
信息 100
▁him 100
▁And 100
▁F 100
▁D 100
公司 100
用 100
▁than 100
to 100
M 100
▁world 100
G 100
▁To 100
这 100
▁people 100
要 100
▁services 100
▁said 100
通过 100
K 100
▁M 100
▁these 100
▁available 100
▁G 100
▁hotel 100
▁— 100
没有 100
." 100
▁data 100
en 100
V 100
▁10 100
子 100
搜索 100
▁T 100
▁service 100
多 100
系统 100
机 100
E 100
▁| 100
8 100
k 100
任何 100
内 100
▁Co 100
x 100
国家 100
▁found 100
斯 100
者 100
▁work 100
on 100
工作 100
le 100
N 100
l 100
但 100
▁shall 100
▁system 100
新 100
▁like 100
ers 100
▁us 100
▁most 100
▁including 100
该 100
出 100
这些 100
an 100
能 100
章 100
▁ferry 100
之 100
▁first 100
需要 100
▁[ 100
9 100
▁6 100
前 100
h 100
▁R 100
▁19 100
由 100
所有 100
▁K 100
▁8 100
▁through 100
▁right 100
▁should 100
ation 100
▁re 100
问题 100
▁free 100
▁well 100
▁> 100
产品 100
H 100
▁hotels 100
F 100
去 100
▁know 100
f 100
小 100
▁provide 100
国际 100
▁7 100
▁see 100
▁第 100
▁two 100
▁@ 100
特 100
▁我们 100
▁make 100
▁details 100
》 100
中国 100
它 100
《 100
▁years 100
管理 100
▁want 100
▁详细 100
▁some 100
▁H 100
家 100
▁States 100
水 100
▁under 100
尔 100
拉 100
▁New 100
able 100
▁9 100
个 100
▁just 100
高 100
过 100
▁high 100
还 100
技术 100
得 100
X 100
好 100
▁Please 100
法 100
您的 100
] 100
已经 100
更 100
· 100
▁room 100
▁many 100
19 100
▁God 100
▁offers 100
▁site 100
德 100
▁between 100
▁Re 100
p 100
▁N 100
ll 100
▁access 100
u 100
▁? 100
R 100
ion 100
▁very 100
▁used 100
公里 100
最 100
▁But 100
▁need 100
选择 100
20 100
▁then 100
▁order 100
Â 100
那 100
点 100
W 100
de 100
▁how 100
▁business 100
区 100
这个 100
▁L 100
▁development 100
活动 100
w 100
▁after 100
克 100
▁view 100
无 100
可能 100
▁made 100
▁part 100
▁Important 100
st 100
网 100
比 100
▁W 100
▁get 100
▁countries 100
▁international 100
▁way 100
▁Chapter 100
头 100
▁now 100
时间 100
利 100
数据 100
把 100
本 100
▁他 100
设备 100
天 100
▁O 100
▁ticket 100
L 100
▁hours 100
▁18 100
支持 100
▁content 100
使 100
ar 100
▁car 100
▁could 100
开始 100
v 100
▁support 100
要求 100
us 100
ic 100
▁All 100
▁good 100
名 100
O 100
▁must 100
美国 100
保护 100
长 100
车 100
ment 100
器 100
▁where 100
▁price 100
心 100
▁back 100
▁without 100
▁V 100
12 100
想 100
▁page 100
已 100
分 100
ity 100
自己 100
▁No 100
政府 100
▁within 100
z 100
能够 100
ve 100
▁best 100
?" 100
中心 100
▁change 100
▁same 100
▁products 100
力 100
▁J 100
co 100
▁day 100
重要详情 100
给 100
▁take 100
▁show 100
设计 100
吗 100
ance 100
00 100
又 100
▁name 100
▁International 100
J 100
卡 100
30 100
手 100
▁un 100
或者 100
化 100
你的 100
▁As 100
▁server 100
15 100
▁those 100
). 100
11 100
国 100
至 100
发 100
▁Free 100
▁online 100
▁help 100
获得 100
▁requested 100
其他 100
▁here 100
文件 100
▁What 100
外 100
内容 100
▁She 100
应 100
▁area 100
▁20 100
式 100
中的 100
▁don 100
如 100
ri 100
发展 100
▁number 100
ta 100
价格 100
世界 100
▁even 100
▁With 100
▁process 100
▁City 100
网站 100
安全 100
行 100
▁Service 100
▁life 100
▁before 100
计划 100
控制 100
我们的 100
经济 100
ma 100
▁rights 100
18 100
man 100
让 100
it 100
距离 100
第 100
▁By 100
用户 100
▁does 100
请 100
▁long 100
el 100
▁US 100
▁year 100
企业 100
关于 100
▁place 100
▁At 100
市场 100
很 100
光 100
西 100
▁go 100
▁per 100
▁account 100
▁La 100
号 100
▁De 100
te 100
有关 100
▁酒店 100
na 100
▁21 100
道 100
项目 100
加 100
▁CO 100
必须 100
▁这 100
▁country 100
▁There 100
文 100
▁because 100
▁Â 100
▁using 100
Show 100
委员会 100
看 100
生 100
受 100
▁city 100
▁So 100
▁power 100
▁did 100
▁set 100
▁When 100
组织 100
神 100
▁U 100
se 100
▁Working 100
带 100
▁own 100
▁」 100
▁15 100
▁control 100
自 100
软件 100
▁Do 100
▁Home 100
▁both 100
就是 100
线 100
▁How 100
▁water 100
ro 100
▁each 100
▁law 100
执行 100
拥有 100
开 100
▁11 100
Y 100
▁「 100
的人 100
U 100
▁find 100
处理 100
完成 100
... 100
25 100
▁public 100
机构 100
▁end 100
▁while 100
▁book 100
est 100
门 100
ive 100
访问 100
▁different 100
同 100
▁left 100
ne 100
实现 100
▁Hotels 100
▁miles 100
做 100
▁company 100
作为 100
▁down 100
â 100
▁design 100
生产 100
▁如果 100
网络 100
金 100
路 100
度 100
▁Texas 100
is 100
il 100
三 100
▁12 100
▁near 100
显示地图 100
部 100
美 100
因为 100
起 100
up 100
▁你 100
▁Technology 100
ca 100
气 100
功能 100
再 100
非常 100
亚 100
▁Room 100
认为 100
▁come 100
▁2016 100
▁] 100
24 100
成为 100
▁Al 100
合作 100
▁against 100
研究 100
▁24 100
海 100
ry 100
并且 100
▁rooms 100
▁Download 100
你们 100
li 100
此 100
▁availability 100
安 100
▁human 100
▁offer 100
▁Chinese 100
▁much 100
▁Instruments 100
米 100
因 100
条 100
NET 100
这一 100
会议 100
▁website 100
的工作时间 100
am 100
马 100
▁visit 100
€ 100
山 100
ate 100
▁product 100
▁great 100
▁â 100
▁important 100
▁being 100
位于 100
▁property 100
▁您 100
images 100
处 100
位 100
▁但 100
量 100
▁security 100
他的 100
全球 100
▁Inn 100
事 100
法律 100
重 100
一些 100
具有 100
un 100
▁stay 100
j 100
▁X 100
地区 100
▁English 100
动 100
▁man 100
ur 100
® 100
▁她 100
ter 100
用于 100
电 100
自己的 100
▁home 100
面 100
▁personal 100
非 100
▁More 100
org 100
当 100
客户 100
▁around 100
纳 100
▁Supplier 100
▁third 100
jpg 100
社会 100
▁Information 100
约 100
Z 100
图 100
age 100
报告 100
方 100
全 100
▁Street 100
16 100
ra 100
▁On 100
ent 100
▁type 100
体 100
大学 100
爱 100
▁quality 100
ty 100
达 100
▁features 100
什么 100
at 100
成 100
方面 100
罗 100
▁located 100
工具 100
▁Ltd 100
呢 100
▁Our 100
间 100
显示 100
环境 100
no 100
则 100
ci 100
▁供货商 100
▁technology 100
ia 100
▁during 100
帮助 100
▁30 100
the 100
正 100
ist 100
▁non 100
低 100
▁children 100
ness 100
州 100
74 100
▁experience 100
▁real 100
me 100
▁three 100
▁Road 100
▁hand 100
50 100
▁TV 100
▁air 100
▁following 100
▁away 100
▁17 100
▁national 100
ch 100
▁Inc 100
如何 100
▁16 100
▁agree 100
▁Le 100
不能 100
作 100
有限公司 100
各 100
▁State 100
▁St 100
▁facilities 100
无法 100
应用 100
▁market 100
市 100
▁every 100
▁My 100
视频 100
▁Park 100
型 100
▁University 100
得到 100
不是 100
游戏 100
程序 100
la 100
分析 100
我的 100
▁create 100
两 100
▁Group 100
▁Nations 100
ce 100
材料 100
▁economic 100
um 100
▁software 100
是一个 100
区域 100
▁Your 100
▁main 100
根据 100
打 100
投资 100
▁National 100
主 100
▁LTD 100
17 100
阿 100
▁current 100
政策 100
数 100
▁management 100
开发 100
标准 100
▁They 100
身 100
▁production 100
▁provided 100
▁accommodation 100
▁staff 100
格 100
热 100
这种 100
▁Apartment 100
▁USD 100
免费 100
巴 100
0 100
et 100
ary 100
继续 100
▁Airport 100
▁San 100
@ 100
▁View 100
▁显示地图 100
im 100
▁think 100
联合国 100
▁13 100
▁Web 100
书 100
城市 100
▁An 100
▁e 100
▁still 100
▁full 100
da 100
流 100
ine 100
▁party 100
现在 100
影响 100
▁prices 100
▁Last 100
意 100
回 100
and 100
▁local 100
学 100
方式 100
go 100
▁Microsoft 100
—— 100
▁0 100
14 100
入 100
明 100
只 100
▁include 100
发现 100
as 100
▁Company 100
▁中国 100
花 100
教育 100
南 100
▁European 100
决定 100
权 100
▁从 100
▁form 100
提高 100
▁14 100
啊 100
解决方案 100
▁project 100
▁last 100
城 100
▁industry 100
口 100
▁please 100
信 100
ul 100
▁check 100
ant 100
相关 100
▁THE 100
& 100
▁South 100
▁large 100
ton 100
▁am 100
▁government 100
▁World 100
尼 100
业务 100
定 100
上的 100
▁again 100
科 100
▁m 100
▁France 100
物 100
方案 100
设施 100
确保 100
之一 100
▁able 100
单 100
自由 100
▁global 100
状况 100
40 100
语 100
▁美国 100
知道 100
▁network 100
以下 100
▁example 100
公寓 100
吧 100
▁con 100
万 100
13 100
mo 100
不会 100
▁days 100
基 100
还是 100
▁required 100
▁guests 100
60 100
▁contact 100
▁该 100
▁open 100
▁going 100
完全 100
▁Services 100
欧洲 100
ling 100
▁level 100
▁say 100
▁address 100
ge 100
▁application 100
表 100
接受 100
正在 100
▁private 100
▁House 100
▁apartment 100
▁policy 100
希望 100
▁One 100
▁Wikipedia 100
▁machine 100
▁women 100
通 100
值 100
各种 100
▁enjoy 100
▁Design 100
代表 100
建议 100
是否 100
▁based 100
维 100
id 100
▁case 100
▁Center 100
的时候 100
▁Committee 100
22 100
音乐 100
▁请 100
ian 100
▁ST 100
安装 100
▁social 100
The 100
▁activities 100
ang 100
▁provides 100
新的 100
主要 100
老 100
21 100
他们的 100
ir 100
站 100
那些 100
却 100
情况 100
不同 100
▁Bid 100
塔 100
走 100
四 100
▁special 100
诺 100
▁terms 100
测试 100
lo 100
转 100
如果 100
be 100
发生 100
保证 100
▁always 100
这样 100
80 100
▁conditions 100
像 100
ies 100
直接 100
之后 100
公 100
▁Car 100
ka 100
▁b 100
▁top 100
关系 100
do 100
▁ensure 100
们 100
条件 100
▁systems 100
未 100
▁small 100
— 100
部分 100
表示 100
应该 100
▁Other 100
▁state 100
方法 100
▁25 100
ol 100
Q 100
资源 100
同时 100
▁person 100
▁users 100
ni 100
▁minutes 100
圣 100
▁Europe 100
▁accept 100
统计 100
仅 100
▁Z 100
▁Beach 100
▁p 100
了解 100
增加 100
26 100
▁few 100
out 100
▁performance 100
os 100
▁major 100
ting 100
行为 100
行业 100
都是 100
▁Windows 100
▁financial 100
▁From 100
Fi 100
▁Bar 100
▁OF 100
即 100
▁Version 100
▁family 100
▁cookies 100
TM 100
son 100
▁heart 100
▁Mar 100
▁another 100
利用 100
文化 100
way 100
▁areas 100
▁report 100
▁2015 100
之前 100
▁file 100
▁look 100
ex 100
▁next 100
资料 100
二 100
制 100
▁head 100
▁off 100
ated 100
▁Standard 100
管 100
▁range 100
▁下载 100
▁North 100
▁related 100
png 100
▁came 100
没 100
▁love 100
▁little 100
▁2014 100
总 100
▁future 100
一种 100
▁Best 100
布 100
▁photos 100
▁material 100
▁group 100
超过 100
▁give 100
然后 100
▁food 100
见 100
均 100
经 100
工业 100
但是 100
建立 100
▁become 100
因此 100
▁past 100
▁Site 100
▁Ferries 100
▁equipment 100
▁co 100
解决 100
期 100
+ 100
的使用 100
目标 100
个人 100
的问题 100
兰 100
land 100
相 100
▁Li 100
▁night 100
▁pay 100
听 100
▁Pro 100
权利 100
▁Canada 100
风 100
▁needs 100
▁possible 100
人员 100
▁live 100
27 100
▁user 100
原 100
▁General 100
Avg 100
net 100
▁通过 100
合 100
组 100
节 100
来自 100
白 100
der 100
商 100
rs 100
ite 100
行动 100
集团 100
看到 100
▁Template 100
▁pre 100
台 100
运动 100
▁since 100
▁light 100
保持 100
▁political 100
▁location 100
哈 100
查看 100
▁因此 100
期间 100
▁things 100
▁Council 100
▁further 100
注册 100
率 100
▁among 100
28 100
▁upon 100
两个 100
妇女 100
许多 100
死 100
ga 100
▁interests 100
特别 100
板 100
进入 100
▁c 100
波 100
规定 100
100 100
▁better 100
▁Facebook 100
平台 100
ie 100
它们 100
▁Search 100
领域 100
ted 100
▁old 100
之间 100
less 100
更多 100
▁2012 100
只是 100
级 100
▁might 100
▁但是 100
次 100
ism 100
其中 100
▁front 100
华 100
家庭 100
连接 100
▁Internet 100
▁asked 100
ak 100
称 100
ha 100
夫 100
照片 100
协议 100
且 100
▁他们 100
例如 100
场 100
ad 100
汽车 100
法国 100
设置 100
▁! 100
参与 100
▁companies 100
进 100
儿 100
片 100
▁Jesus 100
反 100
," 100
这是 100
▁trade 100
31 100
▁Semiconductor 100
实施 100
▁house 100
小时 100
▁t 100
▁too 100
▁These 100
ru 100
▁travel 100
▁Ma 100
才 100
结构 100
▁applications 100
▁passenger 100
ti 100
的所有 100
购买 100
深 100
▁match 100
列 100
军 100
▁course 100
▁customers 100
▁Q 100
▁face 100
▁Hong 100
油 100
32 100
▁key 100
能力 100
min 100
▁put 100
萨 100
▁energy 100
▁' 100
银行 100
机场 100
岛 100
▁result 100
one 100
结果 100
色 100
▁land 100
交易 100
▁Wi 100
儿童 100
▁York 100
▁Na 100
联系 100
▁dates 100
▁low 100
措施 100
政治 100
普 100
的信息 100
▁它 100
▁Website 100
立 100
html 100
23 100
生活 100
▁Central 100
▁resources 100
▁此外 100
▁period 100
▁ago 100
电子 100
旅游 100
类 100
▁PHP 100
边 100
▁post 100
局 100
▁body 100
▁point 100
▁2013 100
▁File 100
强 100
▁After 100
▁working 100
平 100
款 100
▁OR 100
下载 100
▁health 100
声 100
▁line 100
▁Contact 100
近 100
▁Content 100
快速 100
预订 100
林 100
她的 100
▁went 100
变 100
▁这是 100
先 100
一样 100
操作 100
▁below 100
品 100
▁navigation 100
▁这些 100
限制 100
▁维基百科 100
wikipedia 100
人的 100
那么 100
东 100
▁second 100
▁Ro 100
▁materials 100
压 100
也是 100
发布 100
▁drive 100
而且 100
▁Africa 100
▁means 100
▁protection 100
每 100
▁la 100
起来 100
▁video 100
▁value 100
▁legal 100
▁review 100
▁Kong 100
战略 100
▁held 100
ization 100
ful 100
的话 100
▁easy 100
对于 100
sa 100
om 100
▁However 100
采取 100
一次 100
学习 100
▁Product 100
▁short 100
▁members 100
ER 100
病 100
费 100
▁American 100
地方 100
▁Business 100
▁Read 100
接 100
▁His 100
▁close 100
▁complete 100
▁walk 100
▁23 100
▁addition 100
申请 100
问 100
vo 100
▁parties 100
按 100
▁* 100
极 100
▁High 100
▁pool 100
质量 100
▁Ar 100
托 100
▁West 100
▁That 100
▁responsible 100
ish 100
自动 100
▁Me 100
火 100
王 100
line 100
▁Asia 100
ung 100
创新 100
▁di 100
▁离 100
▁cost 100
▁building 100
干 100
包含 100
需求 100
远 100
▁Republic 100
条款 100
▁Di 100
dy 100
▁Data 100
建筑 100
va 100
运行 100
▁space 100
▁never 100
▁given 100
▁pro 100
▁hard 100
情 100
▁latest 100
采用 100
层 100
贸易 100
▁growth 100
▁Y 100
ler 100
库 100
减少 100
35 100
▁research 100
▁statistics 100
▁took 100
装 100
▁media 100
恩 100
▁million 100
▁Shanghai 100
ya 100
di 100
ke 100
▁game 100
▁event 100
▁50 100
雷 100
说明 100
29 100
▁Bo 100
▁East 100
努力 100
▁center 100
▁less 100
促进 100
▁solutions 100
▁rate 100
类型 100
太 100
工程 100
▁Name 100
▁providing 100
ig 100
商业 100
业 100
▁whether 100
女 100
▁Italy 100
取 100
▁Not 100
▁email 100
五 100
周 100
▁click 100
▁generate 100
70 100
▁called 100
交 100
▁today 100
mm 100
别 100
历史 100
房 100
床 100
▁Go 100
联 100
重要 100
▁22 100
em 100
▁list 100
▁test 100
放 100
90 100
▁sub 100
tic 100
星 100
云 100
应当 100
木 100
便 100
▁looking 100
▁meet 100
选 100
our 100
US 100
只有 100
快 100
勒 100
机械 100
AL 100
star 100
讨论 100
体验 100
版 100
▁Station 100
战 100
整个 100
▁present 100
部门 100
索 100
性能 100
▁cannot 100
▁subject 100
▁El 100
▁当 100
石 100
科学 100
存在 100
负责 100
世纪 100
人权 100
餐厅 100
▁requirements 100
▁various 100
▁Development 100
专家 100
▁together 100
▁fact 100
▁May 100
公约 100
▁let 100
ized 100
系列 100
he 100
▁Lord 100
语言 100
▁modern 100
及其 100
▁en 100
vi 100
客房 100
▁start 100
▁until 100
的任何 100
确定 100
▁如果您 100
que 100
允许 100
ina 100
po 100
Ã 100
lu 100
lin 100
派 100
进一步 100
€“ 100
▁choice 100
奇 100
les 100
▁Con 100
受到 100
▁position 100
▁Now 100
瓦 100
件 100
▁Man 100
同意 100
ac 100
经验 100
▁side 100
不同的 100
45 100
范围 100
end 100
▁request 100
找到 100
▁200 100
成员 100
▁2017 100
▁bed 100
制造 100
▁necessary 100
▁Office 100
销售 100
▁customer 100
▁analysis 100
自由的百科全书 100
▁men 100
培训 100
▁team 100
满足 100
▁Pa 100
数字 100
核 100
per 100
▁web 100
专业 100
人们 100
应用程序 100
责任 100
▁ON 100
的工作 100
ana 100
实 100
伊 100
▁certain 100
▁play 100
fm 100
ong 100
更新 100
工 100
省 100
▁Convention 100
▁issues 100
和其他 100
健康 100
公共 100
百 100
提 100
错误 100
写 100
▁computer 100
▁really 100
ts 100
▁28 100
▁TO 100
▁Type 100
▁living 100
真 100
86 100
▁version 100
▁Japan 100
住 100
轮 100
▁26 100
▁protect 100
本网站 100
视 100
ut 100
海滩 100
▁Po 100
nd 100
ten 100
编辑 100
ally 100
▁Da 100
▁role 100
▁+ 100
▁several 100
参加 100
莱 100
▁far 100
您提供 100
▁action 100
自然 100
▁loss 100
英国 100
调查 100
▁according 100
▁results 100
通知 100
▁100 100
▁2010 100
▁card 100
▁meeting 100
迪 100
ko 100
▁fully 100
▁War 100
水平 100
的是 100
▁improve 100
▁above 100
叫 100
一直 100
bo 100
ster 100
▁Israel 100
▁read 100
▁increase 100
▁specific 100
球 100
é 100
记录 100
▁respect 100
到了 100
▁particular 100
▁skin 100
提出 100
▁looked 100
乐 100
奥 100
▁Beijing 100
空 100
ba 100
▁limited 100
▁language 100
ap 100
▁Germany 100
▁return 100
▁Mr 100
▁cooperation 100
▁videos 100
在线 100
检查 100
元 100
▁believe 100
▁bathroom 100
任 100
首 100
▁continuing 100
眼 100
位置 100
过程 100
室 100
姆 100
▁share 100
▁Agreement 100
还有 100
cookie 100
供应商 100
甚至 100
▁• 100
▁environment 100
▁dis 100
▁# 100
ho 100
重新 100
What 100
空间 100
▁数据表 100
▁27 100
▁education 100
增长 100
▁Air 100
▁SN 100
感 100
移动 100
▁List 100
▁i 100
08 100
模式 100
▁model 100
▁four 100
▁already 100
团队 100
ah 100
ous 100
改变 100
▁training 100
▁AND 100
.” 100
AC 100
▁code 100
▁America 100
必 100
▁Resort 100
符合 100
▁Of 100
分钟 100
▁Government 100
▁often 100
▁President 100
▁device 100
▁something 100
并不 100
ence 100
导致 100
双 100
▁Christ 100
集 100
▁making 100
收集 100
塞 100
con 100
▁search 100
连 100
▁kind 100
▁standard 100
▁keep 100
ning 100
日本 100
[ 100
德国 100
▁note 100
学生 100
▁有 100
▁Article 100
▁Terms 100
▁throughout 100
▁due 100
享受 100
半 100
ja 100
▁Framework 100
▁Ka 100
02 100
▁更多 100
吃 100
▁Kingdom 100
质 100
准备 100
▁User 100
▁single 100
▁feel 100
红 100
▁files 100
▁Then 100
形 100
想要 100
pe 100
人民 100
怎么 100
▁标准房 100
▁Centre 100
费用 100
支付 100
大会 100
▁Can 100
人类 100
▁table 100
▁risk 100
员 100
▁community 100
恢复 100
不断 100
媒体 100
测量 100
▁Server 100
ver 100
▁Dr 100
fa 100
▁money 100
▁otherwise 100
▁total 100
▁war 100
▁Get 100
▁Suites 100
之间的 100
共同 100
加强 100
▁door 100
▁w 100
▁2018 100
店 100
▁rates 100
由于 100
占 100
▁40 100
▁System 100
一切 100
喜欢 100
曼 100
▁版本 100
gen 100
sh 100
评估 100
ial 100
送 100
英语 100
设有 100
by 100
io 100
▁ASP 100
▁times 100
学校 100
▁image 100
▁Vi 100
▁Ra 100
持续 100
▁我们的 100
内部 100
考虑 100
性的 100
教 100
包 100
▁Here 100
men 100
渡轮 100
▁individual 100
最终 100
55 100
超 100
▁2008 100
▁understand 100
有效 100
▁continue 100
员工 100
▁care 100
公园 100
修改 100
ard 100
▁general 100
河 100
报 100
▁receive 100
▁measures 100
出现 100
▁Google 100
▁Mo 100
▁foreign 100
▁resolution 100
解 100
酒店的空房 100
▁bar 100
▁booking 100
▁请更改日期或查看所有 100
▁known 100
赛 100
作出 100
▁others 100
ner 100
▁About 100
代 100
所有的 100
gu 100
私人 100
▁sure 100
▁sites 100
ING 100
▁size 100
艺术 100
hour 100
创建 100
▁airport 100
▁solution 100
▁send 100
福 100
龙 100
民 100
共 100
▁choose 100
ating 100
qui 100
▁region 100
调 100
一起 100
▁promise 100
博 100
so 100
成本 100
▁Sea 100
独立 100
▁Sale 100
▁purpose 100
▁Su 100
▁然而 100
ize 100
▁problem 100
01 100
理 100
达到 100
项 100
成功 100
▁source 100
奖 100
品牌 100
提交 100
tor 100
可能会 100
传 100
side 100
清 100
适合您的 100
▁x 100
存储 100
si 100
▁largest 100
其它 100
pa 100
▁later 100
▁Use 100
▁text 100
▁而 100
▁options 100
创造 100
推 100
损失 100
不要 100
过去 100
▁implementation 100
▁technical 100
图片 100
▁London 100
收 100
名称 100
▁Online 100
▁Via 100
▁Villa 100
选项 100
结 100
▁investment 100
北 100
* 100
所以 100
▁% 100
▁2011 100
▁why 100
旅行 100
▁Book 100
来说 100
▁由于 100
ino 100
的方式 100
500 100
q 100
▁express 100
血 100
▁taken 100
▁thought 100
▁News 100
res 100
几 100
▁tickets 100
张 100
▁Be 100
浏览本网站 100
▁written 100
风险 100
wa 100
▁g 100
▁common 100
▁popular 100
▁Find 100
如此 100
34 100
规则 100
地址 100
分享 100
世 100
▁designed 100
开展 100
更加 100
▁Spain 100
▁yet 100
$ 100
种 100
▁reviews 100
▁tell 100
▁Art 100
▁capital 100
当地 100
▁field 100
▁plan 100
▁Some 100
▁查看 100
跟 100
食品 100
▁$ 100
网站浏览 100
▁once 100
每个 100
▁selected 100
▁obtain 100
Agriaffaires 100
社区 100
▁age 100
ip 100
并以此为 100
▁safety 100
服务和帮助 100
▁现在 100
▁allow 100
▁对于 100
▁29 100
则表示您接受 100
往 100
▁India 100
▁done 100
▁history 100
time 100
ise 100
若继续 100
▁24- 100
▁Old 100
▁lot 100
▁XHamster 100
笑 100
▁developing 100
▁使用 100
▁eyes 100
▁across 100
事件 100
▁select 100
船 100
▁developed 100
孩子 100
▁See 100
▁Software 100
mon 100
▁screen 100
团 100
▁clear 100
ring 100
▁Questions 100
▁Special 100
▁parts 100
▁mind 100
皮 100
▁exchange 100
和平 100
▁advance 100
▁domain 100
ph 100
ki 100
▁member 100
上帝 100
▁laws 100
耶和华 100
2016 100
▁date 100
▁costs 100
▁Ho 100
▁etc 100
▁least 100
▁关于 100
▁Policy 100
切 100
第一 100
行政 100
新闻 100
▁tool 100
▁Green 100
▁Products 100
链接 100
▁included 100
den 100
▁Security 100
现代 100
段 100
传统 100
▁Museum 100
▁whole 100
▁Sa 100
▁Click 100
▁Commission 100
In 100
▁· 100
▁images 100
▁relevant 100
顿 100
▁interest 100
长期 100
▁Show 100
▁agreement 100
Re 100
谁 100
▁UN 100
料 100
▁oil 100
▁article 100
是在 100
ier 100
▁0.1 100
mb 100
▁answers 100
▁根据 100
07 100
从而 100
罪 100
仍 100
▁mobile 100
▁natural 100
PDF 100
▁Red 100
治疗 100
▁Rights 100
▁efforts 100
▁desk 100
基于 100
▁sale 100
▁connection 100
AN 100
▁Open 100
▁notice 100
AS 100
按照 100
▁产品 100
▁Management 100
ors 100
▁download 100
▁HTML 100
▁star 100
▁Top 100
相信 100
▁directly 100
最后 100
理解 100
▁Paris 100
▁September 100
hi 100
▁centre 100
目的 100
知识 100
op 100
▁Am 100
▁v 100
IP 100
钱 100
话 100
▁app 100
88 100
▁additional 100
党 100
?” 100
有一个 100
步 100
黑 100
▁f 100
▁higher 100
▁... 100
led 100
落 100
2. 100
mp 100
价 100
ek 100
▁Pre 100
port 100
印度 100
bu 100
ue 100
地点 100
▁began 100
适用于 100
▁与 100
Microelectronics 100
▁changes 100
配置 100
▁projects 100
提供了 100
▁child 100
▁call 100
曾 100
配有 100
▁amount 100
▁regional 100
ber 100
产生 100
▁Agriaffaires 100
▁got 100
▁80 100
广告 100
▁thing 100
载 100
tra 100
页面 100
讲 100
作用 100
▁program 100
▁LORD 100
先生 100
▁Power 100
▁five 100
西班牙 100
▁Union 100
▁organizations 100
沙 100
金融 100
▁especially 100
客人 100
▁Singapore 100
计算 100
▁turn 100
▁question 100
输入 100
▁En 100
常 100
▁People 100
精 100
欧盟 100
获取 100
难 100
十 100
36 100
▁31 100
花园 100
评论 100
以便 100
99 100
▁link 100
博物馆 100
▁months 100
美元 100
▁persons 100
▁Bank 100
ze 100
04 100
战争 100
标 100
的地方 100
照 100
au 100
▁brand 100
▁Conference 100
▁capacity 100
▁storage 100
洛 100
改善 100
▁situation 100
▁tools 100
▁established 100
地图 100
制度 100
温 100
根 100
目前 100
▁population 100
人口 100
▁needed 100
▁accord 100
33 100
minute 100
任务 100
▁Lu 100
▁Add 100
▁series 100
▁Skip 100
▁所有 100
▁treatment 100
尽 100
▁paper 100
▁news 100
保 100
▁via 100
检测 100
▁safe 100
▁policies 100
倒 100
▁music 100
ping 100
贝 100
▁Se 100
▁big 100
▁transfer 100
很多 100
求 100
▁App 100
▁June 100
▁strong 100
▁» 100
▁2007 100
玩 100
离 100
吉 100
▁distribution 100
▁effective 100
EN 100
队 100
关注 100
▁bring 100
pro 100
▁December 100
耶稣 100
ED 100
▁sales 100
▁ability 100
EL 100
▁Du 100
mer 100
▁early 100
AR 100
2015 100
指出 100
出来 100
酒 100
▁Russia 100
▁types 100
▁Hostel 100
能源 100
▁Ta 100
▁beautiful 100
致 100
ities 100
05 100
宗教 100
的一部分 100
fe 100
微 100
44 100
IN 100
森 100
▁impact 100
▁July 100
学院 100
令人 100
▁Law 100
的权利 100
住宿 100
梅 100
▁password 100
▁effect 100
那里 100
▁USA 100
前往 100
ship 100
▁clean 100
▁force 100
▁Mon 100
差 100
▁true 100
广场 100
▁reason 100
▁session 100
或其他 100
▁如何 100
TR 100
▁supply 100
▁flat 100
旅馆 100
回答 100
日期 100
let 100
▁young 100
士 100
审查 100
▁Email 100
chi 100
mail 100
▁floor 100
▁run 100
保留 100
▁peace 100
IC 100
▁Video 100
49 100
电话 100
▁2009 100
▁includes 100
ec 100
的一个 100
一般 100
座 100
删除 100
und 100
▁IN 100
具 100
加工 100
古 100
意见 100
▁problems 100
建设 100
▁Human 100
威 100
客 100
的情况下 100
▁jobs 100
介绍 100
不可 100
ran 100
▁为了 100
09 100
▁Organization 100
css 100
最佳 100
伦 100
▁along 100
▁Request 100
为了 100
荷兰 100
▁unique 100
▁《 100
楼 100
底 100
38 100
▁having 100
▁€ 100
岁 100
37 100
伯 100
收入 100
盘 100
基本 100
– 100
▁economy 100
▁add 100
ok 100
加入 100
国内 100
▁damage 100
screen 100
ley 100
版本 100
val 100
▁(1) 100
▁prevent 100
▁German 100
剂 100
▁Mac 100
▁rest 100
5% 100
▁PC 100
非洲 100
▁perfect 100
价值 100
源 100
若 100
朋友 100
莫 100
▁Assembly 100
▁Club 100
特别是 100
▁CD 100
▁Instagram 100
▁pressure 100
以色列 100
▁wide 100
课程 100
因素 100
总统 100
▁这个 100
lan 100
▁self 100
▁Ad 100
ck 100
▁partners 100
▁office 100
班 100
▁cases 100
▁Guests 100
king 100
▁ten 100
▁simple 100
uk 100
六 100
= 100
▁ever 100
▁matter 100
▁students 100
欧 100
产 100
▁Ca 100
▁60 100
▁Per 100
证明 100
角 100
仍然 100
挑战 100
▁demand 100
▁speed 100
改革 100
▁Ex 100
商品 100
js 100
ability 100
院 100
▁First 100
▁profile 100
▁UK 100
请求 100
mi 100
▁school 100
俄罗斯 100
货 100
▁inter 100
维护 100
▁collect 100
eng 100
计算机 100
游 100
za 100
针对 100
防 100
▁consider 100
ny 100
▁Ferryto 100
思 100
原因 100
票 100
端 100
▁decision 100
泰 100
▁moment 100
53 100
56 100
bit 100
▁Check 100
che 100
68 100
▁issue 100
解释 100
su 100
▁received 100
ren 100
附近酒店 100
▁CENTURY 100
货币 100
▁Bi 100
令 100
▁November 100
比较 100
tal 100
税 100
▁本 100
▁虽然 100
ee 100
▁death 100
援助 100
牌 100
06 100
03 100
▁saw 100
▁TC 100
指 100
通常 100
▁doing 100
▁October 100
真的 100
ix 100
▁tax 100
You 100
认证 100
需 100
▁either 100
▁Grand 100
▁stop 100
▁King 100
64 100
▁reduce 100
制定 100
▁lowest 100
▁5. 100
▁assistance 100
ator 100
图像 100
▁approach 100
TA 100
展 100
机会 100
▁display 100
▁build 100
▁Ko 100
▁flower 100
表明 100
▁vehicle 100
界 100
▁enter 100
▁Live 100
▁credit 100
iv 100
程 100
▁didn 100
取得 100
▁military 100
▁August 100
▁对 100
主义 100
based 100
更改 100
模型 100
手机 100
声明 100
▁function 100
灵 100
▁provision 100
修 100
当前 100
直 100
保险 100
of 100
▁response 100
▁digital 100
不得 100
br 100
cy 100
添加 100
▁Gu 100
▁为 100
▁意大利 100
▁word 100
▁; 100
优惠 100
▁operation 100
这里 100
▁Ferry 100
计 100
2012 100
▁hot 100
降低 100
▁Exporter 100
ger 100
▁cause 100
合作伙伴 100
▁公寓 100
bi 100
适合 100
▁Ba 100
▁central 100
▁levels 100
000 100
第三方 100
▁32 100
▁professional 100
▁unto 100
▁move 100
鱼 100
雅 100
未来 100
ding 100
亲 100
这样的 100
智能 100
▁lower 100
▁March 100
▁however 100
sk 100
▁created 100
site 100
ure 100
ron 100
▁talk 100
▁basis 100
确认 100
造成 100
▁art 100
蒂 100
▁Bay 100
▁words 100
65 100
协调 100
▁industrial 100
▁Real 100
有些 100
▁Videos 100
上述 100
▁Price 100
树 100
ow 100
第二 100
职 100
▁leading 100
red 100
发送 100
▁II 100
似乎 100
tro 100
▁makes 100
▁activity 100
▁groups 100
失 100
的国家 100
TS 100
term 100
▁existing 100
▁mean 100
中央 100
以上 100
香港 100
▁Bed 100
▁conditioning 100
页 100
▁ferries 100
▁Location 100
▁devices 100
we 100
mar 100
运输 100
▁Pe 100
gar 100
特定 100
▁Private 100
▁construction 100
安排 100
▁Ga 100
85 100
遵守 100
▁Party 100
▁delivery 100
电脑 100
▁sea 100
▁Line 100
▁Map 100
▁woman 100
▁direct 100
▁While 100
▁expected 100
早 100
▁traditional 100
咨询 100
PC 100
许可 100
您可以 100
制造商 100
ham 100
▁SM 100
39 100
▁French 100
▁works 100
▁similar 100
▁Privacy 100
▁longer 100
夜 100
tion 100
▁如果你 100
描述 100
翻译 100
▁temperature 100
46 100
▁3* 100
电视 100
▁knowledge 100
做出 100
ST 100
账户 100
▁stars 100
▁35 100
的主要 100
联盟 100
全面 100
LE 100
48 100
▁Is 100
状态 100
▁Usage 100
资产 100
▁told 100
那个 100
▁license 100
服务器 100
ns 100
也不 100
fi 100
一下 100
PS 100
▁processing 100
满 100
▁John 100
▁Hu 100
my 100
69 100
ual 100
香 100
▁seen 100
开放 100
▁Ri 100
▁garden 100
打开 100
亚洲 100
样 100
事务 100
供应 100
买 100
排 100
▁Square 100
ach 100
▁became 100
nce 100
运 100
▁January 100
违反 100
AP 100
act 100
算 100
结束 100
▁Ha 100
▁Russian 100
拿 100
代码 100
wi 100
灯 100
房间 100
希 100
经过 100
2013 100
某些 100
医疗 100
▁questions 100
CH 100
▁fine 100
早餐 100
▁entire 100
帕 100
感到 100
▁budget 100
不仅 100
▁Global 100
异 100
▁refresh 100
▁standards 100
年的 100
ries 100
-1 100
▁IP 100
▁sent 100
并在 100
▁Pi 100
舒适 100
提升 100
船票价格 100
港 100
lic 100
造 100
▁father 100
身体 100
▁Sha 100
▁outside 100
充分 100
▁exist 100
言 100
▁hope 100
多个 100
数量 100
▁regard 100
领 100
St 100
▁404 100
▁要 100
联合 100
▁half 100
合同 100
届 100
200 100
▁edit 100
▁3. 100
▁enough 100
金属 100
停 100
读 100
▁Game 100
▁station 100
主席 100
▁liable 100
ET 100
优化 100
▁-- 100
调整 100
▁study 100
▁Guest 100
方便 100
压力 100
art 100
▁Water 100
才能 100
tin 100
▁multi 100
设 100
▁Apartments 100
推动 100
离开 100
套 100
ions 100
▁School 100
▁Her 100
▁appropriate 100
存 100
论坛 100
▁says 100
基督 100
▁log 100
▁king 100
tu 100
基金 100
42 100
师 100
配 100
▁Inter 100
cn 100
▁Social 100
▁surface 100
ou 100
OR 100
cle 100
▁April 100
CC 100
再次 100
▁develop 100
带来 100
包装 100
fer 100
▁color 100
除 100
的时间 100
▁Express 100
84 100
效率 100
▁Un 100
活 100
预 100
经常 100
鲁 100
ight 100
保存 100
▁photo 100
▁properties 100
消息 100
use 100
套房 100
▁commercial 100
列表 100
▁rental 100
▁excellent 100
▁average 100
ji 100
▁Ne 100
证 100
▁Star 100
▁board 100
▁built 100
▁IT 100
▁class 100
▁sp 100
▁从视频 100
▁2005 100
一点 100
酸 100
架 100
▁因为 100
属 100
变化 100
冲突 100
积极 100
▁免费 100
▁goods 100
象 100
的内容 100
▁k 100
全部 100
▁itself 100
至少 100
▁新 100
交通 100
view 100
▁processes 100
▁Manager 100
▁provisions 100
▁Jo 100
▁learn 100
▁LED 100
58 100
登 100
▁phone 100
主题 100
ology 100
较 100
药 100
▁大 100
电影 100
机制 100
拒绝 100
额 100
上的用途 100
越 100
商标 100
▁almost 100
市中心 100
▁此 100
方面的 100
▁therefore 100
▁comes 100
密码 100
▁apply 100
▁kitchen 100
▁Min 100
gi 100
▁ideal 100
▁请注意 100
论 100
▁recent 100
▁cable 100
▁所以 100
▁unit 100
▁purchase 100
温度 100
ves 100
list 100
▁platform 100
EC 100
▁follow 100
宝 100
▁hands 100
▁ask 100
以前 100
ey 100
43 100
形式 100
▁例如 100
▁Australia 100
▁variety 100
▁nature 100
妈妈 100
授权 100
od 100
▁Saint 100
▁taking 100
▁ground 100
生物 100
▁Secretary 100
民主 100
fin 100
▁4* 100
▁easily 100
ide 100
▁anti 100
nes 100
领导 100
毒 100
▁daily 100
75 100
▁Spa 100
将会 100
出口 100
最新发布的供求信息 100
MS 100
互联网 100
▁views 100
▁hold 100
▁privacy 100
▁contract 100
for 100
▁nothing 100
义务 100
▁Western 100
明确 100
▁outdoor 100
▁Where 100
▁progress 100
▁其他 100
也可以 100
); 100
规划 100
▁description 100
▁programme 100
的能力 100
▁4. 100
收到 100
然 100
简单 100
▁buy 100
面前 100
▁act 100
▁gas 100
▁soon 100
湖 100
几个 100
营 100
▁potential 100
最好的 100
实际 100
press 100
空调 100
冰 100
▁equipped 100
音 100
▁district 100
▁responsibility 100
ai 100
▁society 100
▁anything 100
free 100
IS 100
供 100
▁Dur 100
▁friends 100
速度 100
原则 100
股份有限公司 100
一项 100
教会 100
▁Used 100
玻璃 100
少 100
▁restaurant 100
▁Admin 100
一系列 100
ft 100
▁though 100
300 100
▁road 100
SE 100
No 100
▁browser 100
会员 100
衣 100
▁英国 100
IT 100
▁74 100
ef 100
飞 100
▁considered 100
▁culture 100
程度 100
▁Quick 100
展示 100
它的 100
▁try 100
tri 100
知 100
▁greater 100
▁breakfast 100
属于 100
▁Day 100
本协议 100
科技 100
▁status 100
避免 100
制作 100
▁Court 100
▁sound 100
▁wanted 100
DS 100
举行 100
过程中 100
箱 100
直到 100
▁white 100
整 100
限 100
阶段 100
▁base 100
cal 100
目 100
▁steel 100
▁Taiwan 100
▁store 100
▁yourself 100
▁charge 100
▁da 100
ven 100
协助 100
集成 100
短 100
▁selection 100
▁WiFi 100
▁employees 100
▁imp 100
xi 100
洗 100
具体 100
▁places 100
精神 100
严重 100
归 100
享有 100
画 100
▁Ireland 100
▁Garden 100
传感器 100
掉 100
定义 100
▁Avenue 100
41 100
ice 100
▁Project 100
增 100
▁cut 100
vis 100
瑞 100
钢 100
▁Breakfast 100
不知道 100
的影响 100
一位 100
女人 100
爱尔兰 100
进程 100
全国 100
▁started 100
减 100
▁中 100
▁Ja 100
▁immediately 100
▁Member 100
▁Support 100
▁allows 100
▁Or 100
▁法国 100
几乎 100
MA 100
年代 100
▁forward 100
愿 100
unt 100
2009 100
高级 100
▁Any 100
玛 100
▁Board 100
▁River 100
▁Cor 100
材 100
埃 100
▁Area 100
苏 100
rt 100
脚 100
▁six 100
注 100
工艺 100
身上 100
96 100
ture 100
MP 100
记 100
▁Si 100
▁类型 100
▁requires 100
▁extra 100
▁Japanese 100
预算 100
▁$30. 100
观 100
▁2006 100
▁promote 100
退 100
▁fast 100
ium 100
杀 100
▁institutions 100
承担 100
扩展 100
危机 100
强调 100
▁shopping 100
▁Microchip 100
▁brought 100
稳定 100
字 100
产业 100
冷 100
▁Island 100
电子邮件 100
九 100
▁events 100
▁increased 100
最大的 100
▁1. 100
▁33 100
草 100
▁avoid 100
▁everything 100
蒙 100
des 100
▁organization 100
▁lead 100
▁court 100
一家 100
纸 100
上海 100
倍 100
▁document 100
pi 100
▁success 100
sy 100
▁Act 100
各国 100
▁Steam 100
ag 100
▁term 100
▁quote 100
1. 100
▁operations 100
脱 100
女性 100
街 100
if 100
▁himself 100
资金 100
找 100
▁Che 100
男人 100
RI 100
▁2000 100
帐户 100
ud 100
投 100
▁turned 100
sur 100
今天 100
▁markets 100
▁Booking 100
▁Play 100
▁practice 100
ments 100
54 100
晚 100
反应 100
▁$1 100
留 100
▁method 100
all 100
▁fire 100
▁offering 100
北京 100
▁box 100
酒吧 100
ile 100
▁MAC 100
AD 100
▁公司 100
紧 100
▁deal 100
ab 100
oo 100
▁consent 100
多种 100
▁particularly 100
ot 100
表面 100
ory 100
▁basic 100
升 100
以后 100
斯特 100
:4.0.30319 100
▁style 100
cre 100
▁town 100
▁Life 100
▁Android 100
务 100
生命 100
禁止 100
sha 100
▁Why 100
抗 100
▁reports 100
▁feature 100
▁detailed 100
▁年 100
▁failure 100
▁Town 100
交流 100
▁focus 100
顶 100
▁son 100
复制 100
▁advanced 100
▁blood 100
▁operating 100
办公室 100
▁benefits 100
▁independent 100
入住 100
▁cent 100
系 100
了一个 100
CA 100
哥 100
▁Discover 100
共享 100
▁Prices 100
▁rule 100
▁prior 100
▁Chi 100
▁st 100
87 100
▁hour 100
2014 100
▁components 100
商务 100
ther 100
▁save 100
▁ex 100
▁mother 100
▁del 100
▁command 100
je 100
▁gave 100
体系 100
▁remain 100
row 100
而不是 100
相关的 100
适用 100
▁month 100
sion 100
轻 100
ible 100
▁Most 100
▁Code 100
jo 100
light 100
▁February 100
▁knew 100
▁claim 100
办法 100
OS 100
▁collection 100
财政 100
▁Player 100
景 100
▁Director 100
埃及 100
众 100
▁Travel 100
让您 100
毛 100
day 100
ute 100
see 100
▁Korea 100
创 100
▁voice 100
英 100
▁》 100
流程 100
De 100
▁Holiday 100
▁paragraph 100
▁Cha 100
▁Ben 100
的位置 100
▁structure 100
▁registration 100
int 100
▁secure 100
▁0.2 100
▁可 100
▁Learn 100
有权 100
ES 100
环 100
反对 100
▁opened 100
赫 100
▁Fa 100
数据库 100
果 100
▁Great 100
建 100
案 100
▁manufacturing 100
▁Profile 100
父 100
ku 100
ris 100
厂 100
▁domestic 100
▁nuclear 100
营销 100
DR 100
是一种 100
ville 100
协会 100
农业 100
十分 100
▁park 100
条约 100
法院 100
承认 100
的其他 100
备 100
ov 100
群 100
的相关 100
黄 100
ico 100
▁accepted 100
set 100
gg 100
▁medical 100
承诺 100
▁Blog 100
经营 100
事情 100
形成 100
▁communication 100
▁film 100
真正 100
▁Flash 100
公民 100
▁attention 100
▁century 100
▁quickly 100
aiwantrade 100
策略 100
General 100
不过 100
▁rules 100
ld 100
▁Us 100
▁BlackBerry 100
缔约国 100
一致 100
59 100
▁plant 100
断 100
▁won 100
▁75 100
为什么 100
▁technologies 100
47 100
田 100
批准 100
▁ways 100
关 100
攻击 100
撒 100
综合 100
ara 100
坐 100
ug 100
意大利 100
击 100
95 100
▁Adobe 100
▁se 100
框架 100
▁6. 100
▁continued 100
高度 100
素 100
更多的 100
丝 100
启动 100
▁efficiency 100
选举 100
▁comfortable 100
▁45 100
▁step 100
77 100
现 100
▁themselves 100
har 100
▁beach 100
▁benefit 100
控 100
▁require 100
利益 100
83 100
▁job 100
格式 100
查 100
gra 100
▁Also 100
2010 100
▁一个 100
▁Health 100
▁steps 100
涉及 100
▁achieve 100
发表 100
▁Economic 100
▁added 100
La 100
接触 100
▁EU 100
▁double 100
▁guide 100
娱乐 100
▁travelers 100
▁Ch 100
觉得 100
旧 100
▁Lo 100
▁Ver 100
大型 100
▁original 100
背景 100
▁sector 100
一天 100
▁reach 100
的最佳 100
▁black 100
大部分 100
肉 100
的新 100
三个 100
▁touch 100
▁ANY 100
第三 100
回到 100
松 100
丽 100
▁protected 100
美食 100
▁lost 100
第一次 100
关键 100
专 100
▁= 100
SI 100
▁Welcome 100
▁press 100
▁mode 100
ep 100
▁physical 100
72 100
2000 100
义 100
▁Linux 100
一条 100
个月 100
▁Post 100
▁section 100
car 100
250 100
准确 100
关闭 100
分类 100
▁heat 100
▁electric 100
▁option 100
!" 100
浴室 100
伤 100
卫生 100
▁opportunity 100
▁rather 100
▁hair 100
词 100
▁Fi 100
▁wish 100
现场 100
防止 100
▁Industry 100
是什么 100
▁Sun 100
的最新 100
ray 100
八 100
这么 100
▁Games 100
▁cross 100
SA 100
▁week 100
61 100
无线 100
出售 100
▁36 100
AM 100
▁是 100
家酒店 100
公开 100
ations 100
hu 100
养 100
▁applicable 100
颜色 100
▁作为 100
易 100
空气 100
指南 100
铁 100
来源 100
单位 100
▁Apple 100
牛 100
▁cloud 100
▁Port 100
% 100
cent 100
宣布 100
▁documents 100
看见 100
表现 100
ward 100
作品 100
▁Young 100
浏览 100
▁maintain 100
提供的 100
66 100
酒店位于 100
不到 100
一定 100
▁deliver 100
▁iron 100
烟 100
▁distance 100
400 100
▁listening 100
购物 100
▁MC 100
▁2. 100
工厂 100
你可以 100
▁bit 100
51 100
bb 100
滑 100
盖 100
▁Report 100
麦 100
▁用户 100
▁Food 100
▁coming 100
▁2004 100
rate 100
▁recommendations 100
致力于 100
▁difficult 100
施 100
可以在 100
里面 100
▁towards 100
东西 100
▁relationship 100
ub 100
800 100
▁glass 100
▁interface 100
▁Lake 100
▁significant 100
cur 100
土 100
yo 100
在这里 100
服 100
▁monitoring 100
han 100
▁infrastructure 100
57 100
▁sense 100
Pa 100
▁FOR 100
千 100
▁WINDOWS 100
尺寸 100
▁felt 100
情况下 100
移民 100
cha 100
▁Since 100
希腊 100
▁cl 100
宫 100
七 100
同样 100
ble 100
▁7. 100
阅读 100
▁Trade 100
▁According 100
▁takes 100
2008 100
DA 100
凯 100
AT 100
正式 100
正常 100
▁HYIP 100
▁mo 100
朝 100
死亡 100
▁Department 100
步骤 100
▁automatically 100
▁Minister 100
特殊 100
以来 100
欢迎 100
á 100
别墅 100
ps 100
kin 100
box 100
▁heard 100
弗 100
足 100
HTML 100
ative 100
▁500 100
▁environmental 100
▁marketing 100
ita 100
▁games 100
▁message 100
▁billion 100
edit 100
▁multiple 100
▁saying 100
登录 100
▁essential 100
ign 100
▁favorite 100
的产品 100
父亲 100
▁Account 100
▁flowers 100
▁window 100
▁tour 100
2011 100
▁那 100
▁lack 100
▁du 100
感觉 100
SS 100
换 100
大量 100
▁external 100
破坏 100
▁Cat 100
rd 100
73 100
船票 100
▁thus 100
就会 100
▁AM 100
▁Sch 100
du 100
▁purposes 100
ever 100
▁remove 100
▁34 100
加拿大 100
时代 100
▁Super 100
▁watch 100
ick 100
▁comfort 100
▁Just 100
▁Market 100
▁integrated 100
富 100
▁break 100
扩大 100
▁author 100
af 100
▁不过 100
▁Back 100
成立 100
▁caused 100
▁African 100
块 100
的东西 100
另一 100
土地 100
亿 100
▁将 100
模块 100
It 100
ware 100
虽然 100
▁阿 100
刀 100
基础 100
▁天 100
混合 100
余 100
背 100
". 100
祂 100
▁Blue 100
SC 100
▁sign 100
▁modify 100
her 100
▁Royal 100
▁Visit 100
镇 100
ON 100
优 100
外部 100
▁Natural 100
▁girl 100
停止 100
粉 100
▁Corporation 100
目录 100
▁Eastern 100
ification 100
降 100
机器 100
▁bus 100
UN 100
Do 100
竞争 100
▁complex 100
守 100
▁crisis 100
复 100
axd 100
Ma 100
▁leaders 100
▁official 100
势 100
ified 100
举办 100
▁li 100
输出 100
只能 100
印 100
寻找 100
导 100
另一个 100
▁strategy 100
通信 100
随 100
▁尽管 100
▁Media 100
细胞 100
▁Control 100
ical 100
▁regarding 100
域名 100
▁sin 100
速 100
链 100
此类 100
细 100
duc 100
▁attempt 100
▁Good 100
▁copyright 100
罗马 100
zz 100
详细 100
ros 100
TI 100
▁points 100
冲 100
era 100
▁acknowledge 100
▁Spirit 100
IA 100
az 100
▁host 100
▁38 100
ID 100
▁fl 100
ral 100
▁Rome 100
▁Ni 100
TMs 100
康 100
广泛 100
居 100
雪 100
▁internet 100
▁Two 100
▁Restaurant 100
▁这种 100
▁Studio 100
ction 100
登记 100
back 100
▁leave 100
初 100
宣传 100
指导 100
▁ready 100
PA 100
不再 100
▁effects 100
耶 100
▁(2) 100
效果 100
鼓励 100
▁arrival 100
的情况 100
▁Tri 100
装置 100
▁Don 100
▁sun 100
立即 100
专门 100
获 100
工作人员 100
女孩 100
摩 100
威胁 100
副 100
▁maintenance 100
跑 100
ay 100
▁idea 100
ev 100
▁income 100
浏览器 100
▁transport 100
叶 100
怎样 100
▁internal 100
▁concerts 100
▁load 100
▁travellers 100
-2 100
信号 100
▁联系我们 100
▁exercise 100
谈判 100
的数据 100
▁Work 100
ants 100
▁comprehensive 100
▁Network 100
▁inform 100
▁produce 100
既 100
▁ca 100
▁debt 100
▁bo 100
▁functions 100
▁Har 100
通讯 100
▁earth 100
▁electronic 100
▁由 100
▁上海 100
ear 100
咖啡 100
▁truth 100
乌 100
应对 100
债务 100
理论 100
▁Bu 100
▁enterprise 100
取消 100
轻松 100
最高 100
▁highly 100
67 100
89 100
▁beginning 100
▁Store 100
▁Many 100
当时 100
▁Machine 100
pic 100
▁behind 100
work 100
PE 100
大多数 100
而言 100
▁ye 100
nt 100
▁Manufacturers 100
神的 100
为您提供 100
软 100
使用的 100
COM 100
amp 100
▁posted 100
而是 100
例 100
shi 100
▁science 100
改进 100
▁Under 100
传输 100
海洋 100
阳 100
网页 100
命令 100
馆 100
▁cities 100
▁train 100
OP 100
顺 100
▁final 100
时期 100
到达 100
▁planning 100
母 100
▁payment 100
▁arising 100
发挥 100
▁speak 100
星级 100
▁Santa 100
自动化 100
▁Ya 100
泵 100
▁District 100
▁Located 100
gif 100
▁Are 100
让你 100
ada 100
▁Address 100
We 100
▁Ac 100
Al 100
▁offered 100
茶 100
▁stats 100
▁conduct 100
▁deals 100
wood 100
进行了 100
lar 100
▁operators 100
° 100
▁bank 100
举 100
圣经 100
聚 100
▁Time 100
ala 100
▁visitors 100
急 100
▁conflict 100
构成 100
▁patent 100
疾病 100
▁running 100
运营 100
▁reasonable 100
注意 100
重大 100
一名 100
▁affect 100
mor 100
▁submit 100
tel 100
音乐会 100
ju 100
▁Tech 100
歌 100
国际机场 100
RA 100
▁anyone 100
▁highest 100
脸 100
▁involved 100
RS 100
Ro 100
▁testing 100
卫 100
▁accurate 100
假 100
▁Max 100
ash 100
▁Well 100
靠 100
▁Ab 100
▁RE 100
▁Ru 100
76 100
平衡 100
周围 100
结合 100
组合 100
▁challenges 100
▁pa 100
▁fear 100
over 100
景点 100
码 100
izing 100
射 100
司法 100
▁reached 100
▁Share 100
vent 100
▁BC 100
sta 100
Co 100
食 100
专利 100
sp 100
▁请刷新页面查看 100
▁reference 100
▁Taiwantrade 100
▁understanding 100
硬 100
跳 100
UR 100
▁installation 100
EP 100
无论 100
一份 100
的服务 100
是个 100
CD 100
▁tea 100
重要的 100
▁copy 100
RE 100
注意到 100
是由 100
cu 100
取决于 100
▁fall 100
▁parking 100
ker 100
消费者 100
52 100
uff 100
▁respond 100
识别 100
▁meters 100
bra 100
▁Arab 100
资本 100
卧室 100
旨在 100
军事 100
oc 100
▁maximum 100
ME 100
▁currently 100
2017 100
每年 100
含 100
的事 100
的发展 100
司 100
本公司 100
▁coffee 100
对话 100
真正的 100
▁White 100
按钮 100
监控 100
▁inside 100
▁published 100
网上 100
81 100
▁background 100
▁generation 100
动物 100
独 100
mark 100
▁fuel 100
▁Suite 100
▁2003 100
探索 100
TER 100
对象 100
监督 100
汉 100
CP 100
厨房 100
▁release 100
eg 100
78 100
一年 100
▁Gi 100
▁climate 100
▁flow 100
zi 100
ell 100
共和国 100
▁fitness 100
尝试 100
▁alone 100
武器 100
▁path 100
将在 100
卖 100
正确 100
▁contains 100
▁joint 100
▁PDF 100
▁faith 100
病毒 100
伦敦 100
▁trip 100
▁USB 100
▁shown 100
优势 100
▁civil 100
del 100
▁Cal 100
ath 100
指定 100
He 100
参数 100
保障 100
迷 100
风格 100
▁advantage 100
内的 100
犯罪 100
▁您同意 100
ura 100
最大 100
▁Place 100
解答 100
▁seven 100
▁poor 100
小组 100
联邦 100
▁Select 100
▁Thailand 100
▁Out 100
年度 100
▁nor 100
地位 100
tech 100
▁red 100
tan 100
每天 100
▁quite 100
▁David 100
▁Key 100
ari 100
▁deep 100
▁spa 100
▁mm 100
有人 100
俱乐部 100
IM 100
-5 100
▁Mexico 100
▁opportunities 100
境 100
财务 100
▁然后 100
胜 100
地中海 100
寻求 100
评价 100
▁Sp 100
平均 100
航 100
▁experts 100
ery 100
▁Church 100
▁button 100
off 100
出版 100
意味着 100
▁output 100
▁track 100
▁previous 100
▁cultural 100
98 100
house 100
农 100
▁bad 100
坏 100
亦 100
秘书长 100
▁TripAdvisor 100
兴 100
容 100
并从 100
本地 100
▁values 100
认识 100
屏幕 100
▁Drive 100
▁sh 100
「 100
shan 100
▁Customer 100
范围内 100
附近 100
放在 100
2005 100
> 100
© 100
ast 100
▁monitor 100
▁shower 100
众多 100
▁led 100
▁campsite 100
▁active 100
▁associated 100
€” 100
试图 100
vers 100
▁decided 100
▁separate 100
▁happy 100
监测 100
大约 100
▁guest 100
人士 100
卷 100
▁innovation 100
▁Description 100
准 100
▁experiences 100
都会 100
room 100
趋势 100
nan 100
散 100
ped 100
cing 100
▁Public 100
tive 100
▁42 100
▁Black 100
▁freedom 100
来到 100
▁Uni 100
沃 100
最近 100
劳 100
▁Found 100
▁likely 100
▁po 100
▁onboard 100
我就 100
▁trust 100
陈 100
▁warm 100
总是 100
文章 100
len 100
何 100
使得 100
▁concept 100
江 100
尽管 100
So 100
护 100
最低 100
意义 100
医生 100
现实 100
规模 100
穿 100
▁chain 100
▁Each 100
禁 100
雨 100
▁Institute 100
▁draft 100
index 100
装饰 100
游客 100
.[ 100
▁violence 100
ct 100
ens 100
▁Card 100
ane 100
ys 100
ria 100
▁以下 100
▁authorities 100
文档 100
救 100
▁Main 100
nic 100
领导人 100
味 100
▁Spanish 100
告诉 100
▁› 100
时候 100
电源 100
▁没有 100
▁register 100
完 100
▁interested 100
▁37 100
▁Java 100
▁如 100
▁Sex 100
命 100
▁positive 100
▁simply 100
▁influence 100
的小 100
▁^ 100
▁growing 100
免 100
▁48 100
甲 100
LA 100
▁reform 100
心里 100
巴西 100
▁Research 100
▁states 100
▁Islands 100
FC 100
号决议 100
广 100
▁NOT 100
影 100
轴 100
▁Ju 100
▁practices 100
必要 100
ire 100
▁enable 100
ency 100
▁除了 100
TC 100
ama 100
纽约 100
▁methods 100
看看 100
Mo 100
购 100
▁actually 100
EM 100
零 100
刚 100
ition 100
最新 100
▁welcome 100
▁Manufacturer 100
LY 100
乱 100
改 100
标志 100
▁Je 100
的事情 100
▁ro 100
巴黎 100
随时 100
根本 100
现有 100
▁connected 100
验证 100
▁error 100
cc 100
史 100
▁Limited 100
在一个 100
DI 100
head 100
▁British 100
▁CA 100
▁framework 100
英文 100
▁Even 100
▁Cam 100
科技有限公司 100
无需 100
63 100
▁target 100
600 100
试 100
▁Community 100
▁regulations 100
▁70 100
▁metal 100
基础设施 100
发出 100
在一起 100
密 100
▁Model 100
▁police 100
▁Note 100
▁morning 100
点击 100
厅 100
ack 100
▁powerful 100
▁Mobile 100
~ 100
银 100
觉 100
▁amenities 100
菲 100
▁terminate 100
▁perform 100
增强 100
ena 100
阿尔 100
消除 100
塑料 100
▁0.3 100
▁placed 100
缺乏 100
▁lives 100
销 100
母亲 100
事实 100
bar 100
就可以 100
商店 100
惊 100
曲 100
ik 100
▁Because 100
清洁 100
▁Palace 100
您在 100
▁importance 100
▁items 100
▁answer 100
ew 100
▁rise 100
谈 100
uck 100
▁programmes 100
▁else 100
堡 100
▁update 100
▁sa 100
▁你们 100
比赛 100
力量 100
NA 100
▁stock 100
村 100
▁routes 100
▁remember 100
91 100
▁deposit 100
办 100
矿 100
mat 100
▁Son 100
ste 100
▁ID 100
兹 100
▁Com 100
▁wall 100
革命 100
恶 100
并没有 100
van 100
pp 100
▁restaurants 100
湾 100
园 100
▁insurance 100
ists 100
便宜 100
ient 100
▁BE 100
▁Long 100
▁Chat 100
表达 100
▁Big 100
给予 100
佛 100
▁Holy 100
尤其是 100
LS 100
▁doesn 100
▁California 100
▁evidence 100
▁whose 100
▁提供免费 100
pt 100
▁Mediterranean 100
争议 100
有效的 100
▁我的 100
SP 100
▁hear 100
▁clients 100
WiFi 100
tur 100
野 100
移 100
▁fees 100
大家 100
CE 100
藏 100
墙 100
打印 100
▁Italian 100
患者 100
星级酒店 100
引 100
RM 100
▁destination 100
信用卡 100
亿美元 100
▁Refresh 100
困难 100
▁Ge 100
版权 100
▁correct 100
提示 100
土耳其 100
中间 100
公众 100
▁programs 100
可在 100
预测 100
▁90 100
▁export 100
哪 100
的酒店 100
▁links 100
▁Series 100
▁serious 100
Ba 100
追 100
儿子 100
审议 100
液 100
设立 100
79 100
pl 100
▁刷新 100
▁0.0 100
审 100
ins 100
性别 100
的生活 100
▁Yu 100
▁rich 100
物质 100
成果 100
吸 100
▁shows 100
贴 100
▁Ti 100
▁trademark 100
履行 100
职业 100
SD 100
▁Tu 100
ses 100
ken 100
有助于 100
av 100
ned 100
▁sustainable 100
▁allowed 100
化学 100
type 100
▁im 100
▁pass 100
▁AD 100
▁forces 100
og 100
▁church 100
重点 100
望 100
▁Family 100
包括但不限于 100
▁Application 100
▁编辑 100
之外 100
▁点击这里 100
▁vs 100
统计数据和 100
▁portion 100
议会 100
待 100
▁fun 100
戴 100
▁同时 100
tw 100
mit 100
TH 100
▁stand 100
▁Intel 100
蓝 100
▁Forum 100
邮件 100
▁Look 100
OL 100
年龄 100
侵犯 100
▁models 100
▁adopted 100
▁Val 100
惠 100
DC 100
iz 100
▁Asian 100
▁websites 100
妈 100
▁地址 100
▁fr 100
比如 100
▁strength 100
喝 100
当然 100
愿意 100
用途 100
仪 100
有点 100
long 100
71 100
▁ISO 100
▁Access 100
▁Light 100
本身 100
▁CH 100
▁core 100
▁famous 100
游览 100
▁story 100
观察 100
菜单 100
相当 100
网站上 100
演 100
▁39 100
偏 100
▁当然 100
问题的 100
▁Set 100
▁Personal 100
vel 100
瑞士 100
▁moved 100
各个 100
▁版本信息 100
▁custom 100
电池 100
双方 100
▁gold 100
ford 100
▁direction 100
普遍 100
FI 100
class 100
▁completely 100
纯 100
ser 100
▁Although 100
担任 100
有什么 100
▁overall 100
▁friendly 100
▁Building 100
CI 100
▁degree 100
▁Beh 100
暴力 100
▁Guangzhou 100
西方 100
友 100
▁Paul 100
露台 100
▁former 100
下降 100
损害 100
数学 100
豪华 100
知识产权 100
家具 100
▁自 100
▁port 100
▁制造商 100
▁manage 100
Ltd 100
技能 100
▁uses 100
▁Answers 100
ple 100
hai 100
房地产 100
让我 100
体育 100
▁Han 100
▁agreed 100
青 100
付款 100
晚上 100
给你 100
▁Thank 100
▁gives 100
party 100
▁object 100
▁Bri 100
详情 100
升级 100
▁foot 100
BS 100
▁这一 100
▁workers 100
▁seek 100
特点 100
▁Los 100
▁dry 100
动态 100
授予 100
img 100
▁Gar 100
▁metres 100
tes 100
默 100
▁comply 100
办事处 100
▁reliable 100
弄 100
form 100
▁HD 100
ging 100
ney 100
部长 100
除了 100
RO 100
▁circumstances 100
▁convenient 100
▁paid 100
预防 100
订单 100
杰 100
field 100
including 100
▁Guarantee 100
▁Technologies 100
实时 100
交付 100
▁worldwide 100
圆 100
▁Error 100
美丽的 100
▁Non 100
相比 100
▁MP 100
▁cover 100
▁publish 100
▁units 100
▁Dis 100
▁cell 100
vid 100
▁Redirect 100
官 100
▁Gen 100
An 100
▁whom 100
low 100
也会 100
财产 100
▁reported 100
▁vi 100
达成 100
统一 100
礼 100
▁n 100
凡 100
ade 100
▁OS 100
贡献 100
▁architecture 100
靠近 100
LV 100
助 100
处于 100
rus 100
里的 100
隐私政策 100
▁elements 100
▁determine 100
ale 100
态 100
▁context 100
修复 100
▁relations 100
负 100
2007 100
are 100
year 100
▁Shenzhen 100
研发 100
组件 100
配备 100
男 100
这项 100
mun 100
FS 100
▁actions 100
▁annual 100
绝对 100
▁late 100
有关的 100
▁wrong 100
ini 100
卢 100
发展中国家 100
传播 100
▁Holland 100
部署 100
▁© 100
也有 100
明白 100
▁Near 100
▁Wall 100
▁record 100
赔偿 100
睡 100
▁Enterprise 100
公司的 100
▁registered 100
▁successful 100
board 100
bul 100
▁Toronto 100
▁weight 100
▁Over 100
pre 100
▁trying 100
▁Hi 100
兵 100
▁sat 100
国家的 100
▁l 100
相同 100
▁writing 100
▁integration 100
文本 100
▁usually 100
波兰 100
团体 100
类别 100
贵 100
▁consumption 100
▁Middle 100
▁wireless 100
▁operator 100
▁eat 100
ez 100
效 100
▁Next 100
在那里 100
▁remains 100
分配 100
胶 100
县 100
医院 100
固定 100
/2 100
▁TS 100
zhou 100
笔 100
录 100
can 100
下来 100
▁al 100
▁database 100
▁神 100
hen 100
ify 100
测 100
▁Fund 100
宁 100
▁Hot 100
Pro 100
▁strategic 100
迅速 100
维持 100
ax 100
显 100
▁partner 100
▁suite 100
耐 100
隆 100
▁depending 100
▁Executive 100
这是一个承诺 100
伊朗 100
fu 100
▁green 100
▁Hall 100
独特的 100
▁recommend 100
▁Pen 100
▁relat 100
▁beyond 100
▁liability 100
▁useful 100
gr 100
梦 100
tt 100
分别 100
▁spirit 100
普通 100
▁spread 100
面对 100
▁feeling 100
hr 100
私 100
跨 100
LD 100
▁guarantee 100
▁count 100
容易 100
代理 100
▁Industrial 100
骨 100
犯 100
手段 100
TP 100
▁assist 100
▁getting 100
抽 100
150 100
93 100
▁College 100
▁committed 100
▁dining 100
▁Science 100
▁300 100
ms 100
须 100
茨 100
喜 100
▁Education 100
胡 100
▁出口商 100
绿色 100
下列 100
ola 100
rk 100
▁machines 100
▁41 100
▁stage 100
▁serve 100
▁square 100
▁broad 100
product 100
62 100
rin 100
▁cleaning 100
▁articles 100
的结果 100
▁frame 100
▁Registrant 100
▁一 100
▁54 100
隔 100
警察 100
刻 100
的需求 100
▁Part 100
只要 100
成员国 100
就业 100
Me 100
支助 100
方向 100
永远 100
▁您可以从 100
mal 100
▁sex 100
▁engine 100
您同意 100
▁round 100
▁establish 100
▁YOU 100
▁Qu 100
点评 100
车辆 100
▁mouth 100
相对 100
▁这间 100
▁mass 100
驱动 100
文字 100
book 100
qua 100
▁statement 100
▁Residence 100
贷款 100
接收 100
bin 100
官方 100
▁conference 100
app 100
训练 100
仅有 100
历 100
▁pages 100
LO 100
良 100
坐在 100
很好 100
▁length 100
齐 100
town 100
键 100
娜 100
▁met 100
▁Bra 100
▁Copyright 100
▁Category 100
推荐 100
▁disease 100
san 100
依 100
自身 100
tors 100
▁Second 100
采购 100
▁Baltic 100
消费 100
系统的 100
▁hu 100
组成 100
Windows 100
▁beat 100
▁expect 100
苦 100
▁efficient 100
lia 100
变得 100
标签 100
服务的 100
▁Pan 100
▁effort 100
新加坡 100
一个人 100
wan 100
磨 100
孔 100
过来 100
▁comments 100
▁manner 100
▁recovery 100
▁Te 100
▁sailing 100
▁Shi 100
酒店的 100
▁title 100
▁Yes 100
什 100
生成 100
突然 100
▁combination 100
每晚 100
▁房间 100
▁Mi 100
ised 100
point 100
▁以 100
▁format 100
艾 100
▁Egypt 100
▁nice 100
nch 100
▁DL 100
▁condition 100
▁procedures 100
ming 100
等等 100
▁funds 100
者的 100
都有 100
决 100
给我 100
▁Let 100
▁Marketing 100
招 100
资讯 100
激光 100
校 100
卫星 100
▁described 100
▁appear 100
小型 100
末 100
TO 100
right 100
借 100
▁letter 100
於 100
97 100
▁friend 100
dis 100
终止 100
▁Sign 100
▁Love 100
▁Christian 100
▁iPhone 100
类型的 100
ably 100
▁forms 100
定制 100
将其 100
奶 100
扣 100
尊重 100
静 100
AB 100
▁Tra 100
▁increasing 100
▁quick 100
▁Dec 100
变更 100
Ex 100
▁concerned 100
dia 100
折 100
▁memory 100
▁Jun 100
▁Auto 100
发言 100
-4 100
嘴 100
▁Gold 100
概念 100
▁1: 100
摸 100
进展 100
▁spot 100
首页 100
所需的 100
类似 100
▁0.5 100
顾问 100
为您 100
▁Spring 100
▁FileHippo 100
全世界 100
ill 100
air 100
▁handle 100
▁AC 100
的儿子 100
协定 100
澳大利亚 100
▁master 100
▁Plaza 100
监管 100
▁block 100
的大 100
社 100
▁Lesson 100
HA 100
▁tips 100
插 100
ng 100
92 100
RT 100
▁dead 100
▁scale 100
ram 100
▁Double 100
▁movement 100
▁Ministry 100
伊拉克 100
▁Blogger 100
▁authority 100
政 100
▁limit 100
▁Th 100
族 100
LI 100
非法 100
谷 100
▁Em 100
轮渡 100
附 100
渡轮航线 100
货物 100
▁principles 100
该地区 100
身份 100
ks 100
从事 100
aw 100
▁Sub 100
人数 100
▁critical 100
抵达 100
森林 100
mes 100
▁Labels 100
▁banks 100
CO 100
支 100
▁Only 100
餐 100
▁Sydney 100
▁trading 100
▁我们引用您选择的 100
▁micro 100
佳 100
虚拟 100
▁Fo 100
阀 100
丁 100
妻子 100
▁Photo 100
危险 100
度假村 100
难民 100
▁cutting 100
▁{ 100
▁nearby 100
▁Cloud 100
这次 100
▁Rue 100
的方法 100
的原因 100
oli 100
面积 100
票价 100
站点 100
▁Programme 100
▁volume 100
▁gender 100
▁Bangkok 100
Bo 100
▁选择 100
▁Fu 100
ore 100
▁随着 100
当局 100
份 100
lie 100
▁Las 100
ero 100
阿拉伯 100
▁History 100
▁advertising 100
▁innovative 100
模拟 100
您将 100
▁Casino 100
案件 100
有时 100
graph 100
届会议 100
NT 100
▁Bre 100
覆盖 100
▁Barcelona 100
适应 100
▁Plan 100
▁supported 100
▁事实上 100
▁item 100
cul 100
▁engineering 100
eth 100
hot 100
即可 100
▁Who 100
▁write 100
合理 100
转换 100
▁若 100
▁balance 100
▁goal 100
▁WordPress 100
警 100
▁motor 100
▁Up 100
▁香港 100
▁3- 100
▁Pu 100
实际上 100
page 100
痛 100
▁Colombia 100
瓶 100
▁Kar 100
益 100
▁mis 100
▁category 100
舍 100
▁sole 100
查找 100
绝 100
oth 100
log 100
毁 100
▁sleep 100
的喜爱 100
ave 100
官员 100
如下 100
▁audio 100
出了 100
代表团 100
旅舍 100
▁shared 100
经历 100
▁(1 100
▁($ 100
▁Camp 100
▁defend 100
▁Xi 100
▁Year 100
告 100
的要求 100
rit 100
wing 100
▁attack 100
并非 100
▁ch 100
略 100
▁arms 100
ties 100
▁administrative 100
▁blue 100
▁Review 100
▁提供 100
Lo 100
的规定 100
宽 100
纪念 100
▁DVD 100
喷 100
▁46 100
▁fight 100
编程 100
los 100
82 100
▁vote 100
领域的 100
▁http 100
复杂 100
▁不 100
▁2002 100
▁someone 100
▁Peace 100
定期 100
▁satellite 100
侧 100
户 100
核心 100
▁圣 100
▁comment 100
▁fi 100
IL 100
后的 100
邀请 100
istic 100
感谢 100
那样 100
工人 100
呼 100
▁instead 100
扎 100
巴勒斯坦 100
▁shipping 100
隐私 100
▁join 100
Le 100
律师 100
元素 100
了一 100
▁learning 100
▁项目 100
圈 100
她们 100
海岸 100
zo 100
的作用 100
cra 100
▁plans 100
特性 100
理事会 100
的客房 100
▁Trans 100
▁最后 100
▁everyone 100
▁Today 100
▁proposed 100
利亚 100
ö 100
▁damages 100
剧 100
▁helps 100
lor 100
劳动 100
伤害 100
▁grant 100
ious 100
大的 100
引起 100
▁Number 100
▁帐户 100
UL 100
之中 100
▁served 100
lon 100
ei 100
gy 100
仲裁 100
▁middle 100
有可能 100
▁小 100
便利 100
桥 100
ake 100
接口 100
ob 100
菜 100
佩 100
▁Financial 100
世界上 100
▁menu 100
ese 100
储存 100
彩 100
▁carried 100
pan 100
2006 100
实用 100
听到 100
GA 100
▁Dan 100
模 100
▁wife 100
拼写正确 100
并确保其 100
▁channels 100
编 100
」 100
▁install 100
▁fair 100
▁Javascript 100
tre 100
火车站 100
外国 100
▁2001 100
▁Log 100
就像 100
ans 100
个人信息 100
▁virtual 100
▁Women 100
▁blog 100
▁comp 100
羊 100
▁Greece 100
▁mission 100
▁establishment 100
pos 100
sis 100
以为 100
查询 100
石油 100
▁closed 100
立法 100
坚持 100
博客 100
▁Ci 100
▁44 100
▁Association 100
▁alternative 100
印刷 100
▁Therefore 100
lay 100
▁enterprises 100
最多 100
▁lines 100
94 100
▁摩洛哥 100
始终 100
▁thou 100
检查以下 100
教授 100
with 100
植物 100
进口 100
▁SA 100
key 100
FileHippo 100
访 100
lit 100
在其 100
tern 100
的价格 100
规范 100
▁Make 100
机关 100
▁bound 100
评 100
的行为 100
▁street 100
tter 100
▁creation 100
担心 100
stone 100
堂 100
▁Test 100
▁Electric 100
str 100
▁Bas 100
ette 100
我也 100
▁skills 100
绿 100
下去 100
善 100
▁Estate 100
使其 100
▁implement 100
▁位于 100
▁64 100
▁permission 100
EX 100
大小 100
tar 100
▁ideas 100
▁德国 100
▁import 100
霍 100
ml 100
一场 100
▁meetings 100
struct 100
▁dedicated 100
地区的 100
▁Bur 100
rop 100
▁plastic 100
▁accommodations 100
ular 100
vol 100
民族 100
▁您可以 100
news 100
▁heaven 100
连续 100
▁Iron 100
RC 100
使用本网站 100
部队 100
lf 100
▁Toilet 100
参考 100
修订 100
ira 100
ii 100
▁5- 100
spec 100
▁Change 100
▁reserves 100
▁employment 100
▁Francisco 100
rc 100
久 100
▁camera 100
我们将 100
▁sc 100
bri 100
泽 100
▁participation 100
▁super 100
▁Program 100
怀 100
old 100
幕 100
▁Once 100
太阳 100
war 100
▁Electronics 100
面临 100
韦 100
▁intellectual 100
▁breach 100
▁Parties 100
▁refund 100
▁Tower 100
yu 100
废 100
▁另外 100
elle 100
col 100
▁Start 100
▁Language 100
弱 100
▁stability 100
▁Mu 100
▁(3) 100
群岛 100
实体 100
帮助您 100
互 100
▁carry 100
▁released 100
▁Him 100
让我们 100
▁jurisdiction 100
▁su 100
▁Flat 100
▁suitable 100
到底 100
产品的 100
一张 100
▁MB 100
▁setting 100
BC 100
书面 100
▁Pri 100
巨大的 100
▁Local 100
▁accessible 100
▁这样 100
▁individuals 100
Well 100
FA 100
▁目前 100
sol 100
还可以 100
▁religion 100
▁applied 100
▁100% 100
ock 100
▁Mark 100
well 100
上网 100
▁cancer 100
▁input 100
即使 100
down 100
试验 100
教堂 100
我知道 100
每一个 100
订 100
▁ball 100
▁prepared 100
▁Luxury 100
▁Peter 100
完整的 100
依然 100
▁Solutions 100
▁Ser 100
▁Word 100
ata 100
▁gain 100
▁PRO 100
name 100
衣服 100
▁Pra 100
bs 100
▁< 100
地球 100
▁Digital 100
可是 100
居民 100
看着 100
本站 100
出去 100
▁advice 100
▁package 100
巨 100
整体 100
▁API 100
发行 100
朗 100
yan 100
▁rent 100
▁bodies 100
▁situated 100
▁sister 100
部件 100
▁$2 100
2018 100
▁安 100
▁fish 100
▁discover 100
▁43 100
我是 100
高速 100
▁agencies 100
碳 100
诉讼 100
▁Choose 100
信仰 100
沟通 100
▁languages 100
ado 100
▁注册 100
▁Pat 100
的法律 100
膜 100
▁encyclopedia 100
▁religious 100
sia 100
他在 100
rea 100
良好的 100
▁girls 100
bal 100
CR 100
▁Euro 100
资格 100
▁Posted 100
anda 100
圣灵 100
在美国 100
▁followed 100
肯定 100
TE 100
年前 100
▁Pacific 100
EA 100
▁soft 100
亮 100
lam 100
附近的 100
青年 100
▁2* 100
▁claims 100
特派团 100
▁criminal 100
▁dream 100
返回 100
▁55 100
▁client 100
▁Multi 100
权力 100
tain 100
隐 100
▁Quality 100
▁opinion 100
补充 100
▁die 100
满意 100
窗口 100
▁reduction 100
ani 100
▁首页 100
脑 100
▁unless 100
▁task 100
时尚 100
交换 100
▁Music 100
下的 100
比例 100
暴 100
▁waste 100
▁consideration 100
▁suppliers 100
œ 100
▁creating 100
▁Children 100
mod 100
▁Casa 100
▁enhance 100
▁concerning 100
某 100
▁resource 100
▁changed 100
▁个人资料 100
show 100
rn 100
▁corporate 100
约翰 100
▁Czech 100
▁inclusive 100
▁info 100
▁island 100
相互 100
ff 100
top 100
将付出 100
▁grow 100
▁thereof 100
的声音 100
随着 100
智 100
可用 100
▁communications 100
don 100
道德 100
berg 100
盛 100
杜 100
指示 100
临时 100
level 100
▁aid 100
▁Flower 100
lip 100
▁reasons 100
▁village 100
LED 100
旅客 100
▁primary 100
实验室 100
物品 100
▁leader 100
▁Queen 100
▁47 100
后来 100
哪些 100
▁giving 100
▁sold 100
耳 100
净 100
1,200 100
说话 100
▁Federal 100
▁Through 100
吸引 100
单独 100
nny 100
▁Engineering 100
ica 100
▁eye 100
win 100
现象 100
Ha 100
▁worked 100
▁gates 100
可持续发展 100
▁员工和 100
简 100
rie 100
par 100
飞机 100
▁妈妈 100
▁seemed 100
▁Berlin 100
其他旅客 100
PO 100
完整 100
▁normal 100
染 100
▁remote 100
▁sources 100
的试 100
镜 100
▁Rooms 100
真实 100
一边 100
是不是 100
2004 100
EMF 100
▁measurement 100
曾经 100
▁PA 100
Con 100
▁tried 100
转让 100
军队 100
邦 100
秒 100
曾提出过 100
是旅客们 100
▁Father 100
称为 100
▁北京 100
▁currency 100
持 100
决议 100
投资者 100
uring 100
ü 100
▁administration 100
▁labor 100
药物 100
▁OEM 100
作为一个 100
▁cold 100
精确 100
感染 100
汇 100
永久 100
▁Rate 100
▁contain 100
▁challenge 100
思想 100
▁EUR 100
课 100
rm 100
▁Equipment 100
▁configuration 100
1000 100
OD 100
▁Reviews 100
提前 100
错 100
cl 100
的资料 100
指标 100
▁stated 100
▁Nu 100
▁accuracy 100
这一点 100
AV 100
的一 100
对其 100
▁ma 100
hy 100
目的地 100
▁entry 100
通用 100
▁agents 100
白色 100
▁Anti 100
lt 100
▁resulting 100
▁耶稣 100
克斯 100
ban 100
eo 100
▁Mor 100
▁shop 100
▁创建 100
参观 100
Sa 100
▁governments 100
vert 100
put 100
症 100
婚 100
ux 100
▁Sam 100
简单的 100
▁slow 100
不想 100
葡萄酒 100
▁although 100
黄金 100
▁Cams 100
▁regular 100
▁Guide 100
▁principle 100
充 100
围 100
这样做 100
▁returned 100
▁Mer 100
柜 100
▁fresh 100
硬件 100
▁Brand 100
估计 100
cho 100
只需 100
▁sell 100
▁toward 100
▁violation 100
对此 100
▁reservation 100
▁wind 100
品质 100
的安全 100
航空 100
style 100
▁Opto 100
投入 100
证书 100
分子 100
▁Par 100
▁0.4 100
息 100
▁historical 100
呀 100
▁Cross 100
▁presented 100
▁9. 100
▁Class 100
▁messages 100
▁editor 100
折扣 100
dic 100
illa 100
▁8. 100
CL 100
韩国 100
▁competition 100
小时前台 100
▁chance 100
▁照片和视频 100
构建 100
▁Smart 100
▁assessment 100
▁wine 100
▁filter 100
py 100
info 100
图形 100
1303 100
-3 100
弹 100
▁Ke 100
▁Technical 100
▁fundamental 100
▁stood 100
▁spacious 100
不管 100
特征 100
我要 100
日至 100
▁listed 100
优先 100
池 100
他人 100
▁Rock 100
如果你 100
湿 100
▁Jerusalem 100
操作系统 100
▁anal 100
推出 100
ense 100
去了 100
收费 100
▁pictures 100
▁GDP 100
▁Bath 100
bro 100
▁Boutique 100
▁translation 100
▁presence 100
▁finance 100
气候 100
▁Medical 100
JPG 100
reg 100
我们可以 100
法规 100
高效 100
往往 100
▁NY 100
WA 100
EE 100
▁j 100
越来越 100
董事 100
▁ho 100
工作组 100
域 100
欲 100
▁schools 100
▁cheapest 100
▁affiliates 100
▁holiday 100
▁entered 100
署 100
尼亚 100
▁contained 100
▁default 100
是为了 100
▁opening 100
宪法 100
的其他工作 100
For 100
nu 100
▁agreements 100
▁extent 100
▁三 100
asse 100
ski 100
mic 100
ons 100
▁settings 100
▁LM 100
法庭 100
锡 100
具备 100
ida 100
▁representatives 100
别人 100
pur 100
▁feed 100
▁minimum 100
Home 100
▁nu 100
驻 100
How 100
在中国 100
WebResource 100
▁sometimes 100
▁hostels 100
刺激 100
的经济 100
▁thinking 100
最好 100
▁VI 100
也没有 100
▁thy 100
休闲 100
替代 100
sonic 100
投票 100
▁Del 100
接近 100
的手 100
▁Hand 100
▁Bible 100
丰富 100
▁Bus 100
sc 100
父母 100
▁Hill 100
ANG 100
▁traffic 100
▁poverty 100
室外游泳池 100
正确的 100
▁Safety 100
各项相关 100
▁与下列 100
▁percent 100
▁weapons 100
▁Bridge 100
节省 100
随后 100
▁上 100
cher 100
征 100
▁commitment 100
▁wait 100
▁repair 100
欣赏 100
听课 100
▁submitted 100
▁Dining 100
part 100
充满 100
▁Men 100
▁1999 100
决策 100
▁compared 100
▁encourage 100
ration 100
客运和汽车轮渡 100
▁industries 100
▁MySQL 100
▁Protection 100
▁Brazil 100
优质 100
▁第二 100
正是 100
▁noted 100
cat 100
mas 100
▁ring 100
▁concern 100
丹 100
单元 100
▁Congress 100
食物 100
歧视 100
▁behavior 100
▁drop 100
▁providers 100
及时 100
▁except 100
签署 100
▁attractions 100
性质 100
ich 100
功率 100
文龙 100
▁recently 100
观看 100
▁Foreign 100
▁Micro 100
平方米 100
hang 100
附件 100
▁Section 100
该国 100
▁factors 100
的活动 100
快乐 100
巨大 100
▁Returns 100
▁Take 100
▁valid 100
una 100
ano 100
▁Cookie 100
辅导老师 100
博士 100
可靠 100
治 100
▁sports 100
▁couple 100
物理 100
▁signal 100
▁NO 100
扫描 100
yl 100
▁season 100
▁Win 100
\ 100
ä 100
▁specified 100
▁Fairchild 100
▁packaging 100
损坏 100
签证 100
许 100
▁dark 100
可以通过 100
总部 100
故事 100
MO 100
该等 100
的报告 100
▁campaign 100
▁assets 100
性和 100
:80/ 100
ona 100
▁resistance 100
广泛的 100
早期 100
bg 100
念 100
拍 100
MI 100
探 100
body 100
ima 100
▁em 100
▁Tea 100
相机 100
▁officers 100
▁Systems 100
▁secret 100
water 100
个性化 100
显著 100
▁leadership 100
▁spring 100
尚 100
▁shape 100
Li 100
rap 100
▁Rose 100
还没有 100
This 100
一间 100
福音 100
好像 100
▁operate 100
▁51 100
理由 100
走了 100
▁Restaurants 100
▁produced 100
出生 100
集中 100
置 100
杯 100
高达 100
▁Ku 100
▁names 100
▁decline 100
▁label 100
屋 100
▁Action 100
▁intended 100
参 100
▁Send 100
所在 100
更好的 100
的机会 100
乳 100
排放 100
cus 100
十二 100
狗 100
芬兰 100
聊天 100
标题 100
▁win 100
And 100
▁reservations 100
柏林 100
▁Tur 100
▁Ki 100
EST 100
▁Des 100
▁Ph 100
担保 100
▁Moreover 100
打击 100
▁laser 100
其中包括 100
或是 100
医 100
2003 100
第一个 100
▁dynamic 100
▁decisions 100
栏 100
▁USE 100
▁difference 100
枪 100
确实 100
TT 100
童 100
ACT 100
nn 100
▁1,200 100
▁player 100
额外 100
▁Master 100
平等 100
link 100
cer 100
▁forth 100
▁citizens 100
乌克兰 100
▁pump 100
▁KB 100
▁Iran 100
▁hostel 100
所述 100
伙伴 100
fr 100
▁sensor 100
▁families 100
船上的住宿和车辆类型是所有你 100
arm 100
▁corner 100
▁hardware 100
秘书处 100
▁mandate 100
bil 100
犹太人 100
▁forest 100
lot 100
审判 100
肯 100
nel 100
叙利亚 100
▁sexual 100
▁huge 100
在他 100
▁generally 100
▁Mom 100
怕 100
▁Lines 100
▁wood 100
▁feet 100
▁Bel 100
▁Switzerland 100
自行 100
妙 100
浴缸 100
穆斯林 100
Mi 100
约束 100
已经结束 100
▁Full 100
流量 100
▁majority 100
在于 100
001 100
pri 100
完美 100
游泳池 100
摆 100
▁Overview 100
▁Rd 100
▁myself 100
规定的 100
▁begin 100
▁route 100
ert 100
步行 100
▁Visa 100
破 100
Po 100
▁furniture 100
▁phase 100
▁summer 100
电梯 100
▁Chang 100
强大的 100
▁DE 100
▁10. 100
▁Unit 100
▁Source 100
▁网络 100
醒 100
▁atmosphere 100
首先 100
▁搜索 100
韩 100
资 100
股 100
▁有关 100
二十 100
旁 100
▁balcony 100
▁terrace 100
▁Hostelworld 100
▁regions 100
▁recommended 100
特色 100
▁Para 100
▁dr 100
▁广告 100
据 100
▁completed 100
▁Times 100
▁instrument 100
tz 100
NC 100
▁Sur 100
预期 100
▁passed 100
▁SP 100
指数 100
动力 100
夹 100
沉 100
的设计 100
▁Zealand 100
sch 100
道路 100
规格 100
") 100
▁Tutor 100
港口 100
▁equal 100
ky 100
ella 100
能量 100
▁Fe 100
环保 100
种类 100
跟踪 100
VE 100
▁unlikely 100
维修 100
热门 100
▁1998 100
适当 100
推进 100
下午 100
▁pi 100
合法 100
HO 100
ern 100
铜 100
室内 100
▁businesses 100
东欧 100
最新的 100
▁Ag 100
在此 100
▁seems 100
些 100
▁identify 100
nk 100
▁negative 100
▁personnel 100
上面 100
示 100
▁于是 100
BA 100
3- 100
ject 100
中东 100
站在 100
污染 100
经理 100
上升 100
遗 100
阳台 100
▁委员会 100
HC 100
▁issued 100
上了 100
或许 100
▁Washington 100
▁draw 100
▁Land 100
播放 100
耗 100
波罗的海和北非 100
▁weather 100
属性 100
意识 100
说道 100
▁widely 100
▁Energy 100
▁scientific 100
统治 100
爱的 100
▁counter 100
证据 100
▁服务 100
的技术 100
▁calls 100
强烈 100
uri 100
med 100
▁pick 100
第十 100
▁Ste 100
信心 100
rum 100
eu 100
▁upload 100
Be 100
▁discretion 100
阻止 100
其实 100
放弃 100
放松 100
附加 100
首次 100
gal 100
考 100
▁pain 100
很大 100
暗 100
wo 100
挂 100
▁wrote 100
▁smart 100
预计 100
止 100
II 100
▁connect 100
▁par 100
▁Dating 100
▁本网站 100
▁para 100
▁Roman 100
▁fa 100
▁award 100
▁south 100
】 100
▁studies 100
否则 100
▁Bal 100
音频 100
Ho 100
ora 100
▁edge 100
▁Ze 100
带有 100
难以 100
ics 100
▁cells 100
▁Budapest 100
▁parents 100
瑞典 100
▁Mc 100
ography 100
预订超过 100
▁attend 100
都不 100
控制器 100
兴趣 100
▁Parking 100
及其他 100
▁Sal 100
的重要 100
▁Mal 100
Ar 100
饭 100
忙 100
▁matters 100
▁fruit 100
赌场 100
▁Plus 100
互动 100
▁Pool 100
sen 100
▁vision 100
▁expressed 100
医学 100
space 100
场所 100
成就 100
▁stone 100
BO 100
uc 100
糖 100
▁automatic 100
▁Malaysia 100
轴承 100
钻石 100
▁stress 100
函数 100
▁plants 100
▁numbers 100
电力 100
事项 100
tical 100
▁enables 100
▁died 100
CM 100
▁initial 100
祖 100
▁bio 100
▁Ocean 100
失败 100
▁taste 100
▁soul 100
▁clearly 100
▁Fire 100
▁chemical 100
▁pan 100
▁doctor 100
▁obligation 100
▁extremely 100
▁Meeting 100
足球 100
▁AS 100
▁delivered 100
▁gl 100
本服务 100
▁extensive 100
披露 100
黑色 100
▁goals 100
▁strengthen 100
服务和 100
家人 100
▁Angel 100
▁thousands 100
烧 100
留下 100
320 100
but 100
ye 100
大卫 100
洞 100
准则 100
▁practical 100
▁Prague 100
▁Mag 100
清楚 100
典 100
公布 100
电机 100
好的 100
iti 100
▁reality 100
武 100
回来 100
期待 100
▁网站 100
临 100
的研究 100
是因为 100
动作 100
matic 100
值得 100
出租 100
▁heavy 100
▁kept 100
配件 100
▁Print 100
▁installed 100
iya 100
的神 100
露 100
▁print 100
我想 100
▁Metro 100
▁actual 100
眼睛 100
HS 100
群体 100
▁Head 100
sm 100
tting 100
▁Experience 100
新西兰 100
▁Hilton 100
▁Popular 100
杂志 100
▁65 100
▁launch 100
用来 100
las 100
ras 100
Gu 100
▁Paper 100
有着 100
▁arm 100
你要 100
最重要的 100
▁shops 100
下面 100
cut 100
基地 100
To 100
闭 100
▁participate 100
访客 100
▁reduced 100
▁weeks 100
苏联 100
红色 100
都在 100
▁Cap 100
▁Mountain 100
▁facilitate 100
故障 100
做法 100
按摩 100
▁这家 100
media 100
▁drug 100
予 100
▁icon 100
▁SE 100
met 100
夏 100
售 100
▁gone 100
▁Box 100
▁Country 100
诚 100
呼吁 100
▁thanks 100
来了 100
▁Vienna 100
▁manufacturers 100
▁Size 100
米兰 100
DE 100
考虑到 100
原来 100
桑 100
污 100
川 100
▁probably 100
循环 100
▁farm 100
么 100
长的 100
▁carefully 100
不可能 100
▁Porn 100
▁reading 100
hua 100
电动 100
封 100
▁SQL 100
弃 100
兼 100
▁WITH 100
澳门 100
▁exp 100
▁river 100
▁race 100
VA 100
gram 100
▁character 100
▁Gal 100
ati 100
棒 100
▁1000 100
举行的 100
2002 100
▁Golf 100
▁appointed 100
900 100
显然 100
来的 100
形状 100
认可 100
▁Shower 100
固 100
teen 100
▁journey 100
耶路撒冷 100
▁Sh 100
▁urban 100
▁swimming 100
模板 100
差异 100
▁preparation 100
▁Details 100
tics 100
▁element 100
lea 100
ao 100
▁requests 100
事业 100
国民 100
▁每 100
声音 100
大量的 100
ges 100
yang 100
aries 100
▁sort 100
vin 100
翻 100
▁chair 100
▁gift 100
▁支持 100
都能 100
▁bear 100
run 100
▁mi 100
▁2: 100
▁Watch 100
分钟步行路程 100
炎 100
▁instance 100
开关 100
响应 100
▁reporting 100
mid 100
适当的 100
▁transportation 100
▁Au 100
nc 100
著名的 100
▁1.2 100
四个 100
▁limitation 100
转移 100
▁origin 100
▁Palestinian 100
NE 100
看来 100
驾驶 100
诗 100
▁brochure 100
▁wrought 100
▁television 100
基督徒 100
▁用 100
▁Collection 100
居住 100
▁Cr 100
铁路 100
友好 100
▁improved 100
▁expert 100
gan 100
混 100
欧元 100
浪 100
MB 100
▁Tag 100
必要的 100
淫 100
▁kettle 100
巴塞罗那 100
▁Vegas 100
▁permitted 100
干净 100
read 100
making 100
色情 100
OW 100
帝国 100
气体 100
▁visiting 100
▁Ban 100
▁George 100
▁Ve 100
▁Resources 100
▁Za 100
实验 100
障碍 100
3% 100
▁compliance 100
习惯 100
▁granted 100
gh 100
南部 100
您的个人信息 100
认 100
▁cycle 100
建造 100
AI 100
▁Uk 100
▁beds 100
▁happened 100
pm 100
领土 100
透 100
戈 100
误 100
单击 100
▁Professional 100
▁的更多内容 100
▁那么 100
▁Modern 100
new 100
安全性 100
Th 100
提出的 100
▁dress 100
▁Indian 100
一台 100
gro 100
PL 100
OC 100
鞋 100
▁communities 100
▁recognize 100
hether 100
▁cr 100
永 100
支出 100
不需要 100
损 100
▁economies 100
▁agenda 100
▁Outdoor 100
敏感 100
▁fields 100
▁election 100
gue 100
▁‘ 100
他是 100
IE 100
舞 100
振 100
▁provider 100
壮 100
£ 100
不锈钢 100
▁strategies 100
宇宙 100
收藏 100
频道 100
▁Milan 100
▁Van 100
缩 100
bre 100
▁Help 100
ici 100
可靠性 100
术 100
▁disc 100
一座 100
▁delegation 100
奈 100
▁ensuring 100
依据 100
▁Exhibition 100
的一切 100
双人间 100
NI 100
的文件 100
针 100
用品 100
▁Wood 100
bus 100
表格 100
微波炉 100
▁Soviet 100
▁Ukraine 100
▁Dubai 100
▁Christmas 100
等级 100
顶级 100
▁larger 100
▁chat 100
ferry 100
▁今天 100
▁(@ 100
▁hr 100
实行 100
ui 100
盐 100
▁Academy 100
▁cuisine 100
▁ba 100
▁Florence 100
▁bottle 100
赶 100
cia 100
越南 100
触 100
年轻 100
工作的 100
用餐区 100
▁aspects 100
▁Fer 100
依赖 100
▁新闻 100
你是 100
▁Mont 100
▁Platform 100
▁survey 100
登录或创建 100
▁Lodge 100
汇率 100
▁exclusive 100
conditioned 100
pal 100
▁walking 100
▁delay 100
▁cheaper 100
▁wear 100
的国际 100
▁sta 100
▁picture 100
dom 100
▁ship 100
与我们 100
租赁 100
▁van 100
▁GmbH 100
▁Earth 100
▁登录 100
▁Lin 100
TX 100
▁至 100
▁mainly 100
ult 100
害 100
▁floors 100
▁纽约 100
▁zone 100
顾 100
▁nearly 100
陆 100
▁DC 100
▁risks 100
▁Sol 100
craft 100
▁numerous 100
鸟 100
▁index 100
▁roll 100
残 100
PI 100
▁IS 100
期限 100
裂 100
住在 100
▁Comp 100
▁pl 100
明显 100
我不 100
▁starting 100
▁resort 100
▁Suppliers 100
职位 100
▁extend 100
以确保 100
专用 100
多数 100
EG 100
related 100
▁ne 100
▁Sales 100
的心 100
豪 100
▁Vol 100
阴 100
进行的 100
横 100
引导 100
打算 100
度假 100
进步 100
▁acts 100
你们的 100
▁LA 100
观点 100
zh 100
理念 100
IR 100
zy 100
长度 100
的历史 100
▁Additional 100
▁fit 100
▁obligations 100
述 100
▁born 100
ika 100
▁列表 100
粗 100
▁Indonesia 100
▁和出口商 100
▁定牌生产 100
NO 100
妇 100
DB 100
▁confirmation 100
提供免费 100
▁announced 100
▁networks 100
sky 100
▁Press 100
赞 100
▁constitute 100
qu 100
▁Property 100
图书馆 100
宾馆 100
▁expertise 100
的支持 100
0.00 100
▁之间 100
▁Fra 100
的企业 100
AG 100
南非 100
▁Devices 100
▁无 100
▁Mid 100
position 100
▁requesting 100
til 100
▁president 100
▁Exchange 100
she 100
▁400 100
plan 100
着她 100
▁49 100
利润 100
▁1990 100
ches 100
运用 100
shop 100
▁combined 100
承 100
▁raised 100
加速 100
国际社会 100
阻 100
▁affected 100
祭 100
▁moving 100
BI 100
推广 100
今年 100
可靠的 100
▁meaning 100
sir 100
hal 100
终 100
HR 100
锁 100
▁root 100
▁bath 100
志 100
building 100
▁中文 100
经典 100
坚 100
▁saved 100
▁seem 100
▁daughter 100
▁unauthorized 100
▁timetables 100
▁explore 100
▁Expert 100
▁referred 100
财富 100
健身中心 100
▁Coffee 100
▁Hua 100
▁Village 100
伊斯兰 100
▁× 100
▁Ol 100
闪 100
▁convenience 100
▁behalf 100
▁shift 100
物流 100
▁Every 100
不存在 100
沙发 100
并不是 100
▁VMware 100
▁视频 100
▁DI 100
meter 100
另外 100
▁Mini 100
▁radio 100
2001 100
▁Tokyo 100
▁County 100
▁changing 100
气候变化 100
dan 100
▁TE 100
召开 100
▁MO 100
pon 100
▁Iraq 100
▁据 100
通道 100
▁Radio 100
hose 100
窗 100
阵 100
保健 100
▁Str 100
▁h 100
▁liquid 100
▁我们提供 100
GDP 100
▁bill 100
▁Such 100
超级 100
▁priority 100
▁Sports 100
坦 100
我们在 100
▁LCD 100
▁ja 100
▁supports 100
出于 100
▁introduced 100
▁Gallery 100
Mac 100
you 100
我们会 100
▁named 100
▁Which 100
▁theory 100
▁discuss 100
标记 100
▁网站设计 100
▁represent 100
▁Twitter 100
▁SO 100
tr 100
zen 100
人才 100
rush 100
default 100
▁点击 100
▁Thus 100
旗 100
▁refer 100
运作 100
补 100
钻 100
▁easier 100
▁Moscow 100
cor 100
▁Valley 100
航班 100
出现在 100
住宅 100
▁bottom 100
▁defined 100
▁Fish 100
▁lose 100
PP 100
▁52 100
脸上 100
pper 100
▁fat 100
帮 100
pu 100
磁 100
▁enforce 100
胸 100
bel 100
徒 100
嘉 100
▁certificate 100
▁proportion 100
▁lay 100
仪器 100
▁bi 100
远程 100
SK 100
▁fell 100
等待 100
GP 100
▁approximately 100
更为 100
TION 100
委 100
▁representative 100
ters 100
▁department 100
可能是 100
厚 100
迈 100
▁transmission 100
奥地利 100
▁Mission 100
自我 100
▁aim 100
wel 100
很快 100
bor 100
协商 100
▁马 100
▁played 100
-8 100
恒 100
▁humanitarian 100
维也纳 100
▁Turkey 100
▁Greek 100
城堡 100
▁north 100
▁minute 100
▁justice 100
▁Point 100
皇家 100
真是 100
症状 100
展览 100
▁Vo 100
rank 100
在这个 100
▁posts 100
▁Martin 100
实践 100
伟大的 100
▁Date 100
▁housing 100
丢失 100
▁auto 100
ric 100
电子邮件地址 100
工程师 100
SM 100
▁camp 100
▁regime 100
的名字 100
▁wonderful 100
▁4- 100
▁Conditions 100
的目标 100
怪 100
▁其中 100
▁WE 100
划 100
▁Pla 100
麻 100
▁首先 100
▁老人和年轻 100
兄弟 100
▁solid 100
泰国 100
▁seal 100
▁Manual 100
也就是 100
aya 100
免费的 100
▁certainly 100
ulation 100
付 100
▁trial 100
oz 100
▁pe 100
unk 100
有所 100
century 100
▁rec 100
拖 100
▁个 100
研讨会 100
原始 100
▁为什么 100
释放 100
ib 100
-10 100
CS 100
▁Latin 100
你想 100
径 100
最初 100
▁leisure 100
▁wealth 100
▁medium 100
▁showing 100
-12 100
Oh 100
▁determined 100
▁healthy 100
▁fee 100
右 100
▁Rio 100
dong 100
争 100
cri 100
▁suit 100
丰 100
▁electrical 100
宣言 100
悉尼 100
▁printing 100
停车场 100
▁covered 100
▁destinations 100
▁Angeles 100
火车 100
▁按 100
▁evening 100
▁Step 100
▁fill 100
▁boy 100
转变 100
▁drink 100
可以使用 100
某个 100
逃 100
▁dog 100
▁Kelowna 100
▁legislation 100
ect 100
▁Another 100
▁productivity 100
手册 100
▁firm 100
web 100
重复 100
配备了 100
出席 100
▁cash 100
优秀 100
透明 100
▁surroundings 100
▁mentioned 100
▁Like 100
NS 100
▁你可以 100
▁MA 100
▁III 100
设定 100
洋 100
▁causes 100
租车 100
路线 100
▁Arts 100
load 100
▁relative 100
RG 100
xx 100
的身体 100
▁commission 100
hor 100
▁offices 100
名字 100
ea 100
▁contribute 100
▁refuse 100
▁0.6 100
冰箱 100
IG 100
▁obtained 100
▁characteristics 100
ston 100
许可证 100
ole 100
采 100
▁Order 100
▁driving 100
▁的工作人员及之前的客人获得 100
▁effectively 100
简单描述 100
▁已 100
une 100
档案 100
▁Cu 100
GB 100
报道 100
▁Tre 100
ivity 100
想到 100
▁instant 100
dra 100
坐落在 100
谢 100
▁mid 100
▁recognized 100
扬 100
逐渐 100
▁Library 100
▁Melbourne 100
▁电视 100
诊断 100
已被 100
▁Tor 100
▁我想 100
▁Stat 100
pped 100
▁driver 100
利率 100
▁removed 100
▁Im 100
大规模 100
PT 100
▁faster 100
带着 100
▁scene 100
tle 100
▁diamond 100
案例 100
的住宿 100
/1 100
有了 100
篇 100
分布 100
规 100
▁Prime 100
lli 100
很难 100
▁国际 100
erry 100
里亚 100
▁transition 100
浮 100
左 100
门票 100
▁Poland 100
▁expression 100
▁Case 100
ates 100
它是 100
gate 100
所需 100
▁日本 100
外交 100
视为 100
主机 100
堆 100
▁female 100
恐怖主义 100
布拉格 100
墨西哥 100
当事人 100
Detail 100
▁concerns 100
▁mechanical 100
合并 100
成了 100
▁previously 100
被称为 100
▁teaching 100
▁Res 100
礼物 100
oke 100
袋 100
订阅 100
mel 100
▁collaboration 100
▁consumer 100
谷歌 100
▁Sky 100
庭 100
▁fuck 100
▁instruments 100
▁scope 100
纳入 100
的世界 100
▁mine 100
▁aware 100
遇到 100
彻底 100
▁suggestions 100
贫困 100
都可以 100
▁exhibition 100
基因 100
▁conducted 100
VC 100
240 100
国王 100
▁Team 100
回应 100
▁component 100
▁doubt 100
▁Geneva 100
▁Finland 100
▁sharing 100
▁employ 100
▁interesting 100
▁Cy 100
nia 100
rat 100
的建议 100
作者 100
的链接 100
腿 100
stra 100
饰 100
默认 100
▁Tom 100
pel 100
▁formal 100
mis 100
岸 100
PM 100
获得了 100
▁armed 100
相同的 100
▁measure 100
ets 100
柱 100
幸福 100
女士 100
nie 100
▁vary 100
140 100
▁而且 100
ua 100
▁Korean 100
ington 100
可用于 100
认识到 100
你会 100
▁Ob 100
功 100
▁高 100
迹 100
做什么 100
连接到 100
▁sides 100
苹果 100
阿富汗 100
▁Castle 100
每日 100
照明 100
▁Mai 100
LAN 100
▁ha 100
ien 100
▁返回 100
丰富的 100
▁SEO 100
▁des 100
uit 100
▁SH 100
面向 100
▁possibility 100
饮料 100
▁breath 100
自行车 100
▁inspection 100
▁这里 100
▁Cla 100
▁来自 100
php 100
和国际 100
▁sight 100
yn 100
以外 100
Mar 100
ART 100
租 100
▁Made 100
ree 100
OM 100
电压 100
▁student 100
你就 100
Car 100
高兴 100
▁$3 100
IF 100
tiv 100
的风险 100
几年 100
型号 100
like 100
▁Force 100
的政治 100
▁Image 100
▁Administration 100
▁Affairs 100
▁luxury 100
▁promoting 100
乘客 100
维尔 100
在我 100
▁mini 100
▁improvement 100
传统的 100
提到 100
▁Mall 100
答案 100
酒店提供 100
gin 100
未能 100
▁officials 100
▁achieved 100
▁switch 100
ome 100
淋浴 100
▁warranties 100
有很多 100
dal 100
▁rating 100
强度 100
抱 100
▁Will 100
的地区 100
▁hit 100
GE 100
var 100
▁carbon 100
▁Close 100
2% 100
▁BR 100
欣 100
▁toiletries 100
atch 100
朝鲜 100
阳光 100
▁adapt 100
因为它 100
cookies 100
检 100
▁Phuket 100
享用 100
▁cap 100
▁profit 100
▁欧洲 100
▁eight 100
总体 100
哪里 100
教学 100
DG 100
智慧 100
▁improving 100
延长 100
▁publication 100
并将 100
▁procedure 100
饭店 100
▁Jade 100
▁什么是 100
▁distribute 100
不足 100
▁continues 100
公平 100
终于 100
350 100
▁二 100
▁securely 100
玩家 100
这类 100
心理 100
春 100
的经验 100
唱 100
好了 100
受害者 100
▁province 100
DP 100
New 100
日益 100
上帝的 100
是一家 100
lim 100
▁Train 100
rr 100
种族 100
含有 100
反映 100
not 100
献 100
薄 100
最低价格保证 100
未经 100
▁reduc 100
的用户 100
▁价格从 100
▁finish 100
▁trans 100
▁Link 100
▁Foundation 100
ATION 100
▁lu 100
▁我们在 100
整合 100
uch 100
各方 100
▁locations 100
lum 100
▁layer 100
接着 100
▁Pet 100
▁apartments 100
▁fix 100
乎 100
raw 100
总理 100
杆 100
▁Pakistan 100
甜 100
▁capabilities 100
pen 100
▁dispute 100
▁Tour 100
fect 100
▁Mary 100
mber 100
酒店距离 100
AA 100
会在 100
▁sw 100
▁updated 100
700 100
▁Mel 100
▁signed 100
lock 100
▁nation 100
▁1.5 100
▁Les 100
eb 100
TV 100
▁0.7 100
▁Protocol 100
▁partnership 100
协作 100
rough 100
▁reflect 100
▁birth 100
AU 100
的基础 100
度假酒店 100
phy 100
就在 100
▁Madrid 100
▁array 100
教师 100
▁audit 100
hand 100
权限 100
▁AG 100
120 100
▁13. 100
的关键 100
ello 100
▁patients 100
▁Way 100
▁worth 100
Man 100
工资 100
寄 100
备份 100
▁产品名称 100
和服务 100
去年 100
▁raise 100
▁Coast 100
mont 100
▁MI 100
▁Space 100
▁56 100
加以 100
统 100
▁thank 100
▁Shop 100
成人 100
住了 100
距 100
ony 100
▁trouble 100
是必填的 100
ians 100
▁澳大利亚 100
▁collected 100
▁Converter 100
▁experienced 100
mu 100
more 100
是指 100
如今 100
▁Flowers 100
▁finally 100
可持续 100
生效 100
”。 100
与其他 100
▁truly 100
▁dialogue 100
依照 100
表演 100
时刻 100
▁lift 100
清洗 100
▁RO 100
刑 100
▁foundation 100
▁150 100
也许 100
活动的 100
左右 100
▁Nan 100
消 100
▁earlier 100
▁false 100
联络 100
▁spiritual 100
▁occur 100
▁graphics 100
驱动器 100
ancy 100
予以 100
▁panel 100
21. 100
▁sand 100
现代化 100
▁organized 100
▁Tel 100
▁Tags 100
中国的 100
ska 100
个国家 100
第四 100
▁Form 100
每次 100
中文 100
used 100
状 100
AK 100
▁59 100
密封 100
讯 100
▁DO 100
铝 100
▁reliability 100
太平洋 100
至关重要 100
有线电视 100
是谁 100
舒适的 100
ela 100
▁decide 100
▁anywhere 100
财 100
疑 100
▁greatest 100
kan 100
AHC 100
ame 100
我们承诺 100
▁emerging 100
井 100
▁flexible 100
▁Three 100
战斗 100
▁Create 100
▁becoming 100
▁WH 100
股东 100
als 100
Da 100
▁cha 100
▁club 100
mount 100
伙伴关系 100
▁transform 100
▁57 100
rio 100
凭 100
▁台湾 100
管理员 100
▁Er 100
▁Previous 100
▁entertainment 100
逻辑 100
受益 100
给他 100
▁o 100
会员国 100
▁owner 100
▁AR 100
▁卡 100
在您 100
两种 100
▁bedroom 100
SO 100
í 100
▁baby 100
olo 100
ATE 100
译 100
▁husband 100
挺 100
马来西亚 100
▁disk 100
调节 100
蓝色 100
响 100
草案 100
鲜花 100
▁EN 100
nal 100
Ta 100
▁wonder 100
ula 100
氧化 100
处理器 100
现金 100
▁appeal 100
▁Civil 100
▁Indeed 100
place 100
Ra 100
深入 100
oy 100
▁Bio 100
▁holding 100
-20 100
同步 100
房子 100
ume 100
▁increasingly 100
mission 100
闻 100
UI 100
牙 100
▁promotion 100
珠 100
旧金山 100
▁disaster 100
是不 100
▁upgrade 100
▁kinds 100
▁Ticket 100
VI 100
▁answered 100
ule 100
▁listen 100
纤维 100
sil 100
own 100
化的 100
mann 100
lab 100
给我们 100
持有 100
▁Run 100
饼 100
房内无线网络 100
秘密 100
▁bright 100
▁Single 100
彼得 100
▁Bedroom 100
条例 100
▁tube 100
▁prepare 100
▁desire 100
List 100
▁ME 100
▁na 100
App 100
▁Den 100
▁ports 100
怎么样 100
途 100
▁Fair 100
tec 100
信任 100
ological 100
▁Excel 100
你在 100
▁Phoenix 100
▁entitled 100
▁Swiss 100
▁Electronic 100
▁Before 100
▁Domain 100
▁household 100
最小 100
pha 100
赐 100
bet 100
▁push 100
▁houses 100
让他们 100
刺 100
▁SITE 100
分钟车程 100
▁hospital 100
粘 100
▁Vietnam 100
▁logo 100
▁executive 100
▁investigation 100
非政府组织 100
▁illegal 100
▁belief 100
:2.0.50727.54 100
痛苦 100
▁Shopping 100
market 100
▁Buy 100
就能 100
▁Hy 100
▁gate 100
care 100
在他的 100
▁operational 100
▁BY 100
cons 100
▁net 100
▁quiet 100
▁62 100
不好 100
女儿 100
igh 100
额外的 100
庄 100
杂 100
▁museum 100
英寸 100
切割 100
▁Cheap 100
▁cm 100
的网站 100
在内的 100
▁58 100
▁becomes 100
▁evaluation 100
▁hearing 100
神经 100
▁Its 100
清除 100
第六 100
▁fixed 100
严格 100
平板电视 100
▁approval 100
▁battery 100
▁extension 100
▁marriage 100
▁England 100
啦 100
渠道 100
公告 100
DM 100
▁trend 100
▁Monte 100
▁approved 100
第五 100
或在 100
角色 100
▁adjust 100
意识到 100
▁Small 100
▁了解 100
▁Hostels 100
▁53 100
▁manager 100
▁ob 100
适 100
Vi 100
▁客人 100
LL 100
# 100
首都 100
的大小 100
夺 100
▁exceed 100
▁revenue 100
▁variable 100
怀疑 100
▁cards 100
物业 100
▁symbol 100
ius 100
了一下 100
▁figure 100
电缆 100
任何人 100
▁laundry 100
nit 100
▁Have 100
state 100
wiki 100
卡尔 100
两国 100
缔约方 100
斗 100
简介 100
虫 100
摇 100
安理会 100
▁Capital 100
▁Portugal 100
▁flexibility 100
▁Status 100
fully 100
安全理事会 100
▁Panel 100
PH 100
▁Jin 100
▁machinery 100
▁Featur 100
▁vehicles 100
级别 100
休息 100
▁accounts 100
让他 100
▁viewed 100
您需要 100
人道主义 100
仅仅 100
▁spending 100
我们也 100
乘 100
▁mill 100
▁fashion 100
哥伦比亚 100
皮肤 100
袭击 100
▁guidelines 100
配合 100
展开 100
旋转 100
▁HIV 100
抓 100
护理 100
▁brother 100
▁courses 100
▁appears 100
itch 100
▁mechanisms 100
▁Tai 100
▁fulfill 100
▁predict 100
▁remained 100
基金会 100
rl 100
安静 100
▁launched 100
▁objects 100
▁recreation 100
750 100
当中 100
▁retail 100
休息区 100
▁consult 100
▁attacks 100
国会 100
▁smile 100
▁walked 100
北部 100
有机 100
紧急 100
▁players 100
遭受 100
▁pray 100
hui 100
关联 100
▁techniques 100
除非 100
▁Sweet 100
宾 100
get 100
祷告 100
▁英语 100
掌握 100
▁1997 100
bl 100
service 100
取代 100
周期 100
不受 100
RIS 100
▁tr 100
看起来 100
▁loved 100
内存 100
▁软件 100
▁Offering 100
构 100
scribe 100
▁discrimination 100
魔 100
伏 100
莎 100
比利时 100
铺 100
▁Jews 100
▁Third 100
编码 100
餐馆 100
phi 100
▁显示 100
快捷 100
▁Ana 100
▁spoke 100
pin 100
因为他们 100
LT 100
wn 100
▁Democratic 100
aka 100
▁Azure 100
dent 100
来看 100
ão 100
风景 100
▁CS 100
打造 100
更换 100
detail 100
love 100
▁泰国 100
标识 100
主任 100
独立的 100
▁harm 100
▁文龙 100
▁Front 100
▁skip 100
▁fail 100
▁mark 100
议 100
tric 100
ori 100
oma 100
▁follows 100
▁Sweden 100
char 100
壁纸 100
取得了 100
▁awareness 100
奖励 100
▁score 100
▁delete 100
各类 100
细节 100
还要 100
front 100
▁consist 100
UM 100
/4 100
▁discussion 100
▁gr 100
▁William 100
▁killed 100
▁tree 100
▁ear 100
无效 100
穆 100
▁confidence 100
▁florist 100
▁加拿大 100
▁Skype 100
▁12. 100
▁border 100
▁Save 100
▁assume 100
• 100
China 100
码头 100
ls 100
民众 100
Hotel 100
▁Bill 100
▁这是一个 100
▁Four 100
▁formed 100
美国的 100
bert 100
asp 100
▁happen 100
My 100
▁sheet 100
▁Ce 100
▁10- 100
缺 100
ique 100
▁Golden 100
多少 100
▁Facilities 100
▁association 100
▁universal 100
复活 100
LC 100
追求 100
科技股份有限公司 100
▁spend 100
▁spent 100
IO 100
iah 100
▁Photos 100
tial 100
▁abuse 100
真理 100
没有任何 100
记者 100
申请人 100
▁Dong 100
李 100
hin 100
pul 100
▁Chicago 100
▁entrance 100
▁territory 100
▁smooth 100
▁Virtual 100
莫斯科 100
bat 100
▁SAP 100
和一个 100
aging 100
under 100
▁Maria 100
让她 100
身边 100
引发 100
▁talking 100
▁Current 100
▁consistent 100
▁reserve 100
复杂的 100
-11 100
唯一 100
尖 100
▁neither 100
▁witness 100
宠物 100
▁rural 100
警告 100
呼吸 100
▁quarter 100
是我 100
▁minister 100
▁career 100
shed 100
image 100
night 100
边缘 100
▁120 100
▁ver 100
▁responded 100
mbo 100
克拉 100
▁investors 100
名单 100
▁Stra 100
▁Gre 100
设计的 100
burg 100
nz 100
主管 100
不错 100
良好 100
▁Temple 100
1% 100
ump 100
▁NEW 100
发生的 100
▁Computer 100
▁pleasant 100
▁battle 100
职员 100
成熟 100
LU 100
▁Using 100
▁Austria 100
为你 100
导航 100
批 100
判 100
▁le 100
严重的 100
律 100
大道 100
的高 100
flow 100
十年 100
kar 100
FE 100
rey 100
▁Cas 100
▁prison 100
尾 100
成长 100
告知 100
巴基斯坦 100
将来 100
▁adopt 100
各项 100
▁fo 100
▁CE 100
▁tourist 100
▁tradition 100
▁>> 100
▁巴黎 100
海外 100
▁End 100
▁Bon 100
相反 100
View 100
▁explain 100
/5 100
▁standing 100
▁它们 100
▁Representative 100
▁你是能够获得现场 100
▁Wal 100
的感觉 100
sure 100
▁z 100
LP 100
bas 100
的水 100
aba 100
avi 100
▁voltage 100
▁用于 100
哦 100
途径 100
▁entity 100
▁Palm 100
▁要预订 100
地铁站 100
环境中 100
oh 100
有限 100
的客人 100
的第一 100
文件夹 100
不用 100
▁relax 100
▁beauty 100
▁designs 100
潜在 100
▁thousand 100
人物 100
定位 100
▁James 100
▁participants 100
做了 100
other 100
晶 100
其他人 100
▁Care 100
向您 100
的关系 100
▁seat 100
▁0.8 100
分离 100
▁sit 100
▁Chan 100
暖 100
炉 100
的一些 100
▁Marriott 100
▁removal 100
▁depend 100
▁vast 100
bed 100
ele 100
清单 100
▁Sand 100
UB 100
你知道 100
365 100
ret 100
大大 100
skin 100
重视 100
不对 100
▁successfully 100
得以 100
▁2019 100
的费用 100
太阳能 100
▁空调 100
吻 100
泡 100
旅游经营者 100
▁identity 100
▁incomplete 100
▁microwave 100
拍摄 100
▁Phone 100
▁LLC 100
▁Machinery 100
▁appeared 100
想象 100
pass 100
福利 100
▁managed 100
万美元 100
code 100
的理想 100
▁Porto 100
▁instructions 100
胜利 100
▁statements 100
▁小时 100
▁Ple 100
fo 100
▁focused 100
▁supporting 100
▁opt 100
▁sweet 100
▁系统 100
与您 100
CK 100
涂 100
▁committee 100
领袖 100
tron 100
▁herself 100
每一 100
的基本 100
▁chart 100
币 100
IVE 100
SL 100
模具 100
▁Israeli 100
▁transmit 100
▁assess 100
更大的 100
▁failed 100
mmer 100
▁aimed 100
先知 100
▁expansion 100
▁straight 100
仁 100
传送 100
▁savings 100
ened 100
▁plate 100
▁联合国 100
▁destroy 100
的政策 100
▁Motor 100
之旅 100
▁army 100
的责任 100
二手 100
▁reproduce 100
▁Sin 100
▁Table 100
任何其他 100
两人 100
的任务 100
患 100
MT 100
殿 100
拯救 100
▁mutual 100
▁telephone 100
▁leaving 100
▁remaining 100
AF 100
下一个 100
▁stable 100
lly 100
盒 100
▁Sen 100
入口 100
▁mechanism 100
quality 100
▁hall 100
cast 100
▁Yi 100
为何 100
▁CAD 100
季 100
范 100
峰 100
▁技术 100
aj 100
掌 100
壁 100
▁Miami 100
吸烟 100
▁grounds 100
▁implemented 100
任意 100
▁exactly 100
▁Bai 100
▁cool 100
▁wasn 100
▁(2 100
▁Color 100
发动机 100
完美的 100
还在 100
▁1.1 100
▁金 100
本国 100
▁其 100
xin 100
尚未 100
▁一些 100
▁usage 100
ost 100
户外 100
▁couldn 100
狂 100
▁accident 100
宇 100
▁ALL 100
▁escape 100
▁stored 100
旁边 100
帐号 100
ference 100
▁youth 100
的同时 100
▁Tru 100
皇 100
▁judge 100
发明 100
而不 100
▁forced 100
▁Va 100
浴 100
▁initiatives 100
▁Cri 100
不得不 100
▁PR 100
vic 100
结婚 100
▁fiber 100
结论 100
法案 100
PR 100
大酒店 100
▁Province 100
uni 100
elect 100
▁acid 100
对他 100
连接器 100
▁rock 100
您使用 100
▁valve 100
我在 100
mag 100
罗斯 100
▁伦敦 100
cade 100
▁suggest 100
cies 100
机器人 100
▁PhotoFunia 100
▁eliminate 100
俯 100
▁Charles 100
治理 100
▁layout 100
▁在线 100
Ka 100
fold 100
aki 100
我国 100
▁Cape 100
▁000 100
▁11. 100
aria 100
▁fan 100
更高 100
▁representation 100
▁song 100
▁电话 100
情形 100
美丽 100
▁parameters 100
代理人 100
▁Kitchen 100
乡 100
▁Cyprus 100
▁Investment 100
▁conversion 100
丹麦 100
局势 100
stro 100
▁retain 100
▁hundreds 100
▁books 100
governmental 100
▁disclose 100
▁controller 100
听见 100
▁600 100
ose 100
合适的 100
上传 100
的最 100
▁CSS 100
评分 100
故 100
一件 100
客户服务 100
ender 100
句 100
尤 100
▁Tro 100
▁Bin 100
▁colour 100
▁severe 100
▁nations 100
编写 100
▁tend 100
dar 100
▁god 100
▁gap 100
/10 100
ato 100
电流 100
qi 100
ites 100
▁module 100
▁互联网 100
▁flight 100
pot 100
ball 100
重量 100
▁部分 100
菌 100
将尽最大努力 100
▁column 100
▁portfolio 100
▁sufficient 100
▁speech 100
▁proper 100
▁Moses 100
▁机场 100
FR 100
▁Dar 100
pers 100
飞行 100
Go 100
▁plus 100
jiang 100
由此 100
天然 100
收益 100
是我们 100
▁buildings 100
▁tests 100
▁directors 100
rac 100
lib 100
▁Jobs 100
▁Tours 100
ami 100
或为您提供申请退款的选择的小册子 100
▁Canadian 100
腐败 100
▁Analog 100
专题 100
▁governance 100
排名 100
▁specifically 100
ttle 100
ali 100
▁threat 100
在这方面 100
OU 100
AHCT 100
Jo 100
▁hidden 100
紧张 100
▁Char 100
得到了 100
育 100
▁manufacturer 100
▁manual 100
▁recall 100
精密 100
▁Training 100
home 100
珺梅 100
做的 100
▁游戏 100
▁estimated 100
rich 100
▁helped 100
▁discussions 100
max 100
law 100
static 100
介 100
怒 100
▁EXPRESS 100
▁Deutsch 100
▁Register 100
▁Seoul 100
▁adequate 100
▁perhaps 100
▁cat 100
罗马尼亚 100
▁massage 100
If 100
▁Night 100
ere 100
▁Ave 100
▁specialist 100
顾客 100
▁多 100
都要 100
变成 100
他就 100
ude 100
Qu 100
▁occasion 100
门口 100
▁sky 100
SR 100
过了 100
硅 100
▁Netherlands 100
▁TECHNOLOGY 100
燃料 100
如果您 100
订购 100
营养 100
▁私人浴室 100
▁pack 100
▁sport 100
▁negotiations 100
约定 100
的应用 100
在这 100
▁UC 100
▁Steel 100
后面 100
zer 100
我说 100
rick 100
桌面 100
慢 100
盟 100
ike 100
▁西 100
▁miss 100
赢 100
▁sets 100
瑟 100
鬼 100
瓜 100
清晰 100
▁precision 100
▁abroad 100
-6 100
▁Georgia 100
宗 100
教训 100
武装 100
▁complimentary 100
客厅 100
▁说明 100
▁endorse 100
极端 100
低于 100
▁TL 100
▁shi 100
cro 100
兼容 100
主动 100
▁Tools 100
bank 100
▁lock 100
▁expand 100
roll 100
range 100
▁TR 100
▁goes 100
HI 100
稿 100
播 100
▁mountain 100
▁98 100
▁HP 100
隐藏 100
▁它是 100
▁attract 100
虚 100
尘 100
▁Cultural 100
佛罗伦萨 100
▁Sorry 100
过渡 100
▁93 100
▁pure 100
▁Both 100
ending 100
签 100
CT 100
艺 100
操 100
▁61 100
钟 100
▁victims 100
不论 100
共有 100
号码 100
» 100
▁Permanent 100
▁Related 100
▁kingdom 100
情绪 100
▁tri 100
Why 100
真空 100
见证 100
▁阅读 100
search 100
递 100
▁Hai 100
1999 100
table 100
▁continuous 100
▁Ah 100
▁Av 100
扫 100
▁Olympic 100
▁Constitution 100
祭司 100
isation 100
▁sha 100
董事会 100
简化 100
▁Ken 100
手术 100
▁handling 100
中所 100
▁bridge 100
视图 100
GS 100
融资 100
▁tasks 100
hong 100
技术和 100
die 100
▁主页 100
金额 100
图表 100
▁decades 100
ova 100
RL 100
▁smaller 100
bol 100
倡议 100
菲律宾 100
浪漫 100
▁Comfort 100
积分 100
保密 100
▁Jiang 100
演讲 100
aving 100
FO 100
液体 100
▁Edit 100
更好地 100
▁script 100
敌 100
▁rose 100
▁Award 100
▁errors 100
▁visa 100
▁serves 100
lat 100
▁presentation 100
▁西班牙 100
▁餐厅 100
▁funding 100
排除 100
stan 100
反馈 100
▁elegant 100
▁贴牌生产 100
我们的最低机票价格 100
腰 100
竟然 100
▁Division 100
另 100
grad 100
4% 100
▁mar 100
领先 100
any 100
心脏 100
▁bra 100
效应 100
全新 100
大陆 100
▁MS 100
Di 100
ean 100
spa 100
▁2.5 100
在任何其他 100
▁rapid 100
pose 100
▁height 100
▁第三 100
界面 100
意思 100
柔 100
加密 100
灭 100
我们的网站 100
gna 100
累 100
▁Dublin 100
▁superior 100
辅助 100
威尼斯 100
▁当您 100
▁Legal 100
像素 100
▁membership 100
汽车租赁 100
老师 100
▁settlement 100
婴儿 100
俄 100
列出 100
▁cock 100
转换器 100
▁Stay 100
英里 100
But 100
poli 100
▁Miss 100
▁factor 100
bon 100
▁identified 100
日内瓦 100
▁interactive 100
▁Robert 100
▁union 100
▁Custom 100
保险箱 100
test 100
联系方式 100
▁Fri 100
ace 100
▁Tim 100
▁Arm 100
▁Their 100
占领 100
▁Ash 100
洲 100
公公 100
▁positions 100
▁Call 100
京 100
▁housekeeping 100
投诉 100
之下 100
频率 100
关切 100
心中 100
Country 100
gle 100
在本 100
▁Enter 100
期望 100
▁convert 100
你必须 100
mini 100
少数 100
的各种 100
的生命 100
刷 100
arian 100
尤其 100
外汇 100
play 100
Web 100
▁et 100
▁venue 100
▁smartphone 100
的功能 100
▁robot 100
▁Fresh 100
▁平面设计 100
▁mail 100
境内 100
设备的 100
▁hi 100
Br 100
照顾 100
pat 100
▁linked 100
中华人民共和国 100
思考 100
马尔 100
▁emissions 100
AE 100
或服务 100
5,000 100
加热 100
同时也 100
7% 100
▁Romania 100
▁finished 100
▁hundred 100
面板 100
著 100
0000 100
▁demands 100
休 100
▁0.9 100
爸 100
▁Amateur 100
兑换 100
▁detection 100
▁authorized 100
露营地 100
▁(4) 100
单一 100
景观 100
广州 100
▁deleted 100
▁ES 100
人生 100
网站的 100
▁Arch 100
▁proceed 100
肝 100
明确书面同意 100
▁Amazon 100
▁Certified 100
▁combat 100
▁重要信息 100
▁division 100
击败的 100
▁rain 100
主张 100
产生的 100
大厦 100
verse 100
的环境 100
的个人 100
摩西 100
▁Ty 100
落实 100
print 100
▁fund 100
基督教 100
▁noise 100
世界的 100
过的 100
天使 100
手动 100
经济体 100
hol 100
▁contribution 100
▁controlled 100
125 100
▁为此 100
8% 100
繁 100
▁visual 100
唐 100
▁万一你找到相同的全包 100
的解决方案 100
▁Wang 100
▁feedback 100
▁evil 100
收购 100
hn 100
▁solve 100
▁contributions 100
都没有 100
▁seconds 100
AW 100
▁Far 100
家族 100
MC 100
metric 100
lands 100
即将 100
常常 100
130 100
不久 100
政权 100
▁founded 100
▁circuit 100
▁supplies 100
▁university 100
orn 100
▁folder 100
边界 100
utter 100
▁waiting 100
▁animals 100
▁forum 100
▁boat 100
non 100
▁objectives 100
将于 100
▁channel 100
▁Philippines 100
▁fiscal 100
缺陷 100
▁termination 100
失去 100
▁notify 100
wards 100
▁Ji 100
的核心 100
▁SU 100
proof 100
bla 100
▁世界 100
▁theme 100
频 100
创意 100
▁windows 100
淡 100
刊 100
DF 100
伴 100
▁Recovery 100
▁automation 100
▁agent 100
彼此 100
▁stopped 100
▁heating 100
uan 100
yuan 100
一级 100
▁Ball 100
▁pen 100
UP 100
▁relatively 100
在哪里 100
▁Poly 100
假期 100
男性 100
▁permanent 100
▁older 100
庆 100
ily 100
▁INC 100
ALS 100
sex 100
察 100
▁treat 100
框 100
▁democracy 100
吹 100
ONE 100
卫星电视 100
某种 100
Yes 100
新型 100
给了 100
▁era 100
街道 100
▁Production 100
▁Pass 100
▁Wei 100
▁Region 100
呈现 100
FT 100
▁weak 100
地板 100
体制 100
▁playing 100
邻 100
ox 100
延 100
▁brief 100
kh 100
▁Advanced 100
装备 100
▁Ren 100
出发 100
人在 100
▁solar 100
截 100
▁Thanks 100
▁sectors 100
▁Regional 100
▁Victoria 100
幅 100
拜 100
▁subsequent 100
dict 100
▁Edinburgh 100
▁岁 100
层面 100
Wi 100
洁 100
的业务 100
▁crime 100
▁WARRANTIES 100
▁inaccurate 100
▁applicant 100
▁implied 100
▁我们始终为您提供我们的最低 100
荣耀 100
▁slave 100
▁protest 100
融合 100
▁Islamic 100
▁piece 100
了我 100
▁surprise 100
els 100
▁可以 100
在我们 100
aff 100
会有 100
产品和服务 100
▁63 100
样品 100
etic 100
条款和条件 100
▁indoor 100
BR 100
题 100
▁业余 100
▁Florida 100
促销 100
广播 100
▁Credit 100
▁interview 100
▁flash 100
市场的 100
办公 100
att 100
▁(3 100
尽可能 100
最近的 100
酒店预订 100
▁interaction 100
++ 100
先进 100
▁IBM 100
DVD 100
power 100
稳 100
▁coating 100
▁indicate 100
的质量 100
tang 100
▁Archives 100
你不 100
的决定 100
▁angel 100
账 100
晓 100
▁emergency 100
阿根廷 100
▁Furthermore 100
▁talent 100
▁Railway 100
经济增长 100
▁Motel 100
▁appearance 100
▁pair 100
详细信息 100
▁pet 100
▁Gr 100
解放 100
mate 100
▁kill 100
▁prayer 100
eve 100
MD 100
ied 100
▁Cable 100
服装 100
一定要 100
▁visited 100
轨 100
卓 100
豆 100
▁chief 100
▁charged 100
提醒 100
▁historic 100
想法 100
变量 100
try 100
地理 100
▁payments 100
▁Syria 100
▁Net 100
eva 100
管辖 100
但在 100
about 100
预定 100
给您 100
执 100
架构 100
ELL 100
inter 100
▁他的 100
相应 100
▁certification 100
▁contemporary 100
刘 100
乐趣 100
▁99 100
提议 100
▁temple 100
awa 100
▁factory 100
日常 100
的中心 100
2) 100
未来的 100
灵活 100
ó 100
▁cheap 100
犹太 100
enti 100
节目 100
造成的 100
努 100
攻 100
▁1996 100
▁senior 100
▁proprietary 100
▁elected 100
负载 100
▁14. 100
转型 100
识 100
PER 100
▁confirm 100
际 100
lk 100
din 100
ENG 100
制订 100
美洲 100
rang 100
分发 100
▁losses 100
▁海 100
▁全球 100
旋 100
made 100
输送 100
议程 100
▁revolution 100
▁favor 100
▁transactions 100
▁definition 100
忘记 100
▁preferred 100
股票 100
yi 100
黑暗 100
rad 100
▁affordable 100
哲学 100
▁YOUR 100
有许多 100
提出了 100
很少 100
的重要性 100
▁Fort 100
▁Hol 100
▁Fast 100
▁Comments 100
▁Index 100
年以来 100
ille 100
壳 100
审计 100
乔 100
剪 100
▁recognition 100
密钥 100
▁storm 100
爸爸 100
▁Compare 100
因为他 100
scale 100
tha 100
EY 100
让人 100
CN 100
▁Laser 100
旅 100
▁informed 100
答 100
HD 100
的行动 100
的不同 100
▁ran 100
安全的 100
灰 100
▁coordination 100
▁medicine 100
华盛顿 100
滴 100
腾 100
▁sample 100
▁pleasure 100
▁这就是 100
硬盘 100
▁AUD 100
▁seating 100
▁Treaty 100
▁kids 100
也在 100
的标准 100
体现 100
积 100
▁reaction 100
MIME 100
hl 100
天气 100
法官 100
▁realize 100
▁基于 100
▁speaking 100
▁企业 100
技术支持 100
▁significantly 100
▁PM 100
▁Stand 100
TF 100
荷 100
lla 100
ANT 100
▁Analysis 100
▁Entertainment 100
丈夫 100
检验 100
▁horse 100
▁transaction 100
学会 100
项目的 100
上市 100
智能手机 100
▁drawing 100
phone 100
ural 100
lig 100
▁ju 100
▁77 100
热水 100
产地 100
ched 100
lines 100
▁coast 100
▁parent 100
▁situations 100
▁ride 100
恐怖 100
鸽 100
▁ENTERPRISE 100
▁powder 100
▁dinner 100
▁Athens 100
填写 100
▁sauna 100
▁Results 100
oi 100
保罗 100
零件 100
Can 100
人民法院 100
chen 100
arrow 100
SON 100
▁detail 100
页面不存在 100
了起来 100
ote 100
餐饮 100
RD 100
或其 100
IX 100
eri 100
▁relation 100
的照片 100
▁Sw 100
▁06 100
先进的 100
玉 100
雄 100
猛 100
▁analyze 100
▁版权所有 100
培养 100
ching 100
房屋 100
迷你吧 100
▁Chairman 100
▁FREE 100
男子 100
▁performed 100
▁professionals 100
▁Browse 100
▁sal 100
的社会 100
可见 100
hoo 100
的朋友 100
GI 100
▁Sil 100
严 100
是最 100
屏 100
的项目 100
有趣的 100
▁maintaining 100
iff 100
▁perspective 100
▁Festival 100
▁afraid 100
氏 100
概述 100
网址 100
询问 100
▁Sy 100
▁dollar 100
▁网上 100
恰 100
▁数据 100
▁Vote 100
老公 100
流行 100
突 100
iro 100
平面 100
启用 100
是你 100
tte 100
今 100
Com 100
▁BA 100
滚 100
肥 100
▁worry 100
▁twenty 100
呆 100
挪威 100
▁Silver 100
深刻 100
▁male 100
▁permit 100
购物中心 100
的选择 100
even 100
EB 100
rant 100
▁Did 100
▁Wu 100
苏丹 100
▁translate 100
OT 100
▁shut 100
▁suspend 100
色彩 100
lov 100
▁meant 100
艺术家 100
和技术 100
cheng 100
▁tab 100
他还 100
content 100
▁extended 100
▁advantages 100
▁Ber 100
mos 100
▁respective 100
继 100
您的预计抵达时间 100
扶 100
▁Photoshop 100
▁courts 100
诸如 100
缝 100
▁mold 100
一步 100
前面 100
▁brain 100
影响力 100
▁lived 100
荣 100
CF 100
itz 100
▁Cur 100
▁Michael 100
▁login 100
这两个 100
符 100
▁constant 100
▁warrant 100
的公司 100
的确 100
▁orders 100
▁seeking 100
park 100
熟 100
撤销 100
▁competitive 100
债 100
辛 100
BB 100
猫 100
▁Declaration 100
▁pretty 100
兴奋 100
索赔 100
星期 100
▁programming 100
携带 100
视觉 100
▁250 100
的孩子 100
1998 100
▁notes 100
4] 100
eli 100
团结 100
▁Bro 100
其余 100
今后 100
的形式 100
jia 100
的全部 100
刚刚 100
ene 100
马拉 100
蛋 100
墨 100
▁Afghanistan 100
▁assembly 100
▁experiment 100
畅 100
抚 100
判断 100
▁Update 100
重建 100
干预 100
▁Vista 100
您对 100
热情 100
成分 100
的力量 100
▁villa 100
进去 100
席 100
联系人 100
赢得 100
▁Walk 100
预订表格 100
▁Ass 100
足够 100
墨尔本 100
▁Belgium 100
▁Cojak 100
▁communicate 100
▁facility 100
虎 100
爬 100
地上 100
事故 100
late 100
▁Sofa 100
▁旅舍 100
库存 100
▁罗马 100
lift 100
▁highlight 100
学术 100
▁2- 100
之处 100
▁Lab 100
ising 100
▁looks 100
▁Costa 100
贸 100
遵循 100
▁Advertisement 100
▁struggle 100
▁请您提前告知 100
拔 100
▁interior 100
▁cookie 100
证券 100
干燥 100
拘留 100
焊接 100
同一 100
▁debate 100
riv 100
公寓距离 100
您的信息 100
▁Classic 100
储 100
▁define 100
搭 100
▁} 100
▁wave 100
的主 100
▁$4 100
3000 100
秀 100
区的 100
inch 100
▁learned 100
那是 100
▁Islam 100
▁Prince 100
莉 100
▁Chemical 100
▁Hospital 100
局部性 100
匈牙利 100
匹配 100
▁isn 100
▁sitting 100
刑事 100
▁Wine 100
tun 100
线路 100
▁tight 100
其他国家 100
任命 100
告诉我 100
电气 100
rist 100
RY 100
东京 100
OUR 100
走到 100
多边 100
坐落于 100
pla 100
▁Exp 100
府 100
Wa 100
序 100
Soft 100
艾滋病 100
▁Amsterdam 100
▁License 100
▁intelligent 100
▁obvious 100
供求信息 100
甘 100
▁Premier 100
▁mistake 100
▁conclusion 100
▁covers 100
▁Trump 100
流动 100
SH 100
▁sensors 100
▁closet 100
▁mix 100
捷克 100
▁aircraft 100
名为 100
遇 100
人都 100
▁Applications 100
高品质 100
转向 100
不知 100
竞争力 100
gel 100
筹 100
ison 100
BD 100
行李 100
▁peaceful 100
▁solely 100
技术的 100
▁Song 100
理想的 100
ssa 100
的可能性 100
▁painting 100
▁Nor 100
dem 100
的一种 100
▁increases 100
▁director 100
▁Pack 100
勤 100
遥 100
的想法 100
纹 100
密切 100
▁Boulevard 100
▁Tweet 100
▁ancient 100
▁welding 100
英特尔 100
▁unable 100
液压 100
▁Gas 100
fla 100
5000 100
设计师 100
▁Basic 100
候 100
ended 100
监 100
一声 100
成功的 100
避 100
▁earn 100
收取 100
-0 100
的努力 100
对您 100
rai 100
地面 100
将被 100
重申 100
加快 100
此时 100
245 100
并提供 100
大西洋 100
▁Society 100
▁frequency 100
恋 100
▁labour 100
▁Storage 100
▁Agency 100
写作 100
zu 100
▁contrast 100
AST 100
cker 100
tai 100
台湾 100
关心 100
▁Forest 100
nar 100
它们的 100
▁儿童 100
主权 100
认真 100
▁Login 100
San 100
▁adjustment 100
ific 100
temp 100
IV 100
yer 100
▁apps 100
▁不要 100
▁或者 100
CAM 100
▁Tool 100
190 100
▁72 100
▁耶和华 100
MM 100
▁Culture 100
▁Enjoy 100
猎 100
和预订船票 100
▁terminal 100
▁generator 100
粮食 100
▁Finance 100
作业 100
ERS 100
▁indeed 100
Net 100
Cl 100
▁SS 100
你需要 100
▁regulatory 100
▁布 100
如同 100
sti 100
▁prevention 100
创作 100
回复 100
▁lies 100
cm 100
▁cars 100
▁ski 100
很容易 100
some 100
场合 100
中方 100
▁Featured 100
增加了 100
▁hire 100
fall 100
OK 100
中有 100
挑 100
ML 100
牧 100
▁Guadeloupe 100
▁LIMITED 100
▁venture 100
剧院 100
▁tank 100
▁Mount 100
AIDS 100
▁Features 100
ase 100
会被 100
▁Wiki 100
▁标签 100
▁template 100
▁belong 100
▁teams 100
客人可以 100
stock 100
续 100
的基础上 100
潮 100
▁raw 100
▁第一 100
AND 100
头发 100
▁Sri 100
饮食 100
ibility 100
谱 100
灾 100
裔 100
▁derivative 100
▁receiving 100
stainless 100
冒险 100
▁planned 100
▁estate 100
▁许多 100
您所 100
PU 100
sim 100
▁replace 100
了吗 100
▁Oil 100
▁alloy 100
▁elections 100
arch 100
Na 100
ito 100
fil 100
奉 100
命名 100
端口 100
▁Thai 100
▁filled 100
▁cast 100
▁LI 100
▁家庭 100
▁grand 100
MAR 100
6% 100
请参阅 100
▁Argentina 100
▁measuring 100
▁incurred 100
实业有限公司 100
▁rail 100
超越 100
AIN 100
营业 100
▁Cons 100
▁Pay 100
地下 100
▁hath 100
▁Kit 100
chan 100
▁pattern 100
▁1995 100
▁XXX 100
▁03 100
有任何 100
▁newer 100
▁CC 100
客户的 100
新鲜 100
AY 100
▁nearest 100
知名 100
爆炸 100
你说 100
对方 100
出的 100
▁800 100
验 100
桌 100
始 100
住房 100
▁Cho 100
研究所 100
eur 100
▁【 100
wer 100
▁educational 100
行使 100
▁Metal 100
消耗 100
FM 100
消失 100
Fox 100
接下来 100
门徒 100
▁Stock 100
160 100
的目的 100
ature 100
优点 100
若干 100
组织的 100
▁initiative 100
刚才 100
GO 100
一半 100
相似 100
这个问题 100
▁objective 100
ement 100
集体 100
▁acc 100
atory 100
的部分 100
El 100
▁选择你 100
▁helping 100
被视为 100
▁rack 100
标准的 100
泉 100
▁financing 100
▁该酒店的描述近似翻译 100
哭 100
涵盖 100
▁harmless 100
(1) 100
gang 100
核武器 100
▁rising 100
▁Locality 100
coin 100
▁Dream 100
即时 100
▁scar 100
使他们 100
▁Material 100
▁Yet 100
把它 100
区别 100
▁1.3 100
▁taxes 100
形式的 100
▁charges 100
车站 100
众人 100
▁asset 100
▁helpful 100
强大 100
两年 100
▁SG 100
▁Fre 100
考试 100
伟大 100
ONG 100
▁Joseph 100
ctor 100
▁joy 100
uda 100
欧洲主要渡轮营办商包括 100
生产线 100
▁BO 100
VR 100
例子 100
庆祝 100
天堂 100
▁patient 100
退出 100
TOR 100
▁2.0 100
告诉你 100
mg 100
date 100
他们在 100
的城市 100
百万 100
AO 100
▁Ger 100
那种 100
▁teach 100
ISO 100
▁Age 100
▁formula 100
▁Direct 100
巧 100
▁Rapporteur 100
▁decrease 100
▁luggage 100
▁facing 100
冲击 100
ATING 100
回报 100
ZIP 100
▁Governments 100
▁为了获得 100
▁intention 100
诸 100
为此 100
有必要 100
吨 100
▁diseases 100
visit 100
▁ratio 100
可用性 100
一套 100
:16 100
▁Mil 100
我会 100
▁即使 100
ICE 100
▁iPad 100
▁sum 100
就要 100
撤 100
泳池 100
恨 100
▁也考虑这 100
‚¬ 100
▁democratic 100
▁library 100
▁Course 100
▁Towels 100
bot 100
lm 100
▁paint 100
▁Common 100
▁username 100
▁enforcement 100
▁adoption 100
分公司 100
接待 100
▁warranty 100
所有这些 100
些位于 100
所有人 100
资助 100
speed 100
▁planet 100
ional 100
使我们 100
▁closely 100
西亚 100
▁69 100
零售 100
▁最佳 100
▁corruption 100
的变化 100
▁brings 100
的更多信息 100
国外 100
Cha 100
▁execution 100
▁sponsor 100
搞 100
黎巴嫩 100
▁你是否有 100
日在 100
via 100
▁consumers 100
回收 100
总数 100
▁documentation 100
▁recover 100
▁交易 100
全球化 100
毫无 100
太多 100
办理 100
▁lounge 100
停车 100
ION 100
wide 100
▁tags 100
pit 100
住宿地方 100
▁hosts 100
▁personally 100
loc 100
客户端 100
家里 100
生存 100
ider 100
冒 100
▁guidance 100
脂肪 100
一会儿 100
▁landscape 100
▁honor 100
▁shock 100
▁Developer 100
滑雪 100
▁categories 100
申 100
▁trends 100
容量 100
遭到 100
▁relationships 100
HE 100
SF 100
▁deployment 100
▁您的 100
成绩 100
▁ice 100
▁Channels 100
< 100
沿 100
▁depends 100
做到 100
后果 100
捷 100
这些信息 100
tit 100
▁_ 100
▁pop 100
芬 100
FL 100
▁或其附近的住宿 100
稀 100
▁alleged 100
▁agency 100
零部件 100
fur 100
pet 100
一直在 100
▁和附近 100
▁66 100
提示关于 100
意外 100
一流的 100
9% 100
▁ahead 100
▁PL 100
▁建议和 100
▁properly 100
出现了 100
▁implementing 100
ush 100
▁LE 100
cep 100
▁discount 100
Win 100
▁judgment 100
▁technological 100
▁软件构架 100
勃 100
垫 100
赋予 100
▁Theatre 100
▁temporary 100
▁laid 100
OST 100
爆发 100
在任何 100
短期 100
▁Mus 100
▁Lisbon 100
INT 100
▁backup 100
▁centers 100
▁01 100
制品 100
XX 100
冷却 100
在过去 100
▁Refrigerator 100
▁Secretariat 100
▁valuable 100
灾难 100
▁FROM 100
▁displayed 100
▁Agent 100
公寓在 100
▁只有 100
lang 100
巴士 100
▁应用 100
lis 100
▁treaty 100
▁Style 100
Is 100
了他 100
会议室 100
▁Camping 100
的房间 100
▁requirement 100
280 100
今日 100
▁可是 100
必须在 100
▁Mod 100
och 100
▁lighting 100
信用 100
的样子 100
▁peoples 100
▁rare 100
order 100
▁federal 100
▁intelligence 100
▁monetary 100
▁protocol 100
▁untrue 100
惩罚 100
▁Federation 100
▁carrier 100
▁Large 100
管制 100
▁EX 100
▁Process 100
▁joined 100
▁chosen 100
付出 100
▁winter 100
▁85 100
▁strengthening 100
啤酒 100
▁specialized 100
Product 100
无限 100
▁engage 100
▁whatever 100
▁活动在 100
▁GB 100
▁scan 100
▁84 100
▁sons 100
fore 100
iko 100
▁immediate 100
▁Author 100
OO 100
▁hole 100
▁Field 100
▁inflation 100
庞 100
▁breast 100
外观 100
许多人 100
▁Value 100
轨道 100
sens 100
记住 100
file 100
布达佩斯 100
实力 100
oid 100
ening 100
bia 100
mir 100
▁movie 100
cla 100
提交的 100
EF 100
▁Ten 100
tag 100
▁旅馆 100
▁Offer 100
还提供 100
▁罗 100
▁Statement 100
▁Tele 100
band 100
▁clock 100
DNA 100
▁sins 100
电路 100
▁Statistics 100
▁appreciate 100
▁introduction 100
▁ethnic 100
▁Should 100
斗争 100
▁Film 100
▁thermal 100
change 100
报价 100
事先 100
更好 100
▁reverse 100
▁Shu 100
完善 100
建立了 100
半岛 100
相应的 100
▁在此 100
HYIP 100
lash 100
lets 100
▁Need 100
的页面 100
pes 100
的故事 100
▁mu 100
▁boost 100
▁Tar 100
荡 100
悲 100
Page 100
▁Python 100
▁Thomas 100
▁Venice 100
▁despite 100
▁Agoda 100
▁NXP 100
▁modification 100
▁sorry 100
▁Living 100
记忆 100
漏洞 100
▁Architecture 100
批评 100
▁Movie 100
鲜 100
终端 100
冠军 100
eries 100
潜力 100
报纸 100
USB 100
▁purchased 100
▁equality 100
▁Connect 100
170 100
uba 100
/1/ 100
马上 100
▁预订 100
岩 100
烤箱 100
▁Off 100
▁了解更多 100
oni 100
▁Linen 100
一只 100
▁Very 100
cap 100
为基础 100
▁Writing 100
能在 100
▁bread 100
▁Authority 100
▁listing 100
▁trademarks 100
观光 100
寿命 100
▁建议在 100
▁versions 100
进来 100
▁leads 100
All 100
这场 100
▁Marina 100
出来的 100
add 100
▁pipe 100
感受 100
▁wheel 100
▁slowly 100
维基百科 100
▁系列 100
引用 100
RF 100
▁contents 100
▁Right 100
▁extreme 100
▁poly 100
ces 100
著名 100
偷 100
议定书 100
▁INFORMATION 100
▁integrity 100
▁pursue 100
橡胶 100
舒服 100
PG 100
高性能 100
▁Jan 100
▁Tourism 100
▁customized 100
插入 100
▁sentence 100
暂时 100
▁outstanding 100
▁Maps 100
▁violate 100
▁gets 100
路径 100
▁Finally 100
发生了 100
▁manufacture 100
▁Zone 100
下了 100
km 100
稳定性 100
斯塔 100
诉 100
放置 100
▁欢迎 100
▁67 100
-7 100
宽敞的 100
inc 100
▁95 100
▁就 100
容器 100
吸收 100
▁cry 100
押 100
▁Kat 100
▁IMPLIED 100
▁conversation 100
幼 100
共产党 100
▁entities 100
百姓 100
SB 100
▁ongoing 100
▁newspaper 100
NY 100
异常 100
▁wage 100
main 100
▁他说 100
cess 100
▁Hello 100
也能 100
动画 100
和管理 100
0.0 100
和他 100
pr 100
条目 100
斯坦 100
公路 100
▁俄罗斯 100
▁Farm 100
Si 100
MAN 100
▁Bang 100
合成 100
▁又 100
▁happens 100
its 100
aire 100
▁Smoking 100
▁Gri 100
▁Adam 100
eller 100
列车 100
钨 100
▁($30- 100
奥巴马 100
▁Antonio 100
这座 100
男孩 100
dam 100
顶部 100
压缩 100
长时间 100
▁notification 100
使用条款 100
航空公司 100
奇怪 100
仆人 100
nna 100
▁Greater 100
拉斯 100
▁holder 100
▁sensitive 100
▁Op 100
▁Alex 100
辞 100
人体 100
碰 100
坎 100
诱 100
▁Hungary 100
▁acquisition 100
摄像头 100
▁amazing 100
▁Nov 100
▁Lan 100
洗衣机 100
不准确 100
▁node 100
OUT 100
你怎么 100
▁Oh 100
的理由 100
▁Eco 100
bury 100
trac 100
有机会 100
▁addressed 100
▁topic 100
▁proposal 100
我可以 100
▁reforms 100
iness 100
对比 100
设计和 100
带来的 100
▁Australian 100
450 100
在你 100
/11 100
▁Fun 100
从未 100
的那 100
▁Parliament 100
谋 100
▁turning 100
也不会 100
弯 100
▁Premium 100
▁Petersburg 100
专注于 100
▁taxi 100
病人 100
▁ensures 100
▁grants 100
▁一旦 100
▁Level 100
▁Zoo 100
▁moral 100
的意思 100
▁believed 100
回家 100
类似的 100
存在的 100
所谓的 100
光学 100
▁wants 100
好好 100
▁Device 100
▁pulled 100
我还 100
vor 100
▁fourth 100
▁Mas 100
科学家 100
▁burn 100
回顾 100
承担责任 100
▁Tickets 100
▁DM 100
错误的 100
粒 100
迁 100
▁academic 100
▁compensation 100
▁understood 100
仔细的分析 100
▁prophet 100
干扰 100
印象 100
▁vital 100
鸡 100
pir 100
▁wire 100
infringement 100
▁如今 100
塑 100
▁拉 100
nas 100
▁5* 100
常规 100
123 100
▁characters 100
残疾人 100
ava 100
▁arrangements 100
的日子 100
是要 100
▁Hav 100
▁bomb 100
▁Mat 100
纪 100
摄影 100
commerce 100
▁Figure 100
▁biggest 100
▁refrigerator 100
▁sought 100
棉 100
▁restrictions 100
▁Situat 100
临床 100
在该 100
▁wash 100
post 100
▁每个 100
▁transformation 100
▁cup 100
密度 100
职能 100
月份 100
UC 100
▁Kha 100
agon 100
的全球 100
-15 100
GL 100
该公司 100
ark 100
▁consists 100
▁consequences 100
本作品 100
假设 100
▁印度 100
特殊的 100
癌 100
用户名 100
Province 100
▁visits 100
帐 100
替 100
▁问 100
▁Further 100
▁silver 100
害怕 100
▁ultra 100
高的 100
这一切 100
lio 100
享 100
rup 100
paper 100
一个新的 100
图标 100
▁评论 100
▁老 100
▁带 100
人家 100
不应 100
你将 100
News 100
▁Wa 100
-16 100
▁Gui 100
▁电子 100
▁sofa 100
▁CON 100
▁15- 100
hun 100
▁比如 100
▁showed 100
▁厨房 100
详 100
丘 100
宏 100
▁platforms 100
▁plot 100
律法 100
工业股份有限公司 100
娱乐设施 100
免费洗浴用品 100
充电 100
▁onto 100
▁Allah 100
▁Electron 100
数字化 100
发展的 100
rel 100
字符 100
年轻人 100
▁15. 100
是这样 100
的生产 100
场景 100
▁我们将 100
rag 100
算法 100
▁reserved 100
▁Kan 100
已在 100
:10 100
▁terrorism 100
WS 100
▁paying 100
舰 100
Default 100
ç 100
▁structural 100
熟悉 100
▁indigenous 100
▁glory 100
振动 100
潜水 100
▁Ham 100
LTD 100
日志 100
▁Low 100
▁thin 100
列入 100
▁IV 100
的客户 100
▁Ed 100
such 100
▁apart 100
mile 100
▁Syrian 100
▁animal 100
lect 100
city 100
分为 100
问题上 100
dale 100
中华 100
▁pull 100
伸 100
▁owners 100
On 100
▁bringing 100
氧 100
Cookie 100
▁herein 100
济 100
三十 100
说什么 100
▁Corporate 100
▁Deluxe 100
▁ocean 100
抢 100
职责 100
vy 100
▁proceedings 100
迪拜 100
玩具 100
▁ODM 100
▁Nord 100
年来 100
是对 100
hat 100
pine 100
▁Egyptian 100
▁并且 100
有哪些 100
▁Nice 100
▁71 100
第二个 100
▁透过 100
可通过 100
▁Bor 100
font 100
▁regularly 100
eck 100
裤 100
▁Corp 100
▁[1 100
▁其实 100
▁Registration 100
有效地 100
ERP 100
信息的 100
焦 100
bis 100
主要的 100
屁股 100
泛 100
吓 100
青少年 100
乔治 100
▁Obama 100
传递 100
▁Keep 100
▁transmitted 100
▁reception 100
▁clothes 100
将是 100
的材料 100
敬 100
▁rely 100
手指 100
chin 100
可供 100
恐惧 100
还会 100
或任何 100
▁76 100
▁organ 100
▁Moo 100
突出 100
数据中心 100
三角 100
以及其他 100
▁renew 100
第七 100
文学 100
欢 100
戒 100
dian 100
▁Hairdryer 100
▁audience 100
▁vacation 100
▁accessories 100
▁THAT 100
喊 100
duction 100
▁(" 100
sub 100
管理和 100
therapy 100
行程 100
承受 100
▁lake 100
▁无论 100
design 100
▁新加坡 100
与其 100
▁ir 100
▁Ram 100
▁suspect 100
德语 100
▁Col 100
的未来 100
死了 100
tian 100
▁ones 100
还能 100
抓住 100
▁records 100
▁controls 100
▁lie 100
鸡巴 100
空中 100
隔离 100
迟 100
mination 100
pad 100
浅 100
¡ 100
▁Knowledge 100
▁stretch 100
迦 100
▁投选你 100
举措 100
▁Denmark 100
夏季 100
friendly 100
220 100
好处 100
▁exit 100
DW 100
张贴 100
▁Commercial 100
▁limits 100
的第 100
盗 100
证实 100
FP 100
紧密 100
强化 100
kel 100
主教 100
生态 100
▁trees 100
[1] 100
BT 100
▁structures 100
贫 100
▁(0) 100
当今 100
毕业 100
败 100
中断 100
Script 100
鼓 100
逆 100
▁INDUSTRIAL 100
▁indemnify 100
▁succeed 100
▁universities 100
▁此页面上的 100
▁sharp 100
▁Happy 100
▁tub 100
马德里 100
三年 100
▁broken 100
▁CPU 100
▁render 100
▁containing 100
以及在 100
幸 100
易于 100
▁updates 100
▁Army 100
的网页 100
▁Client 100
税收 100
记得 100
▁Heart 100
▁:: 100
很好的 100
110 100
自愿 100
▁reflected 100
不允许 100
宣 100
激活 100
忍 100
store 100
脉 100
了一些 100
即便 100
▁cluster 100
朱 100
补偿 100
PW 100
▁Downtown 100
探讨 100
tronics 100
种植 100
▁Kh 100
138 100
▁Heating 100
税务 100
一百 100
▁Puerto 100
▁Shan 100
▁Tian 100
内容需要 100
▁南 100
ECT 100
▁主 100
1997 100
▁departments 100
gli 100
一阵 100
▁Reserve 100
行业的 100
机构的 100
▁prove 100
rous 100
▁Sk 100
也可 100
▁FL 100
▁closer 100
▁Places 100
冠 100
羞 100
婚姻 100
爽 100
全面的 100
磁盘 100
▁functionality 100
▁utilize 100
▁nine 100
▁Nature 100
▁1.6 100
▁Sound 100
和经济 100
咖啡机 100
hou 100
▁introduce 100
▁capture 100
hon 100
uel 100
▁Louis 100
自定义 100
MENT 100
回去 100
▁正如 100
神圣 100
▁exception 100
▁typical 100
eon 100
▁smiled 100
社会主义 100
Star 100
他说 100
▁agricultural 100
▁criteria 100
▁tropical 100
:4.0.30319.342 100
▁Bureau 100
乡村 100
▁人们 100
nor 100
▁desktop 100
▁Sunday 100
▁Rod 100
▁warning 100
各地 100
▁利用 100
mus 100
您的资料 100
▁Rules 100
▁Ks 100
夫人 100
▁enjoyed 100
美景 100
▁row 100
Gra 100
▁Semiconductors 100
BL 100
大教堂 100
ARD 100
政党 100
▁outcome 100
▁Wat 100
将继续 100
▁Sites 100
第二十 100
▁servers 100
▁注意 100
效力 100
▁millions 100
更大 100
氛围 100
较新版本的 100
▁defense 100
罩 100
凌 100
▁departure 100
▁Condo 100
▁Chief 100
▁duty 100
Sha 100
▁tower 100
▁Ali 100
hip 100
▁Shin 100
▁mental 100
所提供的 100
▁PO 100
▁displays 100
起了 100
▁Cuba 100
▁arch 100
▁Pin 100
▁rid 100
▁indicated 100
般 100
conf 100
user 100
▁www 100
▁Glass 100
VP 100
高潮 100
▁/> 100
肠 100
▁INDUSTRY 100
▁Jordan 100
▁chapter 100
牢 100
▁milk 100
依靠 100
▁SD 100
影片 100
多年 100
▁preach 100
一体化 100
FX 100
平安 100
发起 100
免费无线网络连接 100
Redirect 100
姐 100
244 100
bug 100
upload 100
▁CRM 100
双手 100
5] 100
▁acceptance 100
▁arrive 100
带来了 100
▁forget 100
login 100
而非 100
▁investments 100
▁explained 100
▁Brun 100
走向 100
角度 100
碎 100
的保护 100
▁Atlantic 100
▁Precision 100
候选人 100
浦 100
▁bilateral 100
▁Croatia 100
▁infection 100
▁throw 100
▁Little 100
有一些 100
▁proud 100
路上 100
rog 100
▁pieces 100
▁2.1 100
不了 100
Bit 100
▁dryer 100
PD 100
合金 100
▁Safe 100
DT 100
▁corresponding 100
▁band 100
lee 100
航行 100
▁Cup 100
▁Ye 100
▁同样 100
把他 100
为我们 100
hm 100
eration 100
在我们的 100
Cam 100
rest 100
这位 100
pol 100
迎 100
allowing 100
▁国家 100
▁Lanka 100
how 100
rol 100
添加到 100
供应链 100
She 100
▁作者 100
▁Pop 100
束 100
串 100
饱 100
▁evaluate 100
▁简体中文 100
经销商 100
分钟的步行路程 100
▁Instant 100
招聘 100
和你 100
▁Guesthouse 100
▁transferred 100
真相 100
另一方面 100
顺利 100
▁coach 100
▁Come 100
▁价格 100
▁客户 100
▁Contract 100
▁resolutions 100
▁除 100
icon 100
态度 100
尼斯 100
▁最 100
▁68 100
因而 100
▁Yang 100
Don 100
犹大 100
法语 100
▁分钟 100
农村 100
内置 100
ESS 100
个人资料 100
180 100
纽 100
陪 100
▁vacuum 100
▁species 100
分销网络提供 100
▁Summer 100
Pri 100
贫穷 100
▁Expo 100
▁Camera 100
▁Cafe 100
▁78 100
▁Bru 100
装修 100
启 100
▁Bla 100
产量 100
▁prohibited 100
En 100
Ja 100
▁(5) 100
感兴趣 100
▁classic 100
全新的 100
▁16. 100
▁grave 100
rator 100
▁Bad 100
在她 100
▁institutional 100
rab 100
宿舍 100
▁believes 100
的儿童 100
▁Il 100
况 100
一部分 100
dr 100
IES 100
▁2.2 100
▁east 100
过度 100
本来 100
不够 100
蒙特 100
▁hy 100
闲 100
▁Cooperation 100
▁Despite 100
▁Portuguese 100
▁examination 100
▁fabric 100
▁identification 100
或其任何部份 100
▁Radisson 100
▁Vice 100
▁forecast 100
技巧 100
enabling 100
珠宝 100
▁sugar 100
微软 100
▁Twin 100
立刻 100
▁differences 100
▁string 100
▁Instead 100
不敢 100
UE 100
古巴 100
zar 100
▁connector 100
▁secondary 100
▁客房 100
没有人 100
▁convention 100
▁rapidly 100
当代 100
Te 100
▁Mad 100
同样的 100
▁Menu 100
假日 100
十一 100
原理 100
我们需要 100
化工 100
EI 100
每周 100
▁arrived 100
VO 100
条第 100
ACE 100
▁connections 100
▁engaged 100
杨 100
第二次 100
IB 100
▁awarded 100
▁realized 100
床上 100
多次 100
槽 100
忠 100
▁calling 100
▁家庭式酒店 100
▁applies 100
氢 100
▁Title 100
乘坐 100
▁与此同时 100
农场 100
▁crimes 100
sphere 100
iva 100
▁Trust 100
方针 100
▁stick 100
西部 100
的系统 100
法定 100
的学生 100
▁dust 100
Are 100
当你 100
▁suffering 100
▁bars 100
在我的 100
但它 100
现有的 100
下一 100
参加了 100
开了 100
AGE 100
door 100
公寓位于 100
我已经 100
孙 100
聘 100
jpeg 100
▁subsidiaries 100
▁Logistics 100
沙滩 100
▁fellow 100
岛屿 100
tia 100
▁Tan 100
可提供 100
▁golf 100
▁effectiveness 100
论文 100
▁dating 100
大幅 100
输 100
▁广州 100
特色服务 100
▁Message 100
▁Gardens 100
所有权 100
rain 100
▁environments 100
间的 100
▁图 100
▁Kin 100
▁topics 100
DO 100
▁priest 100
▁surrounding 100
是有 100
您必须 100
▁Universal 100
▁Medi 100
▁wild 100
肾 100
▁Heritage 100
▁concrete 100
遮 100
荒 100
阿姆斯特丹 100
▁个酒店在 100
▁scheme 100
捐助 100
繁荣 100
▁shuttle 100
交友 100
▁existence 100
自主 100
▁Sho 100
▁capable 100
Ad 100
▁Kim 100
经费 100
▁Baby 100
oe 100
和安全 100
把我 100
pil 100
深度 100
对应 100
▁bag 100
dor 100
sign 100
title 100
Open 100
china 100
ili 100
hold 100
anna 100
▁Ann 100
士兵 100
为其 100
▁iPod 100
iel 100
▁porn 100
嘛 100
▁Accommodation 100
▁Release 100
缅甸 100
兽 100
▁visible 100
毕竟 100
▁Political 100
▁residence 100
雅典 100
▁native 100
▁proven 100
节能 100
▁Xin 100
手中 100
▁addresses 100
▁electricity 100
汽车旅馆 100
对我 100
▁Spec 100
▁Tal 100
▁RF 100
▁holy 100
最为 100
▁classes 100
Link 100
▁heads 100
▁Sever 100
▁adult 100
▁treated 100
某一 100
RU 100
3.2 100
▁possess 100
▁expenses 100
几天 100
▁冰箱 100
iga 100
ically 100
的观点 100
▁07 100
稍 100
▁除非 100
▁Cart 100
贾 100
и 100
▁Dialogue 100
▁disappear 100
吊 100
▁crowd 100
超过整个英国 100
陷入 100
▁Communist 100
不少 100
伟 100
ees 100
▁Soi 100
▁AT 100
▁exports 100
▁supposed 100
hara 100
lem 100
本人 100
▁Route 100
身子 100
▁divided 100
和他的 100
▁schedule 100
▁enhanced 100
润 100
▁stations 100
▁busy 100
特拉 100
Pl 100
见到 100
▁Yo 100
和免费 100
▁branch 100
▁Environmental 100
▁profits 100
▁FG 100
骗 100
羽 100
▁Bulgaria 100
▁organisation 100
签订 100
▁Branch 100
老婆 100
▁Transfer 100
vet 100
▁屁股 100
▁hill 100
RP 100
双人 100
一段 100
▁3.5 100
观众 100
威尔 100
▁Plant 100
▁Speed 100
▁还有 100
▁Glo 100
▁在这 100
cio 100
▁compare 100
▁functional 100
相关信息 100
▁1.4 100
曼谷 100
修正 100
haus 100
较低 100
bay 100
椅 100
▁吹风机 100
▁Lee 100
一把 100
一片 100
vil 100
俩 100
▁supplement 100
▁四 100
是世界上最大的在线船票 100
▁Though 100
的合作 100
▁Britain 100
▁Performance 100
▁studio 100
▁Child 100
anta 100
你还 100
神秘 100
▁Upper 100
潜 100
▁ROC 100
▁insert 100
Or 100
一大 100
5.0 100
:5 100
ink 100
城市的 100
和社会 100
实在 100
大众 100
▁admin 100
戏 100
▁exhibit 100
幻 100
小厨房 100
在全球 100
ALL 100
的比例 100
國 100
加上 100
健身 100
▁q 100
国家公园 100
剑 100
achieving 100
▁equivalent 100
▁segment 100
查询和预订汽车和乘客船票往返 100
储蓄 100
施工 100
暂停 100
▁margin 100
▁zero 100
公正 100
委托 100
企业的 100
唯一的 100
认定 100
▁GO 100
引入 100
▁engagement 100
▁gear 100
wei 100
编制 100
▁Importer 100
▁firms 100
领先的 100
的眼睛 100
1200 100
▁CEO 100
▁resolve 100
为您的 100
▁Users 100
lian 100
SCO 100
出现的 100
▁° 100
给出 100
邮 100
▁Does 100
▁accommodate 100
360 100
lav 100
还不 100
called 100
搬 100
tis 100
▁discussed 100
东方 100
▁publicly 100
引擎 100
▁160 100
è 100
oper 100
雇员 100
▁Unclassif 100
▁Akamai 100
▁Introduction 100
▁argument 100
▁Easy 100
▁Password 100
债券 100
▁keeping 100
▁crossing 100
▁Self 100
▁Tax 100
▁上的 100
▁missions 100
mac 100
▁Qui 100
▁02 100
一方 100
是他 100
enc 100
脚本 100
▁declared 100
眼前 100
布局 100
SU 100
▁invited 100
进了 100
1) 100
▁restrict 100
cycle 100
的成员 100
灵活性 100
card 100
▁arise 100
▁motion 100
▁1980 100
aga 100
8] 100
:19 100
每月 100
过滤 100
驾 100
ScriptResource 100
埋 100
▁modified 100
扩散 100
▁empty 100
▁Sudan 100
外面 100
脱离 100
答应 100
▁iOS 100
发射 100
模特 100
▁描述 100
▁examples 100
▁Minh 100
AZ 100
▁2.4 100
梦想 100
Kiss 100
前景 100
take 100
sea 100
ITE 100
▁Pol 100
我们必须 100
▁当你 100
▁360 100
▁regulation 100
▁washing 100
wall 100
这就是 100
用户的 100
-9 100
logical 100
文书 100
▁Kam 100
▁crucial 100
机场接送 100
人力资源 100
魅力 100
桑拿 100
的最大 100
uf 100
▁Sta 100
杭州 100
▁hurt 100
▁Reference 100
mega 100
▁Tang 100
着他 100
设施包括 100
ension 100
上午 100
station 100
▁constantly 100
▁sing 100
灵性 100
▁12: 100
准备好 100
明亮 100
▁modules 100
▁Total 100
ND 100
▁AI 100
忘 100
TECH 100
▁Girls 100
▁timeline 100
▁3.0 100
jan 100
▁Build 100
eta 100
▁disciples 100
工会 100
Google 100
说的 100
▁ge 100
kon 100
owned 100
此次 100
你自己 100
▁distributed 100
姓名 100
年至 100
tina 100
▁Core 100
绕 100
分辨率 100
▁Summit 100
▁accomplish 100
▁destruction 100
▁graduate 100
气氛 100
辩论 100
▁Things 100
TMt 100
开启 100
▁lit 100
执法 100
▁largely 100
更高的 100
过滤器 100
和保护 100
在她的 100
born 100
样式 100
▁Sim 100
▁Rental 100
人群 100
但我 100
海军 100
▁Bat 100
erge 100
▁legs 100
通过了 100
▁violations 100
平民 100
王国 100
而设计 100
note 100
sburg 100
海滨 100
▁包括 100
斯托 100
▁generated 100
▁greatly 100
▁Stone 100
免疫 100
习 100
主人 100
▁stores 100
▁flag 100
层次 100
▁signs 100
▁cooling 100
▁Communication 100
cover 100
▁1) 100
背后 100
▁advertise 100
▁detect 100
筒 100
▁vulnerable 100
叹 100
腐蚀 100
裁决 100
籍 100
▁minibar 100
市场上 100
erial 100
▁阅读关于 100
▁coverage 100
gged 100
cking 100
▁亚洲 100
▁请输入 100
管理系统 100
ifying 100
▁magic 100
▁mostly 100
宿 100
缴 100
这件事 100
天主 100
phe 100
昂 100
铸 100
▁centres 100
无论是 100
▁08 100
人和 100
ila 100
高温 100
然而 100
uo 100
花费 100
会计 100
的家庭 100
安全和 100
▁r 100
▁第四 100
浸 100
爷 100
▁premium 100
▁primarily 100
凉 100
▁Clear 100
衡量 100
uz 100
▁900 100
ILL 100
▁latter 100
▁defeat 100
▁Environment 100
优雅 100
▁停车场 100
▁Seating 100
▁Processor 100
下面的 100
提及 100
所做的 100
卡拉 100
left 100
▁designated 100
▁sizes 100
ugh 100
shore 100
▁till 100
▁天气 100
▁drugs 100
服务或 100
则是 100
▁1.0 100
了她 100
▁virus 100
赐给 100
▁formation 100
男女 100
▁Cro 100
fort 100
▁SERVICE 100
pack 100
和使用 100
小心 100
▁Graphic 100
尊 100
▁文件 100
丢 100
住宿加早餐旅馆 100
▁Manchester 100
▁independence 100
▁ourselves 100
▁temporarily 100
舱 100
练习 100
▁cancel 100
▁Person 100
玛丽 100
▁collective 100
的女人 100
▁1994 100
▁massive 100
提取 100
▁interpretation 100
▁Explorer 100
发生在 100
ae 100
▁seasonal 100
▁stream 100
自助 100
hood 100
休息室 100
婚礼 100
rian 100
之地 100
生活在 100
中使用 100
▁立即 100
的意见 100
各自 100
五个 100
▁cor 100
▁Tube 100
gger 100
特别是在 100
▁proof 100
Col 100
▁Materials 100
季度 100
size 100
洪 100
lag 100
拼 100
脂 100
擦 100
▁compatible 100
克罗地亚 100
▁Orlando 100
▁eventually 100
涌 100
炮 100
▁safeguard 100
蛋白 100
tie 100
直播 100
▁Dragon 100
戒指 100
▁contrary 100
大街 100
欧元区 100
▁euro 100
▁jump 100
▁transit 100
▁科 100
Un 100
DER 100
▁Bag 100
一切都 100
ddle 100
加州 100
real 100
更快 100
▁Following 100
北美 100
▁奥 100
▁twin 100
燃 100
次会议 100
有线 100
▁container 100
用作 100
▁buyer 100
lai 100
▁适用于 100
Service 100
▁Audio 100
▁Ang 100
或使用 100
▁Document 100
斯科 100
酒店是 100
▁Solution 100
blo 100
BER 100
斯基 100
熔 100
▁Advisory 100
▁affairs 100
▁college 100
▁impossible 100
▁politics 100
钉 100
对我们 100
迁移 100
▁specify 100
逐步 100
▁ownership 100
▁Edge 100
留言 100
指控 100
▁brands 100
▁saving 100
事宜 100
重要的是 100
elli 100
▁SERVICES 100
▁酒店距离 100
俄国 100
▁hereby 100
贝尔 100
精品 100
地铁 100
演出 100
▁compact 100
▁clothing 100
▁Base 100
产品或服务 100
一体 100
▁Text 100
焊 100
▁bathrooms 100
分区 100
数目 100
INE 100
away 100
一段时间 100
我们可能 100
80% 100
scope 100
▁Cologne 100
▁accelerate 100
▁automated 100
▁automotive 100
▁opposite 100
颈 100
▁thread 100
陈述 100
英雄 100
违法 100
▁DAMAGES 100
▁73 100
:14 100
config 100
▁encouraged 100
▁plug 100
导入 100
美味 100
▁overcome 100
午 100
▁Syn 100
的价值 100
的挑战 100
▁Members 100
老板 100
▁dance 100
也没 100
▁prefer 100
▁Info 100
▁Wo 100
▁enabled 100
▁hate 100
迷你 100
激 100
的脸 100
▁lo 100
比亚 100
▁stayed 100
走进 100
同事 100
▁destroyed 100
▁SC 100
▁desired 100
▁17. 100
▁entirely 100
alia 100
▁electro 100
▁dollars 100
蜜 100
▁Empire 100
▁Official 100
▁Supply 100
▁preserve 100
巡 100
吞 100
妮 100
▁occurred 100
▁Debt 100
▁Norway 100
▁Monday 100
▁Vin 100
Love 100
▁Saudi 100
▁Fan 100
▁optical 100
quen 100
radi 100
是从 100
残疾 100
不良 100
▁AMD 100
▁cd 100
▁Pal 100
▁$5 100
先前 100
▁Charter 100
▁查看所有 100
▁Sciences 100
▁restore 100
bei 100
▁王 100
留在 100
hotels 100
的好 100
▁距离 100
▁serving 100
适用的 100
PST 100
1.1 100
了吧 100
uld 100
指定的 100
沏茶 100
▁worship 100
荣誉 100
围绕 100
于是 100
▁电影 100
mari 100
▁lamp 100
▁prop 100
两次 100
学家 100
▁Cookies 100
管道 100
您访问 100
陶瓷 100
▁1.7 100
bid 100
震 100
寻 100
专业的 100
vit 100
▁mention 100
▁mining 100
德尔 100
子里 100
十八 100
能够在 100
Bedroom 100
才是 100
▁毛巾 100
▁neighbor 100
仔细 100
一旦 100
腹 100
▁Morocco 100
▁Pendant 100
▁consensus 100
▁overlook 100
▁Filter 100
▁overseas 100
▁fault 100
以上的 100
博彩 100
▁tap 100
▁bearing 100
元件 100
▁west 100
▁汽车 100
▁服务器 100
监视 100
打印机 100
采取行动 100
尽量 100
4000 100
▁meat 100
▁Due 100
core 100
face 100
Per 100
▁disabled 100
MAX 100
富有 100
被认为是 100
case 100
实例 100
十七 100
厂家 100
▁KM 100
内心 100
乐园 100
▁一般 100
404 100
▁thereby 100
▁感谢 100
▁confirmed 100
2.5 100
ground 100
▁lips 100
我们认为 100
是非常 100
慢慢 100
▁Item 100
▁Christians 100
展会 100
tail 100
便捷 100
member 100
政府的 100
担 100
泥 100
▁bond 100
勇 100
▁servant 100
显示器 100
▁Dropbox 100
▁Frankfurt 100
▁fantastic 100
洗碗机 100
▁burden 100
▁creative 100
▁invalid 100
▁deemed 100
▁Database 100
▁truck 100
持久 100
▁grace 100
精彩 100
ridge 100
▁Original 100
是如何 100
mov 100
▁Delivery 100
▁snow 100
bell 100
华沙 100
▁Mother 100
▁recorded 100
一块 100
就不 100
soft 100
低价 100
iii 100
▁poster 100
▁seeing 100
▁chip 100
DL 100
似 100
技 100
估 100
召 100
▁attended 100
zza 100
ache 100
柯 100
▁Cathedral 100
▁Citrix 100
▁Fashion 100
▁expensive 100
▁laptop 100
▁Plastic 100
▁Display 100
▁broadcast 100
▁comprise 100
侵权 100
mil 100
的唯一 100
葡萄 100
▁Southern 100
▁1992 100
ego 100
面包 100
▁客房设施 100
▁Visha 100
That 100
否 100
附属 100
▁shot 100
▁reward 100
▁flights 100
graphic 100
可选 100
▁edition 100
一道 100
至今 100
▁2009, 100
ying 100
▁Wan 100
▁Week 100
怎么办 100
▁巴 100
▁suggested 100
open 100
敌人 100
对你 100
▁Kra 100
▁strict 100
gn 100
一同 100
什么时候 100
健 100
▁Bali 100
▁Cel 100
▁suffer 100
▁remind 100
胎 100
proved 100
棋 100
▁Activities 100
▁Construction 100
▁Manufacturing 100
▁celebrate 100
▁certified 100
▁expired 100
▁intervention 100
▁暖气 100
▁tongue 100
▁Module 100
重定向自 100
▁supplier 100
▁fluid 100
周年 100
▁游泳池 100
▁xxx 100
▁regardless 100
heim 100
▁Simple 100
▁俄罗斯联邦 100
▁attitude 100
克服 100
宽敞 100
后者 100
节点 100
并为 100
▁ill 100
我们有 100
▁1.8 100
精度 100
和其它 100
▁Bol 100
▁Hat 100
▁beside 100
事物 100
行动计划 100
▁NE 100
▁IF 100
▁Event 100
缓 100
了他的 100
也要 100
▁04 100
▁700 100
126 100
穴 100
尿 100
▁Emirates 100
抹 100
伪 100
▁wedding 100
继承 100
▁discovered 100
Bar 100
▁平板电视 100
▁terrorist 100
109 100
▁travelling 100
mai 100
:13 100
▁pot 100
轻轻 100
条件下 100
▁tablet 100
但他 100
现代化的 100
uid 100
kov 100
▁recording 100
热带 100
Flow 100
▁reveal 100
gas 100
克里 100
assi 100
cious 100
▁grade 100
海景 100
大楼 100
使您 100
都将 100
现状 100
quo 100
ogen 100
QU 100
tus 100
却是 100
米尔 100
责 100
live 100
一定会 100
▁101 100
▁主要 100
美好的 100
▁SI 100
heat 100
2020 100
izer 100
姊妹 100
砂 100
▁Caribbean 100
▁League 100
▁principal 100
▁robust 100
▁交友和交友业大会 100
监狱 100
▁competent 100
负担 100
▁INCLUDING 100
:17 100
▁lunch 100
退休 100
卓越 100
▁relief 100
一样的 100
形象 100
function 100
▁none 100
▁前 100
▁consultation 100
▁dangerous 100
▁salt 100
历史上 100
大使 100
地说 100
▁represents 100
UT 100
▁Lane 100
议题 100
▁销售 100
最高的 100
专为 100
请在 100
▁humanity 100
▁● 100
▁Feed 100
▁Sir 100
last 100
帝 100
世界各地的 100
rep 100
esh 100
▁深圳市 100
racy 100
▁Passenger 100
秩序 100
▁opposition 100
汁 100
削减 100
▁prize 100
▁southern 100
nam 100
首席 100
▁Ray 100
当地的 100
edge 100
HAR 100
含量 100
起诉 100
Double 100
编号 100
▁pin 100
关联公司 100
gor 100
▁Officer 100
▁sexy 100
负责人 100
▁spare 100
Am 100
齐全 100
1992 100
的利益 100
成为了 100
ister 100
Port 100
▁proposals 100
▁maintained 100
path 100
ppy 100
▁Staff 100
小姐 100
本网站上 100
愉快的 100
德拉 100
▁incident 100
KO 100
▁Cab 100
▁Was 100
▁guard 100
▁holds 100
▁1991 100
1500 100
撞 100
▁Adventure 100
▁deficit 100
後 100
▁最多人数 100
英格兰 100
▁Visual 100
飓风 100
-19 100
平面电视 100
演示 100
▁Northern 100
阁下 100
▁83 100
▁Learning 100
吹风机 100
双边 100
▁cho 100
▁旅游 100
▁ended 100
▁alter 100
▁refugees 100
▁posting 100
▁incorporate 100
对待 100
▁catch 100
尼克 100
日的 100
▁meta 100
▁双 100
您可能 100
▁Explore 100
者和 100
ustainable 100
astic 100
▁familiar 100
▁facts 100
浆 100
▁calendar 100
▁disclosure 100
▁mirror 100
▁plenty 100
慕尼黑 100
▁Stadium 100
危害 100
希尔顿 100
ben 100
▁Automatic 100
优秀的 100
差距 100
▁Kids 100
找不到 100
大首选 100
▁drives 100
▁厘米 100
▁Links 100
John 100
aver 100
▁PayPal 100
▁glad 100
xy 100
的速度 100
岁的 100
▁powers 100
▁Jia 100
药品 100
使命 100
▁willing 100
iao 100
biz 100
hur 100
▁packages 100
▁09 100
干什么 100
▁Less 100
▁colors 100
风格的 100
领导者 100
▁institution 100
eria 100
ente 100
▁Hub 100
万人 100
宜 100
琴 100
酷 100
喀 100
鹰 100
▁Catholic 100
▁Jewish 100
▁Strategy 100
▁completion 100
▁reputation 100
玫瑰 100
▁Samsung 100
浙江 100
臣 100
敲 100
斯里兰卡 100
▁migration 100
▁Janeiro 100
▁Secure 100
▁Friday 100
▁Components 100
礼品 100
▁Mill 100
的数量 100
▁tension 100
我们对 100
ides 100
▁2.3 100
tone 100
▁Six 100
which 100
▁typically 100
指令 100
▁Flight 100
Pre 100
-14 100
▁Webcam 100
▁附近 100
Cover 100
rig 100
alt 100
▁50% 100
▁covering 100
出租车 100
▁Based 100
思维 100
特定的 100
的专业 100
▁Opera 100
▁shell 100
▁danger 100
或通过 100
inger 100
生产的 100
▁diet 100
灌 100
逊 100
花卉 100
ñ 100
艳 100
responsibilities 100
▁Yahweh 100
▁secretariat 100
同性恋 100
▁Judah 100
▁Warsaw 100
▁optimal 100
激励 100
▁Ultra 100
融 100
▁alarm 100
gil 100
▁engineer 100
▁commit 100
source 100
副本 100
▁finding 100
known 100
▁05 100
▁Ant 100
的代表 100
▁strip 100
或其它 100
git 100
▁Ms 100
Free 100
的爱 100
▁未经本网站 100
▁specifications 100
并未 100
览 100
那时 100
▁东 100
▁Jean 100
▁水 100
专属 100
▁favorites 100
数据的 100
聊 100
▁perfectly 100
凝 100
惊讶 100
旺 100
▁Integrated 100
▁Microwave 100
▁attribute 100
▁寻找更多关于 100
▁Cambodia 100
傻 100
宴 100
▁universe 100
▁urgent 100
周边 100
芯片 100
▁submission 100
▁cried 100
把她 100
答复 100
thy 100
▁slightly 100
▁reader 100
1.5 100
elo 100
▁Tree 100
联合国系统 100
愉快 100
独特 100
主要是 100
▁respectively 100
器件 100
学者 100
▁Deal 100
设备上 100
字母 100
/12 100
▁Youth 100
raf 100
▁integrate 100
求你 100
▁商店 100
▁kiss 100
▁附近的酒店 100
▁GHz 100
1982 100
高清 100
你能 100
并与 100
▁precise 100
之内 100
主页 100
生活的 100
weapon 100
映 100
是很 100
多么 100
汤 100
衰 100
Cap 100
谨 100
▁manifest 100
▁peacekeeping 100
▁Picture 100
仓库 100
▁Tableau 100
▁cease 100
▁diverse 100
▁Delhi 100
ICA 100
切换 100
网站或 100
▁align 100
data 100
ago 100
爆 100
lev 100
▁89 100
▁HE 100
▁(5 100
that 100
▁Superb 100
高于 100
▁79 100
罪行 100
ré 100
bound 100
▁angle 100
▁exists 100
会议中心 100
正如 100
dev 100
▁marked 100
明星 100
wear 100
便是 100
倾 100
▁marks 100
round 100
锦 100
▁administrator 100
▁occupation 100
▁victory 100
▁stories 100
萧 100
▁Urban 100
燃烧 100
▁multilateral 100
▁capability 100
驱 100
▁indicates 100
室外 100
▁Active 100
dress 100
NG 100
国际法 100
和发展 100
▁decade 100
▁Designer 100
system 100
▁guaranteed 100
Hot 100
▁Diamond 100
已有 100
▁Joint 100
很大的 100
在您的 100
▁Med 100
▁Sexy 100
▁symptoms 100
▁actively 100
出色的 100
▁doors 100
一款 100
▁organize 100
又是 100
▁李 100
▁assign 100
dorf 100
Book 100
3.3 100
▁Ask 100
▁97 100
纵 100
肩 100
逼 100
à 100
▁Oracle 100
▁yield 100
嗯 100
▁flood 100
棕 100
愤怒 100
追踪 100
▁strike 100
▁Motorola 100
替换 100
的过程 100
▁Daniel 100
▁stakeholders 100
因为我 100
▁买到 100
例外 100
▁newly 100
移动设备 100
储备 100
镜头 100
▁blow 100
▁Lang 100
▁conflicts 100
this 100
nik 100
ech 100
▁Provide 100
开心 100
wang 100
.[1 100
▁移动 100
不太 100
▁Dun 100
▁全 100
▁Mari 100
电子商务 100
年底 100
Su 100
日第 100
from 100
代理商 100
哪个 100
eh 100
▁Calle 100
电信 100
花店 100
▁Side 100
巴尔 100
芯 100
▁seed 100
社交 100
▁declaration 100
▁sacrifice 100
▁suspension 100
芝加哥 100
▁married 100
适销性 100
郁 100
不能也不会对因您未能遵守本款 100
▁Hangzhou 100
▁taught 100
▁Trademark 100
▁Justice 100
▁fitted 100
坚定 100
赖 100
数码 100
▁Chiang 100
▁Oak 100
不行 100
高尔夫 100
介绍了 100
▁Outlook 100
▁Jack 100
▁92 100
berry 100
▁liver 100
▁fighting 100
不必 100
▁Matt 100
DD 100
national 100
▁YouTube 100
roid 100
etch 100
▁personalize 100
骑 100
ania 100
-18 100
▁安全 100
和个人 100
▁gun 100
▁represented 100
▁missing 100
▁(4 100
▁tele 100
tti 100
▁faced 100
650 100
color 100
▁Automation 100
▁yellow 100
规定而发生的任何损失 100
特朗普 100
▁Siliconix 100
扩张 100
纪录 100
▁Terrace 100
▁Ter 100
建于 100
评级 100
▁attractive 100
着我 100
▁frequently 100
加载 100
主流 100
的增长 100
产品和 100
▁calm 100
▁choices 100
rent 100
▁Track 100
酷刑 100
他也 100
▁Lisboa 100
▁binding 100
间接 100
超出 100
你也 100
▁informal 100
也将 100
真主 100
TN 100
▁浴室 100
彩色 100
源代码 100
▁Forex 100
辩 100
PF 100
▁还 100
▁Solar 100
新技术 100
▁Mur 100
疲 100
▁Logo 100
印度尼西亚 100
▁Istanbul 100
▁Millennium 100
▁Wardrobe 100
▁expenditure 100
▁legitimate 100
薪 100
百分比 100
慕 100
麻烦 100
▁Munich 100
▁Brown 100
变革 100
▁worse 100
强迫 100
温泉 100
▁Trading 100
▁Pur 100
订立 100
▁peak 100
jun 100
复印 100
足以 100
移除 100
▁美 100
Image 100
住所 100
▁Philip 100
可以从 100
▁Lima 100
dependent 100
install 100
▁Mass 100
-17 100
控制系统 100
LF 100
极其 100
脏 100
▁indicators 100
▁tracking 100
▁Aires 100
光纤 100
座位 100
▁habit 100
在这些 100
聚集 100
▁exact 100
全体 100
跌 100
▁islands 100
mond 100
楚 100
valentine 100
▁Study 100
▁在线安全请使用左侧的实时 100
或损毁 100
琳 100
蒸汽 100
▁arbitration 100
▁gym 100
▁servants 100
一代 100
天然气 100
系统中 100
▁Wild 100
服务条款 100
强制 100
目的是 100
▁hell 100
▁finger 100
五年 100
▁Ap 100
BE 100
▁printer 100
▁coll 100
▁adults 100
qual 100
gon 100
PORT 100
▁runs 100
▁1993 100
往返 100
促 100
▁LC 100
▁高级 100
基督的 100
▁upper 100
看到了 100
▁标准 100
和我 100
▁adding 100
抵 100
bang 100
▁22. 100
鼻 100
▁elevator 100
▁exciting 100
▁replied 100
▁scholar 100
辨 100
桶 100
经济发展 100
▁soldiers 100
堪 100
▁blind 100
明示或暗示的保证 100
颗粒 100
▁Record 100
并通过 100
pdf 100
▁preced 100
▁strongly 100
愿望 100
遗传 100
▁Demo 100
臂 100
▁engineers 100
尽快 100
▁Yan 100
:24 100
对她 100
的空间 100
冬季 100
▁fishing 100
onic 100
corp 100
east 100
稳定的 100
耐用 100
chu 100
马里 100
所说的 100
| 100
Check 100
grade 100
生产率 100
MG 100
▁teachers 100
▁developers 100
改造 100
▁豪华 100
斯克 100
悦 100
你想要 100
舞蹈 100
▁Professor 100
▁concentration 100
霸 100
盲 100
的承诺 100
▁Turn 100
▁western 100
▁grew 100
▁favourite 100
oriented 100
▁streets 100
桌子 100
垂直 100
象征 100
stein 100
▁Gate 100
迷人的 100
独家 100
的姓名 100
tile 100
organ 100
▁governed 100
▁dealing 100
▁30% 100
▁Apart 100
▁constitutes 100
的过程中 100
TY 100
32/ 100
屋顶 100
▁pu 100
▁Hills 100
▁laugh 100
▁10% 100
▁movies 100
▁replaced 100
rah 100
我们已经 100
▁dear 100
提供了一个 100
请求的 100
疗 100
▁Sl 100
uma 100
已经被 100
无缝 100
美国人 100
甚 100
前台 100
露出 100
劲 100
竟 100
炼 100
的资源 100
乙 100
▁imagine 100
▁receipt 100
▁simulation 100
卓越的 100
favicon 100
▁Insurance 100
爱丁堡 100
▁wallpaper 100
威廉 100
▁unemployment 100
抗议 100
▁railway 100
ough 100
显得 100
▁tourism 100
▁Hal 100
▁refine 100
TED 100
▁ordered 100
跨国 100
接入 100
仪式 100
▁wooden 100
▁amounts 100
的商业 100
▁pace 100
▁threats 100
文明 100
101 100
▁希腊 100
的做法 100
的最高 100
active 100
这也是 100
▁81 100
▁rub 100
▁repeat 100
美容 100
HK 100
边境 100
提供给 100
▁observed 100
▁residents 100
udi 100
释 100
走出 100
渡 100
捕 100
烤 100
股份 100
珍 100
丧 100
▁involving 100
▁complement 100
▁diameter 100
锐 100
扮演 100
引起的 100
高尔夫球场 100
及其子公司 100
▁flesh 100
▁northern 100
廉价 100
卡车 100
演员 100
化学品 100
初始 100
wai 100
▁operated 100
▁Albert 100
夏天 100
TB 100
停留 100
(2007) 100
服务提供商 100
PLC 100
▁查询 100
▁selling 100
road 100
▁Lady 100
quest 100
▁refers 100
如何使用 100
▁艾 100
ploy 100
▁passengers 100
▁Ky 100
理想 100
templates 100
足够的 100
机票 100
企业有限公司 100
standing 100
可以看到 100
个人数据 100
▁1970 100
大厅 100
▁Bou 100
MIN 100
[2 100
rina 100
▁Arabia 100
烈 100
Serv 100
/8 100
stat 100
在欧洲 100
vision 100
▁Serbia 100
▁interpret 100
bur 100
▁Gla 100
trans 100
函 100
isk 100
ube 100
▁pour 100
▁如果我们 100
不完整或不能反映当前情况 100
肖 100
▁Brussels 100
▁Dictionary 100
▁Meanwhile 100
▁Would 100
▁Telephone 100
合理的 100
▁expectations 100
研 100
▁Moon 100
▁mountains 100
▁商业 100
▁Final 100
分裂 100
▁Among 100
容纳 100
▁suddenly 100
ios 100
▁Given 100
▁Floor 100
▁offerings 100
▁卫生间 100
▁aspect 100
▁cart 100
▁伊 100
▁94 100
▁targets 100
机床 100
▁fu 100
▁Congo 100
NZ 100
▁whi 100
与他 100
AH 100
▁通常 100
很多人 100
结束后 100
▁XP 100
hard 100
▁Kr 100
hof 100
exe 100
:12 100
nav 100
piece 100
tovetop 100
▁processor 100
我们可能会 100
ASS 100
仪表 100
苏州 100
医药 100
遍 100
▁ease 100
摄 100
扭 100
唇 100
佐 100
▁fifty 100
舔 100
回复了这篇点评 100
踏 100
▁Dollar 100
▁decorated 100
共识 100
▁Drink 100
▁vertical 100
pher 100
▁managing 100
HIJ 100
城镇 100
旅游景点 100
完成了 100
▁egg 100
▁Mol 100
cell 100
tree 100
▁Ur 100
vine 100
也很 100
▁electronics 100
只需要 100
▁大多数 100
新兴 100
▁pointed 100
atic 100
以色列人 100
葡萄牙 100
分散 100
abo 100
▁bouquets 100
▁plane 100
这是一个 100
透过 100
lg 100
▁Crime 100
▁absolute 100
▁demo 100
物料 100
事实上 100
▁历史 100
在你的 100
议员 100
▁Available 100
▁Innovation 100
▁Journal 100
钥匙 100
锻炼 100
▁transparent 100
▁cream 100
有利于 100
▁NAS 100
温暖 100
▁stands 100
▁plain 100
风暴 100
创业 100
▁mineral 100
代价 100
▁neck 100
▁分钟车程 100
[2] 100
▁revised 100
gging 100
ador 100
(2006) 100
洗衣 100
▁Driver 100
fl 100
的游戏 100
所作的 100
lution 100
▁Eli 100
生日 100
▁beaches 100
▁Comment 100
吩咐 100
▁2011, 100
▁推荐 100
▁Follow 100
▁sessions 100
▁seller 100
fire 100
挤 100
▁Nik 100
会导致 100
4.1 100
TU 100
lice 100
极为 100
▁Wil 100
网站首页 100
马克 100
▁crop 100
▁noticed 100
▁Homes 100
▁originally 100
2] 100
你有 100
成为一个 100
▁ultimate 100
▁bid 100
精品酒店 100
▁Commissioner 100
它可以 100
Time 100
▁在这个 100
胆 100
邮箱 100
▁Secret 100
昆 100
原因是 100
▁Buenos 100
▁Generator 100
▁album 100
膏 100
涅 100
祈祷 100
▁Jacob 100
▁THIS 100
▁injury 100
指挥 100
▁steam 100
晚餐 100
人民币 100
▁trafficking 100
那就是 100
▁ABCD 100
投注 100
▁谁 100
预言 100
▁Guard 100
成型 100
机遇 100
ault 100
▁appointment 100
▁18. 100
节日 100
▁Body 100
pie 100
lac 100
之家 100
▁designer 100
在第 100
了很多 100
要素 100
布拉 100
决心 100
对外 100
▁webcam 100
▁按照 100
▁letters 100
far 100
check 100
▁曼谷 100
▁sending 100
▁shoulder 100
包括在 100
Spa 100
声称 100
anne 100
符号 100
▁自动 100
的第一个 100
Chi 100
▁bids 100
管理人员 100
aci 100
祝福 100
▁Gro 100
There 100
yp 100
否认 100
▁Lead 100
使用或 100
▁wet 100
烤面包机 100
潘 100
▁Arrival 100
罐 100
▁screw 100
竭 100
▁Lounge 100
肌肉 100
裁军 100
▁Sav 100
地理位置 100
▁winner 100
教导 100
▁BU 100
▁stamp 100
▁Money 100
精选 100
▁featur 100
次数 100
拨 100
▁defect 100
▁Rica 100
势力 100
▁strange 100
线性 100
▁Editor 100
emi 100
hill 100
的交易 100
爱情 100
套房酒店 100
▁developments 100
rating 100
▁SW 100
sized 100
dot 100
是通过 100
▁troops 100
SY 100
▁shares 100
▁sq 100
▁Tuber 100
Shanghai 100
▁Roma 100
无线网络 100
▁Pot 100
zing 100
要在 100
单个 100
▁抱歉 100
▁韩国 100
▁measured 100
制成 100
卫生间 100
▁extract 100
绘 100
得出 100
▁critic 100
赫尔辛基 100
▁distinguish 100
▁diabetes 100
▁中国在中亚 100
▁快递鲜花至 100
▁logistics 100
▁merely 100
▁Certification 100
平板电脑 100
▁torture 100
▁Chen 100
摆脱 100
渴望 100
乳房 100
▁dishes 100
▁WILL 100
的具体 100
发电 100
原料 100
▁commonly 100
法律规定 100
制造业 100
对该 100
Fo 100
DN 100
▁答 100
十五 100
shirt 100
主导 100
权威 100
▁revealed 100
跟着 100
反射 100
子女 100
设施和 100
发现了 100
now 100
▁Var 100
第二天 100
TEC 100
得多 100
effective 100
在未来 100
▁homes 100
非常好 100
▁Magic 100
公寓式酒店 100
大概 100
▁watching 100
秋 100
▁Rev 100
eous 100
弹性 100
自治 100
▁Climate 100
▁HTTP 100
▁reply 100
▁Sensor 100
制裁 100
▁Planning 100
▁contractors 100
房价 100
远离 100
选民 100
的作品 100
▁partition 100
每个人都 100
看了 100
▁Block 100
衍生 100
景色 100
1978 100
▁Polish 100
bai 100
▁carrying 100
▁filters 100
ATA 100
年后 100
主义者 100
▁Centro 100
▁针对 100
Point 100
▁optimize 100
▁teacher 100
组成的 100
拟 100
gur 100
政策和 100
eau 100
▁Hin 100
▁careful 100
ante 100
── 100
▁Lebanon 100
电热水壶 100
▁Heaven 100
1313- 100
活跃 100
▁Beauty 100
直径 100
▁gradually 100
▁forgive 100
▁Champ 100
Packard 100
▁Harbour 100
▁jade 100
什么呢 100
▁Season 100
charge 100
▁amendment 100
bling 100
Fe 100
偏好 100
fit 100
您已 100
日历 100
这份 100
▁Points 100
ANCE 100
asi 100
▁loan 100
信息和 100
▁UNI 100
大脑 100
▁位置 100
MER 100
或您 100
很高 100
这意味着 100
原子 100
的事实 100
▁entering 100
ope 100
▁thoughts 100
▁淋浴 100
tum 100
▁在这里 100
不但 100
▁forever 100
以往 100
裁 100
建筑物 100
IAN 100
虽 100
▁Assistant 100
▁compound 100
▁licensors 100
镀 100
辐射 100
▁Besides 100
衣橱 100
赤字 100
▁Short 100
▁Command 100
▁Treatment 100
插件 100
▁festival 100
lish 100
环球 100
劳动力 100
▁Hard 100
▁Bush 100
▁fly 100
发达国家 100
gui 100
搜索引擎 100
▁Revolution 100
档 100
▁computers 100
NN 100
▁Anna 100
提供一个 100
▁partial 100
nova 100
▁Partner 100
▁只要 100
▁Clo 100
▁geo 100
的人们 100
▁recommendation 100
都柏林 100
跟我 100
▁Kris 100
▁Chu 100
▁今年 100
rip 100
2,000 100
▁depth 100
▁14: 100
实现了 100
石头 100
gene 100
▁书桌 100
▁ka 100
上去 100
1967 100
首选 100
我们要 100
以及带 100
▁凭借 100
交给 100
NP 100
愈 100
醉 100
娘 100
磋商 100
▁ordinary 100
▁每日客房清洁服务 100
塞尔维亚 100
崩溃 100
逮捕 100
布鲁塞尔 100
很有 100
▁pilot 100
是一款 100
入侵 100
那你 100
时刻表 100
▁oven 100
这不是 100
调用 100
雇用 100
年间 100
template 100
商城 100
▁tested 100
▁衣柜 100
chang 100
也就 100
的各项 100
▁至于 100
嘴里 100
提起 100
有限的 100
ADE 100
漂亮 100
▁Return 100
是您 100
▁suffered 100
常用 100
▁页面 100
▁magazine 100
上主 100
郎 100
hotel 100
遗产 100
▁Improve 100
rov 100
经济学 100
▁Bull 100
这也 100
▁banking 100
画面 100
▁lens 100
▁journal 100
Hewlett 100
▁Budget 100
▁analytics 100
▁lobby 100
▁philosophy 100
▁tungsten 100
矛盾 100
▁preferences 100
启示 100
▁knee 100
▁signature 100
邮票 100
▁discontinue 100
你应该 100
▁tons 100
▁curve 100
微笑 100
▁Vision 100
布什 100
▁Peru 100
▁smoking 100
被迫 100
WTO 100
集合 100
以此 100
hem 100
心情 100
委员 100
的原则 100
(2005) 100
ashx 100
▁去 100
地震 100
itu 100
电邮 100
报告中 100
▁gathered 100
当选 100
非正式 100
▁employee 100
▁establishing 100
女子 100
HF 100
ICP 100
最佳的 100
▁resulted 100
jing 100
▁gifts 100
▁lessons 100
▁moon 100
斯堡 100
干洗 100
吸引力 100
她就 100
▁到达 100
▁保险箱 100
有没有 100
▁GA 100
役 100
柏 100
疼 100
也可能 100
▁Analytics 100
▁Countries 100
▁Military 100
▁equity 100
▁exposure 100
▁mathematics 100
▁perpetual 100
▁survive 100
柬埔寨 100
睡眠 100
在这种情况下 100
▁Hamburg 100
▁subscription 100
宁静 100
mouth 100
OB 100
▁Jing 100
防护 100
紧紧 100
告诉我们 100
▁sword 100
幸运 100
住宿地点 100
▁最近 100
而已 100
VS 100
▁Phil 100
的道路 100
train 100
椅子 100
有害 100
RFID 100
▁Cost 100
▁syn 100
▁concluded 100
复合 100
没有什么 100
▁Mah 100
▁Muslims 100
能力建设 100
MU 100
issa 100
▁invite 100
近期 100
▁Strip 100
小学 100
完整性 100
▁Band 100
给他们 100
联合会 100
VM 100
舒 100
多功能 100
▁writer 100
对他说 100
提供带 100
wu 100
1990 100
生命的 100
尺 100
貌 100
蒸 100
▁倘若 100
赠 100
▁Studies 100
▁circle 100
▁compromise 100
▁enemies 100
▁Translation 100
▁producing 100
▁pursuan 100
仙 100
廷 100
▁injection 100
▁Albania 100
积累 100
突破 100
Cor 100
减轻 100
农民 100
组成部分 100
▁Patent 100
agne 100
应用的 100
▁Has 100
普拉 100
▁Scott 100
▁fence 100
千万 100
部门的 100
名义 100
▁drawn 100
▁continuously 100
的优势 100
建立一个 100
洗衣服务 100
bao 100
1945 100
Tech 100
私人浴室 100
▁Zo 100
就有 100
示例 100
▁也许 100
4.2 100
▁min 100
▁owned 100
▁Sco 100
耀 100
游泳 100
喂 100
plasma 100
十字架 100
▁Houston 100
▁caught 100
书籍 100
using 100
毛巾 100
▁Boston 100
▁clicking 100
放心 100
▁Clean 100
预先 100
▁meter 100
总额 100
公共区域 100
map 100
1995 100
▁Fin 100
tta 100
腕表 100
▁acquired 100
烧烤 100
Michel 100
vie 100
▁Abu 100
▁formats 100
HAN 100
▁HU 100
▁hide 100
选定 100
不仅仅是 100
▁demonstrate 100
截至 100
和文化 100
▁Sant 100
wich 100
▁parallel 100
umber 100
gno 100
峰会 100
gio 100
友好的 100
的态度 100
BP 100
▁借助 100
悟 100
а 100
白素贞 100
盆 100
▁Unfortunately 100
▁transparency 100
维多利亚 100
塞浦路斯 100
world 100
▁guess 100
脆弱 100
▁Desktop 100
▁yes 100
有线频道 100
竞赛 100
▁Brokerage 100
▁rubber 100
▁← 100
延伸 100
axis 100
▁concepts 100
为期 100
并同意 100
活力 100
skaya 100
▁Zhu 100
wick 100
播放机 100
UK 100
▁Daily 100
▁关于我们 100
▁Marine 100
fei 100
▁putting 100
顺序 100
拍卖 100
▁drivers 100
什么事 100
在线预订 100
付费 100
rp 100
▁damaged 100
互相 100
▁outline 100
观念 100
应在 100
说了 100
▁sounds 100
的成功 100
企 100
▁Blu 100
▁北 100
▁Xen 100
▁IC 100
▁Sar 100
▁Wish 100
▁110 100
官方网站 100
▁buttons 100
▁我要 100
HT 100
cams 100
master 100
对所有 100
▁相关 100
格拉 100
lap 100
為 100
或以其他方式 100
accompanied 100
▁Terminal 100
▁calculation 100
▁genuine 100
▁harvest 100
弟兄 100
▁uniform 100
▁Complete 100
▁进口商 100
▁metro 100
▁bonus 100
placing 100
认知 100
抑制 100
▁Detailed 100
▁unwind 100
助理 100
Content 100
▁belt 100
金融危机 100
jet 100
存款 100
清理 100
情报 100
▁furnished 100
应用于 100
遭 100
谈论 100
经文 100
▁是的 100
mili 100
每个人 100
上诉 100
▁Testing 100
holder 100
▁户外 100
手里 100
▁maker 100
▁dimensions 100
十四 100
life 100
跟随 100
lv 100
血液 100
▁workshop 100
FerryTO 100
早上 100
▁Mode 100
亲自 100
TAL 100
rik 100
▁Mail 100
IST 100
▁Import 100
xia 100
一眼 100
梯 100
UA 100
▁adventure 100
▁corporation 100
▁vulnerability 100
▁wisdom 100
娇 100
▁basket 100
娃 100
▁investigate 100
辉 100
▁Trojan 100
交互 100
▁annex 100
▁exposed 100
▁Discount 100
艾滋病毒 100
毫米 100
立场 100
▁Perfect 100
▁duties 100
建模 100
▁Future 100
抽象 100
筛选 100
之日起 100
▁pixels 100
▁tribe 100
▁detention 100
是否有 100
深圳市 100
▁percentage 100
group 100
▁commitments 100
bble 100
1994 100
相当于 100
员额 100
▁verify 100
▁Desk 100
我们的客户 100
隔音 100
▁organic 100
为自己 100
▁welcomed 100
聚会 100
hao 100
ij 100
▁advis 100
rot 100
▁Talk 100
aught 100
dicate 100
▁以色列 100
:2.0.50727. 100
已经在 100
这款 100
敢 100
▁cam 100
徽 100
∶ 100
牵 100
▁ceramic 100
▁hydraulic 100
▁Certificate 100
▁Dutch 100
▁Zurich 100
▁headquarters 100
电烧水壶 100
▁aluminum 100
▁surcharge 100
铁艺大门 100
敦促 100
▁Unicode 100
▁narrow 100
▁void 100
▁filling 100
▁conform 100
▁Police 100
GRA 100
▁FAQ 100
提案 100
▁Operations 100
▁Cer 100
turn 100
South 100
的概念 100
▁ultimately 100
III 100
恶化 100
▁gay 100
▁processed 100
不见 100
▁Ak 100
145 100
孩子们 100
了许多 100
▁delight 100
跟你 100
电器 100
▁assigned 100
▁教育 100
对面 100
▁CT 100
BM 100
我都 100
将军 100
lah 100
▁Lim 100
本报告 100
▁8.0 100
册 100
目前的 100
▁1.9 100
makers 100
判决 100
版本的 100
东部 100
偿 100
可使用 100
ease 100
蜂 100
夸 100
▁anniversary 100
▁satisfied 100
▁书报摊 100
Matthew 100
Photo 100
▁density 100
▁protein 100
▁climb 100
延迟 100
聪明 100
鼠标 100
▁Kitchenware 100
▁Chamber 100
歌曲 100
项目的评论 100
rec 100
▁采用 100
▁Bear 100
empt 100
▁pumps 100
▁drill 100
▁leak 100
jack 100
▁replacement 100
▁红 100
”) 100
体育场 100
ime 100
度过 100
ett 100
并以 100
▁Electrical 100
▁Engine 100
▁aims 100
section 100
产生了 100
▁1960 100
▁3.1 100
填 100
/6 100
可以用 100
远远 100
▁yuan 100
合规 100
139 100
▁semi 100
▁bedrooms 100
▁exceptional 100
▁你要 100
▁万 100
的热门 100
仓 100
肺 100
苏黎世 100
▁Covenant 100
▁Salvador 100
▁Horizon 100
▁absence 100
▁accumulat 100
疯狂 100
▁invention 100
▁officer 100
▁customs 100
约旦 100
村庄 100
在任何情况下 100
缩短 100
▁desert 100
▁UNDP 100
水疗中心 100
才会 100
▁priorities 100
宝贝 100
▁voters 100
读取 100
Min 100
开支 100
依法 100
世界各地 100
pra 100
有趣 100
stream 100
全景 100
-30 100
108 100
▁Tha 100
》( 100
球员 100
connect 100
▁sick 100
成立于 100
▁asking 100
▁加入 100
dio 100
的实际 100
其中一个 100
ographic 100
▁政府 100
▁Chain 100
的私人浴室 100
iden 100
对抗 100
▁Awards 100
▁Mess 100
话题 100
▁lend 100
套件 100
vari 100
▁出发 100
▁设计 100
▁Aero 100
easing 100
▁networking 100
批发 100
▁Ever 100
帮助我们 100
ffer 100
缘 100
▁难道 100
▁suites 100
海上 100
这两 100
chat 100
渔 100
更是 100
漆 100
▁ironing 100
熊 100
保加利亚 100
▁agriculture 100
▁salvation 100
▁satisfaction 100
▁sequence 100
滋 100
欺诈 100
▁pricing 100
斐 100
▁欢迎来到 100
民间社会 100
从来没有 100
颁发 100
▁Battle 100
周围的 100
浪费 100
▁unknown 100
▁vibration 100
雇主 100
他们就 100
正义 100
民主党 100
AX 100
tana 100
海关 100
切实 100
▁同 100
教练 100
水果 100
瓦尔 100
lick 100
▁hero 100
和国家 100
▁Five 100
▁张 100
此处 100
▁resist 100
高效的 100
天空 100
多年来 100
▁scientists 100
这就 100
stal 100
LR 100
TW 100
▁87 100
▁thermo 100
230 100
想起 100
▁contra 100
秘书 100
HL 100
法律法规 100
▁Within 100
just 100
永恒 100
▁boot 100
Mon 100
ously 100
坛 100
牺牲 100
▁comparison 100
▁explanation 100
维生素 100
▁muscle 100
宗旨 100
▁gentle 100
▁Switch 100
▁causing 100
生活中 100
恩典 100
▁Meteo 100
酒店坐落在 100
▁Xbox 100
的独立 100
六十 100
土著 100
天主教 100
MR 100
生产力 100
你所 100
ception 100
write 100
GEN 100
▁Zi 100
▁normally 100
本隐私政策 100
▁` 100
去世 100
▁Dor 100
▁SAS 100
Cal 100
南方 100
▁expanded 100
ICS 100
▁Ended 100
LES 100
tea 100
可用的 100
-13 100
显示屏 100
品种 100
TRA 100
的效果 100
kl 100
▁printed 100
时间内 100
▁tag 100
▁disputes 100
▁娱乐 100
俗 100
公主 100
▁Beautiful 100
▁Century 100
▁Paradise 100
▁Satellite 100
▁Supreme 100
▁judicial 100
枚 100
虐待 100
▁Alexander 100
邪恶 100
做好 100
缺少 100
▁Tips 100
争取 100
▁Ly 100
不应该 100
展现 100
审核 100
白俄罗斯 100
在同一 100
▁Realty 100
▁20% 100
MW 100
我不知道 100
主意 100
外国人 100
所需要的 100
祂的 100
的成本 100
▁Heat 100
hop 100
▁Roll 100
生产商 100
▁poll 100
▁suck 100
▁developer 100
轻松地 100
▁conferences 100
1996 100
mut 100
几何 100
赢得了 100
签名 100
提高了 100
▁stages 100
▁examine 100
fle 100
也不是 100
▁1989 100
地处 100
免费停车场 100
erie 100
是我的 100
▁艺术 100
主持 100
▁Thi 100
▁happening 100
▁找到 100
dine 100
▁Install 100
▁accessing 100
更有 100
滤 100
ager 100
阅 100
这么多 100
▁Transport 100
▁delivering 100
▁raising 100
▁photograph 100
拉斯维加斯 100
▁counsel 100
▁luxurious 100
210 100
屈 100
▁disrupt 100
▁Guinea 100
▁dropped 100
遍布 100
ith 100
▁wouldn 100
业绩 100
▁XML 100
scription 100
▁Notice 100
赛车 100
创建一个 100
的压力 100
为客户提供 100
▁Met 100
40% 100
为他 100
tools 100
高压 100
在英国 100
.... 100
1.2 100
世界上最 100
▁Muslim 100
▁winning 100
十六 100
奖金 100
tica 100
侵 100
▁crystal 100
▁brothers 100
▁HK 100
▁considering 100
LM 100
▁conventional 100
ashi 100
和解 100
达到了 100
1976 100
▁undertake 100
flo 100
提交人 100
奋 100
dium 100
囊 100
雾 100
赞助 100
寺 100
喘 100
▁Departure 100
▁Magazine 100
▁Navigation 100
▁penalty 100
▁professor 100
▁sanctions 100
▁TERMS 100
猪 100
激烈 100
▁Screen 100
贩运 100
▁split 100
▁Listings 100
的地图和 100
▁Controller 100
充足 100
▁marine 100
▁说着 100
味道 100
▁undertaken 100
▁Communications 100
▁Wake 100
感觉到 100
严格的 100
我们就 100
穿着 100
shu 100
样本 100
之上 100
▁CN 100
lent 100
用力 100
联系我们 100
本文 100
▁driven 100
早就 100
▁4.0 100
刀具 100
个体 100
涉 100
▁TOS 100
▁evolution 100
国际组织 100
安装在 100
▁Mix 100
价值观 100
nut 100
pub 100
Reg 100
会上 100
的范围 100
mper 100
拆 100
使用寿命 100
▁米 100
▁Deposit 100
标准化 100
各国政府 100
阶 100
必需 100
▁Protect 100
摊 100
放松身心 100
▁Belarus 100
▁Elizabeth 100
▁Method 100
▁supplied 100
▁volunteer 100
墓 100
胡志明市 100
▁incentive 100
▁saith 100
▁xvideos 100
一组 100
▁Disney 100
有多少 100
▁praise 100
保养 100
键盘 100
既然 100
电话号码 100
▁indirect 100
的例子 100
▁Girl 100
Universit 100
▁Package 100
▁attorneys 100
▁SIM 100
sexy 100
窗户 100
▁Flor 100
健康的 100
▁calculated 100
ema 100
金钱 100
1975 100
▁targeted 100
kha 100
洛杉矶 100
firm 100
mine 100
▁名 100
对这些 100
▁我们会 100
美女 100
▁~ 100
▁claimed 100
每间客房 100
材质 100
▁180 100
常见 100
APP 100
校准 100
商务中心 100
仰 100
888 100
▁Taxi 100
命运 100
寿 100
亚伯拉罕 100
▁Ambassador 100
▁CONTACT 100
▁Tribunal 100
▁discipline 100
▁leverage 100
巧克力 100
▁Football 100
▁lecture 100
拓展 100
▁chamber 100
▁royalty 100
▁confidentiality 100
▁improvements 100
▁Kai 100
▁prime 100
得救 100
使用者 100
和政治 100
▁phones 100
机械有限公司 100
设有一个 100
▁achievements 100
▁directory 100
和谐 100
‘ 100
Shenzhen 100
纳米 100
会出现 100
KE 100
rise 100
设备有限公司 100
GU 100
▁这家酒店 100
▁Jose 100
漫 100
所示 100
德里 100
▁Hire 100
仅仅是 100
▁lovely 100
特别报告员 100
使他 100
▁municipal 100
物种 100
▁consultations 100
躺 100
骂 100
煤 100
о 100
▁Abraham 100
▁Criminal 100
亚麻织品 100
栋 100
▁eternal 100
▁closing 100
▁murder 100
硫 100
绳 100
请选择您要 100
支撑 100
担忧 100
阶级 100
融入 100
▁Banner 100
死刑 100
俄语 100
▁genetic 100
就可以查看 100
▁Unless 100
仍然是 100
▁Fla 100
15-25 100
合格 100
轮渡线 100
▁Ski 100
▁artists 100
排名第 100
bird 100
▁grown 100
▁GPS 100
▁shadow 100
uv 100
场地 100
break 100
等方面 100
CON 100
ANA 100
市区 100
ures 100
使你 100
的父亲 100
▁Studios 100
没想到 100
▁洛杉矶 100
生长 100
▁civilian 100
授 100
▁lots 100
▁accounting 100
▁candidates 100
java 100
想知道 100
作家 100
▁contracts 100
▁relaxing 100
▁temperatures 100
rong 100
抑 100
紫 100
▁thick 100
穆罕默德 100
▁covenant 100
▁surrounded 100
▁您现在的位置 100
摄像机 100
▁Guangdong 100
慈善 100
邮政 100
捐款 100
庭院 100
份额 100
滥用 100
155 100
的人口 100
保守 100
▁Crown 100
驱动程序 100
ander 100
▁Death 100
▁attached 100
▁absolutely 100
lp 100
这个地方 100
中学 100
▁Richard 100
Up 100
▁浏览 100
这话 100
大门 100
PAR 100
TL 100
数据保护 100
RES 100
admin 100
▁flu 100
Linux 100
管辖权 100
管理局 100
walk 100
▁ban 100
leg 100
配置文件 100
▁她说 100
▁Reserved 100
Gen 100
佛教 100
▁Channel 100
的个人信息 100
除外 100
▁keys 100
NSR 100
的角色 100
的总 100
osa 100
▁瑞士 100
▁managers 100
bie 100
gia 100
▁Chile 100
垂 100
specific 100
的权力 100
援 100
▁Rob 100
后续 100
▁invest 100
▁Try 100
看着她 100
闹 100
挡 100
阿尔巴尼亚 100
▁Ethernet 100
▁absorb 100
▁algorithm 100
▁possibly 100
冈 100
坡 100
查看空房情况 100
▁reinforce 100
虹 100
▁condemn 100
▁honest 100
报表 100
€¦ 100
▁disclaim 100
▁composition 100
暗示 100
▁Bathroom 100
轮胎 100
观测 100
▁presidential 100
Sec 100
▁Diego 100
determination 100
失业 100
导演 100
hoe 100
▁stronger 100
RAM 100
▁VR 100
worthy 100
▁arts 100
▁presents 100
▁Cook 100
▁Independent 100
▁cum 100
赛事 100
ete 100
Pe 100
生态系统 100
(2008) 100
anti 100
还没 100
企业家 100
确保您 100
▁walls 100
▁后来 100
IND 100
是如此 100
▁logic 100
IGHT 100
▁seriously 100
法律或 100
▁mixed 100
和资源 100
木材 100
饮 100
解除 100
RR 100
在所有 100
说过 100
辅 100
▁withdraw 100
多达 100
boy 100
▁Trip 100
text 100
或任何其他 100
秒杀网 100
▁OTHER 100
▁romantic 100
μ 100
▁Blood 100
咬 100
▁Smith 100
▁casino 100
半导体 100
▁utility 100
的贡献 100
▁Courtyard 100
MON 100
▁contacts 100
▁Events 100
已成为 100
运营商 100
房产 100
▁slide 100
▁relaxation 100
▁mono 100
雅各 100
企业股份有限公司 100
总结 100
所得 100
▁keeps 100
▁当时 100
▁Upon 100
的食物 100
▁Colon 100
开业 100
减速 100
篮 100
lau 100
京都 100
▁这意味着 100
▁describe 100
▁lights 100
▁Hero 100
JO 100
地带 100
▁#1 100
▁MT 100
在整个 100
contact 100
Website 100
但却 100
组织和 100
▁trace 100
▁Cities 100
▁相反 100
▁Spi 100
▁kg 100
article 100
数额 100
选择了 100
▁Kal 100
▁participated 100
国务院 100
吴 100
▁Accessories 100
▁Embassy 100
▁Medicine 100
▁Peninsula 100
▁Turkish 100
▁bought 100
▁participating 100
▁statistical 100
▁preparing 100
二氧化碳 100
▁vendor 100
▁diplomatic 100
早晨 100
▁adhere 100
客厅角 100
总裁 100
thi 100
▁Ker 100
▁VM 100
▁Articles 100
文件大小 100
旅行者 100
和第 100
▁Gil 100
应用程序中 100
▁BUT 100
了下来 100
还可 100
▁Eu 100
▁overview 100
一周 100
▁blocks 100
的语言 100
▁hack 100
▁soil 100
伊斯兰教 100
flu 100
开始了 100
:20 100
` 100
应该是 100
▁WIPO 100
ssel 100
智利 100
陶 100
涂层 100
toria 100
▁alive 100
几个月 100
有用的 100
地标 100
rak 100
gua 100
shing 100
YS 100
▁el 100
10,000 100
危 100
斯顿 100
浓 100
典型 100
Chan 100
国籍 100
▁Sto 100
都市 100
hru 100
鼠 100
专辑 100
▁Fabulous 100
▁Saturday 100
▁emphasis 100
颇 100
▁heritage 100
姐姐 100
液晶电视 100
▁HOME 100
▁elsewhere 100
▁sustainability 100
▁Sample 100
温柔 100
CW 100
汉堡 100
▁Promotion 100
▁Pressure 100
总监 100
▁dwell 100
耶稣基督 100
▁sidebar 100
我觉得 100
EU 100
▁Atmel 100
▁Know 100
▁Curve 100
有用 100
托管 100
West 100
▁stem 100
流行的 100
并于 100
▁这间客房 100
▁无线网络 100
卖方 100
▁sad 100
Hz 100
空调客房 100
任何部分 100
▁Days 100
世人 100
司机 100
▁(0 100
性感 100
会话 100
非常重要 100
是由于 100
▁Want 100
1979 100
▁UV 100
will 100
▁Jen 100
▁coal 100
iger 100
50% 100
▁falling 100
这条 100
罚 100
秘 100
▁Tin 100
一个小 100
BN 100
▁contributed 100
Art 100
暴露 100
信赖 100
赏 100
厄 100
„¢ 100
▁Dynamic 100
▁centuries 100
▁routine 100
涛 100
藉 100
雷斯 100
ETHER 100
▁abandon 100
妹妹 100
阻碍 100
搜寻 100
▁Annual 100
▁disabilities 100
▁105 100
社交媒体 100
爱好 100
牛奶 100
atur 100
吃饭 100
复苏 100
90% 100
▁Movement 100
▁revision 100
▁colon 100
阀门 100
它在 100
▁Audit 100
▁(18 100
的详细信息 100
▁Kur 100
▁tip 100
▁Cent 100
▁1920 100
ilo 100
把你 100
tek 100
▁mins 100
唯 100
nick 100
hir 100
SSL 100
这种情况 100
▁Gran 100
▁valves 100
增长率 100
你们要 100
▁leaves 100
▁寻找 100
kg 100
那天 100
教徒 100
▁Cell 100
▁$7 100
▁hub 100
▁inner 100
前提 100
揭 100
▁differ 100
▁authentic 100
减少了 100
在地上 100
▁Neu 100
▁Commerce 100
▁associates 100
奔 100
立陶宛 100
▁vegetable 100
多伦多 100
▁Azerbaijan 100
Piazza 100
▁leather 100
▁enemy 100
最优惠的价格 100
▁Session 100
▁pigeon 100
谨慎 100
▁ignore 100
秘鲁 100
▁Wireless 100
健身房 100
▁Labour 100
▁roof 100
▁confront 100
故意 100
▁Options 100
▁punishment 100
的状态 100
▁OK 100
▁Edward 100
▁就在 100
Fa 100
▁actors 100
bian 100
直至 100
曲线 100
▁hydro 100
▁wise 100
中期 100
▁Alice 100
video 100
▁minor 100
危险的 100
▁« 100
▁本公司 100
feng 100
协 100
光线 100
▁Cheng 100
▁dual 100
灵魂 100
分开 100
大堂 100
▁officially 100
工作室 100
where 100
▁Condition 100
▁Processing 100
▁figures 100
▁rated 100
polis 100
编辑器 100
ario 100
的工作人员 100
而来 100
pay 100
▁Corn 100
▁Pink 100
搜索结果 100
▁Paulo 100
悬 100
在网上 100
躲 100
▁stylish 100
▁Example 100
▁collapse 100
▁compilation 100
▁trigger 100
▁Wolf 100
左侧 100
补贴 100
叉车 100
古典 100
▁Adult 100
▁客人可以在 100
透明度 100
青岛 100
▁passage 100
▁leg 100
▁Frank 100
▁我们还 100
可以选择 100
巴斯 100
▁buying 100
耶稣的 100
就这样 100
周末 100
(0 100
▁Gor 100
生气 100
请联系 100
的特殊 100
gress 100
三种 100
▁Parts 100
girl 100
的男人 100
说着 100
体内 100
明天 100
▁lists 100
▁阳台 100
168 100
龄 100
▁starts 100
:18 100
Comp 100
▁corrupt 100
但我们 100
赤 100
▁Discussion 100
1⁄4 100
gallery 100
▁Testament 100
▁worst 100
剥夺 100
▁blessing 100
菜肴 100
究竟 100
洁净 100
观赏 100
齿轮 100
▁Teacher 100
但也 100
哥哥 100
和美国 100
▁spray 100
▁copper 100
摘要 100
精英 100
latin 100
大多 100
▁owing 100
序列 100
▁campus 100
经济学家 100
▁Highway 100
tractor 100
拥 100
卡斯 100
波特 100
▁Meta 100
ón 100
256 100
▁HPE 100
专业知识 100
▁applying 100
▁Qi 100
AIR 100
fix 100
▁bow 100
受伤 100
▁productive 100
要么 100
新价格 100
English 100
▁Ron 100
▁interact 100
Java 100
隐私权 100
传真 100
bridge 100
▁substantial 100
未经授权 100
人工 100
帽 100
▁Industries 100
ugu 100
▁maybe 100
掩 100
▁welfare 100
▁Gospel 100
▁copies 100
莲 100
▁Alliance 100
▁shoes 100
申诉 100
▁begins 100
午餐 100
▁procurement 100
树脂 100
svg 100
出版社 100
典雅 100
▁regulate 100
▁Mira 100
您要 100
两位 100
▁flows 100
▁difficulties 100
isi 100
▁complexity 100
▁portable 100
▁GR 100
▁broke 100
▁imposed 100
▁Sara 100
tour 100
usa 100
人均 100
我们所 100
KR 100
▁liked 100
Sc 100
held 100
▁Job 100
订房 100
▁102 100
克莱 100
可以将 100
▁墨西哥 100
被删除 100
还将 100
▁tourists 100
▁melt 100
▁configure 100
▁deeply 100
▁Valve 100
▁Liu 100
▁Carl 100
▁Coat 100
要是 100
这时 100
▁Der 100
nov 100
gie 100
不安 100
162 100
abilities 100
逐 100
漏 100
圣诞 100
▁govern 100
兆 100
绒 100
▁Alternative 100
▁Yellow 100
乘客或车 100
▁Superior 100
▁assurance 100
▁twice 100
信贷 100
代替 100
▁contest 100
十字 100
蒙古 100
外壳 100
距离酒店 100
调解 100
欧洲的 100
不利 100
▁cake 100
不包括 100
(2001) 100
能否 100
小说 100
初步 100
▁Bob 100
action 100
上来 100
感受到 100
▁Touch 100
▁spoken 100
▁Join 100
问道 100
▁Oct 100
充满了 100
quire 100
向您提供 100
PWR 100
▁CNC 100
▁linear 100
回事 100
▁timely 100
10% 100
群众 100
▁IDE 100
550 100
▁fails 100
▁MHz 100
缆 100
▁Pont 100
LAND 100
计量 100
西班牙语 100
script 100
▁如需 100
纳税 100
▁expanding 100
原本 100
鉴 100
温和 100
有两个 100
布里 100
▁Conf 100
泄 100
究 100
▁Sai 100
千年发展目标 100
葬 100
锯 100
奴隶 100
毗邻 100
波士顿 100
▁Buddhist 100
▁Jersey 100
▁appreciation 100
▁freight 100
各种各样的 100
绵 100
▁Owner 100
▁struck 100
▁neighborhood 100
▁Firefox 100
▁Nigeria 100
削弱 100
▁laboratory 100
品尝 100
与会者 100
Come 100
Yodot 100
昂贵 100
▁combine 100
▁Suzhou 100
间卧室 100
▁GNU 100
▁float 100
▁Drug 100
▁chest 100
232 100
▁Tourist 100
▁Pala 100
可能需要 100
癌症 100
失去了 100
高端 100
▁Cast 100
▁specialty 100
不平等 100
Lux 100
▁tours 100
▁movements 100
首尔 100
▁acting 100
另有 100
▁tough 100
STAR 100
▁conven 100
▁measurements 100
的真实 100
我很 100
天下 100
▁Apt 100
Comm 100
Wiki 100
▁Gam 100
MOS 100
performance 100
▁guy 100
wen 100
典型的 100
的名称 100
▁refused 100
波斯 100
明确的 100
我真的 100
前来 100
黎 100
▁CAR 100
措 100
袭 100
▁Agilent 100
▁buffet 100
▁diversity 100
亚历山大 100
格鲁吉亚 100
欠 100
▁Senior 100
昌 100
▁Remove 100
筹备 100
编译 100
▁Quinta 100
▁Workshop 100
▁tile 100
睡觉 100
开发人员 100
东盟 100
打破 100
讲话 100
使徒 100
都被 100
tong 100
回归 100
(2004) 100
ltd 100
一支 100
horn 100
埃尔 100
▁阅读更多 100
政府间 100
▁castle 100
DU 100
▁gene 100
指引 100
iana 100
列表中 100
本法 100
您与 100
▁setup 100
Val 100
Now 100
chrom 100
恐 100
十三 100
1980 100
DES 100
带到 100
▁transfers 100
comp 100
XL 100
澳 100
给她 100
sheet 100
扰 100
晨 100
仔 100
▁disarmament 100
▁shook 100
鸡尾酒 100
▁Columbia 100
▁Stockholm 100
▁HLMP 100
催 100
哀 100
▁Latvia 100
▁vector 100
沙特阿拉伯 100
疼痛 100
▁grinding 100
仔细阅读 100
小时安保 100
开源 100
海湾 100
缓存 100
宝宝 100
不喜欢 100
▁darkness 100
教程 100
创立 100
子孙 100
▁artist 100
1949 100
沃尔 100
底部 100
count 100
▁eastern 100
▁Been 100
▁licensed 100
▁Cube 100
采取了 100
什么样的 100
AQ 100
BG 100
离子 100
家居 100
tv 100
step 100
抱着 100
▁CAN 100
▁entrepreneur 100
设备和 100
-10- 100
寒 100
Trans 100
each 100
stop 100
▁internationally 100
word 100
▁Marco 100
读者 100
-03 100
▁Collect 100
▁achievement 100
▁Give 100
敦 100
爾 100
± 100
▁Helsinki 100
▁Creative 100
▁除此之外 100
纱 100
▁Sometimes 100
▁minimize 100
▁composed 100
通胀 100
高速公路 100
▁drew 100
▁Gift 100
地毯 100
▁clips 100
▁blend 100
舞台 100
▁Doctor 100
必然 100
门户 100
禁用 100
播放器 100
eff 100
▁delivers 100
毫不 100
sai 100
职务 100
▁possession 100
▁Range 100
TON 100
▁observe 100
▁drag 100
所有国家 100
为止 100
参与者 100
▁sections 100
忘了 100
nau 100
旅程 100
▁engines 100
洛克 100
▁weigh 100
趣 100
▁spin 100
注重 100
▁surprised 100
1971 100
▁reject 100
利斯 100
概 100
惜 100
▁exc 100
一本 100
数十 100
▁Ross 100
奖项 100
inda 100
赌 100
怎 100
▁CORPORATION 100
▁lodging 100
▁satisfy 100
▁Accept 100
▁appliance 100
逸 100
▁Major 100
▁谷歌地图 100
▁Andrew 100
卢森堡 100
柴油 100
打电话 100
在许多 100
基本上 100
圣诞节 100
▁bearings 100
专有 100
相结合 100
andra 100
▁Trail 100
▁alert 100
那就 100
这一问题 100
队伍 100
正当 100
般的 100
2019 100
这家 100
lumin 100
▁considerable 100
illo 100
▁pleased 100
眼中 100
▁reviewed 100
▁RAM 100
葡萄牙语 100
▁kissed 100
我现在 100
▁Boy 100
问题是 100
诸多 100
杰出 100
▁argue 100
▁Kazakhstan 100
▁arrest 100
▁cook 100
对他们 100
50,000 100
上查看 100
我能 100
▁monthly 100
lore 100
Anne 100
▁shal 100
direct 100
奥尔 100
没有找到 100
▁Rating 100
SHI 100
▁Dro 100
ota 100
▁Arena 100
的一项 100
迈阿密 100
▁Lithuania 100
▁Tuesday 100
▁ceremony 100
▁unforgettable 100
糟糕 100
翠 100
昏 100
犹豫 100
驱逐 100
勾 100
▁wound 100
移徙 100
办公桌 100
缓解 100
stitution 100
▁gained 100
▁enrich 100
ento 100
eira 100
出版物 100
另一种 100
印尼 100
▁depart 100
▁(6) 100
发电机 100
形势 100
▁drinks 100
表现出 100
收到了 100
委会 100
rou 100
▁viewing 100
▁boys 100
谢谢 100
和非 100
的主题 100
▁Dev 100
LAS 100
wh 100
▁Again 100
▁Hair 100
etta 100
iza 100
doc 100
红外 100
一生 100
一人 100
▁telecommunicat 100
▁approaches 100
还包括 100
呈 100
NF 100
字段 100
为他们 100
君 100
而造成 100
▁cooperate 100
▁Dance 100
的文章 100
笑着 100
▁Directory 100
却不 100
Data 100
这些人 100
可信 100
▁pushed 100
知道我 100
更容易 100
千年 100
▁Est 100
OG 100
Project 100
体积 100
祝 100
的看法 100
亡 100
要做 100
赎 100
糊 100
渐 100
衷 100
▁Companies 100
▁Intellectual 100
▁Scotland 100
▁embedded 100
▁purchasing 100
水族馆 100
▁computing 100
▁honour 100
伊斯坦布尔 100
卵 100
▁LOSS 100
攀 100
guard 100
阴茎 100
有力 100
▁supervision 100
预览 100
▁Eva 100
▁概览 100
▁involvement 100
指向 100
仿真 100
术语 100
▁birds 100
黄色 100
0.1 100
为主 100
▁OH 100
▁Snow 100
▁trick 100
game 100
无人 100
专业人士 100
-50 100
corn 100
flex 100
7] 100
高中 100
nate 100
福德 100
▁yard 100
出示 100
▁Educational 100
错过 100
砖 100
罚款 100
▁Bella 100
的那样 100
首要 100
酒店的最 100
这段 100
▁Cleaning 100
所有者 100
WC 100
▁Sport 100
▁inclusion 100
漂亮的 100
有时候 100
质量和 100
▁Listen 100
三维 100
spire 100
▁hrs 100
和同意 100
friend 100
201 100
mill 100
▁dealings 100
▁potentially 100
CAP 100
uro 100
END 100
▁occurs 100
不愿意 100
一看 100
小吃 100
信息技术 100
跃 100
・ 100
▁Balcony 100
▁Bluetooth 100
▁irrevocable 100
▁sophisticated 100
氯 100
Continental 100
▁Valencia 100
▁afternoon 100
▁pollution 100
习近平 100
吕 100
▁borrow 100
摧毁 100
斯德哥尔摩 100
▁activate 100
para 100
▁Apache 100
钓鱼 100
▁Excellent 100
▁Abstract 100
笔记本电脑 100
查阅 100
▁Thread 100
索马里 100
登陆 100
▁Friends 100
▁Gulf 100
▁chronic 100
▁Apply 100
第三十 100
直观 100
course 100
促使 100
▁DATA 100
这些问题 100
展览中心 100
解决办法 100
▁Huang 100
提名 100
▁Yong 100
FF 100
lou 100
在德国 100
岁以下 100
全球经济 100
发送电子邮件 100
▁priests 100
假日酒店 100
奥斯 100
▁Flo 100
了几 100
▁describes 100
▁fans 100
世上 100
tube 100
在纽约 100
▁researchers 100
▁Stan 100
(2) 100
▁explains 100
穷人 100
宽度 100
▁8.4 100
▁guarantees 100
客房设有 100
▁Rosa 100
tax 100
一辆 100
客户提供 100
与发展 100
▁patterns 100
▁killing 100
手续 100
▁intend 100
支援 100
动物园 100
溶 100
是一位 100
孕 100
沈 100
芭 100
凸 100
苏格兰 100
compatibility 100
▁Deputy 100
▁pocket 100
浴缸或淋浴 100
▁Associate 100
▁clinical 100
斑 100
▁stairs 100
冯 100
服务或其他材料 100
▁eurozone 100
▁silent 100
▁console 100
确 100
防御 100
适用于某一特定用途 100
怀孕 100
回忆 100
一室公寓 100
▁duration 100
shire 100
它将 100
▁precious 100
破产 100
▁foster 100
占据 100
▁reaching 100
▁Rank 100
新兴市场 100
hom 100
许可协议 100
▁Relations 100
▁signals 100
▁鉴于 100
fusion 100
维基 100
One 100
▁totally 100
最具 100
TG 100
▁rejected 100
crypt 100
的平均 100
▁Dry 100
很高兴 100
ega 100
▁ads 100
文件系统 100
▁filed 100
大力 100
▁addressing 100
WO 100
▁urge 100
util 100
会展中心 100
mme 100
床单 100
▁promotions 100
▁fifth 100
▁airline 100
▁Mile 100
fund 100
▁Rent 100
险 100
搜 100
润滑 100
示威 100
忧 100
骚 100
窃 100
т 100
▁INTERNATIONAL 100
▁Memory 100
▁Nuclear 100
▁Ransomware 100
▁Zhejiang 100
▁colombia 100
▁thirty 100
š 100
脊 100
贪 100
▁Position 100
市的旅舍地图 100
劫 100
诞生 100
奢华 100
采访 100
蛋白质 100
老年人 100
▁mainstream 100
诺贝尔 100
▁Hor 100
失望 100
封装 100
观察员 100
▁fool 100
▁inventory 100
三条 100
▁Installation 100
Hanz 100
重组 100
Form 100
深深 100
生育 100
亚太 100
▁Fed 100
美好 100
带领 100
用餐 100
多久 100
说服 100
感情 100
时尚的 100
找出 100
▁更多信息 100
▁mess 100
▁scheduled 100
cular 100
开幕 100
▁Partners 100
物体 100
或修改 100
Hi 100
高级别 100
语音 100
我们的服务 100
▁partnerships 100
▁prince 100
灵活的 100
我没有 100
▁ships 100
廉 100
▁liberal 100
只会 100
矩 100
艘 100
▁Scientific 100
▁Success 100
▁concentrate 100
▁optimization 100
▁unlimited 100
▁厨房用具 100
斯洛伐克 100
袜 100
▁Animal 100
明确声明不作出任何种类的 100
什麽 100
昨天 100
▁wicked 100
▁chose 100
连锁 100
借助 100
何种 100
▁CORP 100
▁Zhang 100
▁textile 100
作了 100
抬起 100
应许 100
▁西班牙语 100
ssen 100
布雷 100
titude 100
蛋糕 100
各级 100
ifier 100
▁Mou 100
▁balanced 100
小屋 100
磨损 100
▁churches 100
执行情况 100
▁booked 100
的角度 100
eno 100
API 100
割 100
9.1 100
这里的 100
费尔 100
EUN 100
到期 100
▁estimates 100
制冷 100
Act 100
60% 100
明显的 100
▁Ring 100
uous 100
logy 100
东北 100
▁smoke 100
任何第三方 100
的母亲 100
的证据 100
▁免费停车 100
▁Juan 100
1.6 100
▁degrees 100
讨 100
111 100
▁Repair 100
▁Slovenia 100
▁advocate 100
▁legislative 100
▁monument 100
▁renovated 100
▁summary 100
聖彼得堡 100
▁directed 100
▁cancellation 100
巩固 100
▁gross 100
▁pledge 100
▁Consider 100
挑选 100
▁Prize 100
SQL 100
▁Lot 100
压缩机 100
总经理 100
Chinese 100
充分利用 100
race 100
这些国家 100
口头 100
乃是 100
不住 100
▁本书 100
▁offence 100
▁Spe 100
▁Oven 100
格林 100
TRON 100
起身 100
▁permanently 100
线渡轮 100
法律责任 100
▁trains 100
穿过 100
审理 100
在过去的 100
▁optimized 100
20% 100
▁legally 100
▁Rail 100
frame 100
-07 100
LOG 100
vio 100
向前 100
imon 100
▁Risk 100
制动 100
九条 100
▁difficulty 100
感兴趣的 100
转身 100
的威胁 100
▁Bao 100
上下 100
以满足 100
▁icons 100
些什么 100
▁Hau 100
azi 100
▁kit 100
FD 100
lica 100
齿 100
趋 100
▁ceiling 100
▁Defense 100
▁knock 100
▁societies 100
▁emotional 100
▁Weather 100
▁Toaster 100
▁rescue 100
法兰克福 100
缓慢 100
AIL 100
conscious 100
待遇 100
▁Issue 100
混乱 100
▁verification 100
绘制 100
安慰 100
▁本网页 100
情感 100
▁́ 100
▁wake 100
▁Xiao 100
竞选 100
www 100
已知 100
南京 100
呼叫 100
▁Deep 100
▁无论是 100
▁usual 100
目的地国家 100
▁span 100
▁当我 100
见过 100
第五十 100
▁arranged 100
应用中 100
▁lawyers 100
请您 100
免受 100
多项 100
cz 100
▁Dark 100
▁餐桌 100
五十 100
全身 100
DY 100
的资金 100
▁ingredients 100
织 100
▁observ 100
子公司 100
离开了 100
▁那时 100
无数 100
fast 100
▁discounts 100
posed 100
high 100
Sea 100
dou 100
采集 100
通往 100
困 100
▁promised 100
卸 100
艇 100
唤 100
蔬菜 100
▁Crystal 100
▁Hollywood 100
▁Monitoring 100
▁Swedish 100
▁definitely 100
▁demonstration 100
▁enormous 100
▁impressive 100
▁territories 100
▁voluntary 100
▁熨斗 100
▁Blvd 100
▁Cruise 100
▁Sierra 100
雇佣 100
▁卫生纸 100
疫苗 100
马耳他 100
▁Irish 100
▁VPN 100
剩余 100
▁我喜欢的 100
▁resume 100
皮革 100
[3] 100
REN 100
▁客房类型 100
他所 100
▁exploitation 100
▁archive 100
▁brush 100
▁bigger 100
有些人 100
受影响 100
是中国 100
▁Load 100
获奖 100
een 100
▁SUSE 100
了出来 100
【 100
▁shapes 100
▁connecting 100
zio 100
▁Seller 100
迫 100
平静 100
menu 100
▁VIP 100
对手 100
难道 100
ket 100
创造了 100
▁Jim 100
▁colleagues 100
▁Scan 100
resistant 100
淋 100
返 100
两者 100
可达 100
将要 100
这事 100
def 100
▁deploy 100
▁凤凰 100
所谓 100
▁128 100
通过电子邮件 100
▁complain 100
128 100
不时 100
▁cameras 100
恰当 100
▁strengthened 100
新产品 100
的身份 100
违 100
▁specially 100
aro 100
▁葡萄牙 100
锋 100
汽 100
铭 100
¥ 100
▁Myanmar 100
▁PURPOSE 100
▁Perhaps 100
▁challenging 100
▁happiness 100
▁Vintage 100
铃 100
赌博 100
忽视 100
咖啡馆 100
企图 100
▁Republican 100
校园 100
文献 100
卡塔 100
▁Malta 100
▁toilet 100
worth 100
该项 100
▁wearing 100
前述 100
广大 100
天津 100
今天的 100
实质性 100
去除 100
▁telling 100
因为你 100
还原 100
▁gather 100
部位 100
上涨 100
▁kid 100
habi 100
AKE 100
▁slip 100
▁Mis 100
sect 100
分割 100
的某些 100
▁IoT 100
▁jointly 100
▁111 100
▁coat 100
▁DNS 100
像是 100
▁Put 100
高质量 100
▁vice 100
日子 100
主办 100
▁Bern 100
有多 100
▁Que 100
衡 100
▁Bell 100
▁prospect 100
▁Operation 100
民事 100
奏 100
▁Automotive 100
▁consequential 100
▁corrosion 100
▁evolve 100
▁obstacle 100
▁reliance 100
桃 100
茂 100
惨 100
扔 100
▁silence 100
皆 100
▁waiver 100
▁当前位置 100
▁loose 100
▁discharge 100
▁optional 100
▁disorder 100
裁定 100
疑问 100
▁Ice 100
精致 100
▁announcement 100
▁Cau 100
▁strain 100
▁anger 100
erated 100
沿着 100
System 100
Facebook 100
▁precisely 100
从前 100
▁incidental 100
▁lifetime 100
货运 100
导向 100
▁8.1 100
▁meals 100
主体 100
▁Leader 100
太空 100
我又 100
▁Additionally 100
还需要 100
▁Cool 100
举行了 100
EW 100
▁Later 100
并将其 100
ambi 100
我们都 100
actor 100
▁enhanc 100
此种 100
下方 100
▁advised 100
通常是 100
▁Falls 100
盈利 100
▁1,000 100
文件中 100
提供服务 100
都很 100
lb 100
num 100
▁confidential 100
契 100
剩 100
泪 100
崇 100
痕 100
陀 100
▁COMPANY 100
▁Manhattan 100
▁Practice 100
▁Rectifier 100
▁integral 100
▁pharmaceutical 100
您访问的页面不存在 100
▁width 100
丑 100
赞赏 100
艰难 100
▁football 100
蓝牙 100
很可能 100
▁separation 100
涂料 100
复兴 100
近年来 100
▁harmful 100
风味 100
我必 100
厂商 100
▁(9) 100
▁去过 100
ibly 100
惊人的 100
▁我们拥有 100
为什么要 100
科夫 100
如果他们 100
▁Edition 100
(2002) 100
▁campaigns 100
年轻的 100
Yeah 100
:4.0.30319.1 100
0.5 100
书桌 100
▁Promo 100
但他们 100
▁Being 100
RAR 100
opa 100
该项目 100
两年期 100
▁forming 100
伸手 100
CY 100
▁passion 100
mara 100
零售商 100
▁suggests 100
发达 100
▁Export 100
▁deny 100
▁rear 100
欧洲联盟 100
购物车 100
uta 100
国防 100
有个 100
▁shoot 100
▁Az 100
nation 100
▁loans 100
▁divide 100
▁infringe 100
▁Maker 100
或终止 100
▁这时 100
您的帐户 100
以色列的 100
目标是 100
301 100
rine 100
USD 100
这样一个 100
活性 100
▁Tong 100
球队 100
的方向 100
chem 100
敏 100
欧洲主要渡轮营办商 100
▁afford 100
全年 100
庙 100
會 100
▁Buddha 100
▁aquarium 100
▁implications 100
▁stunning 100
▁Painting 100
酿 100
汗 100
▁Sleep 100
尊敬 100
▁Cambridge 100
motion 100
衰退 100
▁variation 100
学员 100
▁everywhere 100
onia 100
▁Hyper 100
沙发床 100
广东 100
▁IMF 100
厚度 100
▁loud 100
▁Broad 100
▁viruses 100
▁Hell 100
微微 100
她也 100
对任何 100
与他们 100
的军事 100
NU 100
够 100
ABT 100
伯特 100
▁combines 100
商场 100
很重要 100
crib 100
反而 100
▁judges 100
景致 100
咖啡设施 100
▁Students 100
正面 100
头上 100
itis 100
▁organs 100
▁coup 100
▁meal 100
DX 100
瓷砖 100
▁coordinate 100
兼容性 100
心灵 100
怎么了 100
plex 100
▁Simon 100
制药 100
7000 100
国内外 100
ECU 100
冬 100
▁lifted 100
▁Bet 100
hil 100
采用了 100
帮助你 100
的房子 100
rem 100
▁Electro 100
▁reflects 100
时代的 100
培 100
覆 100
姿 100
辱 100
劝 100
搅拌 100
▁Cottage 100
▁hairdryer 100
▁quantity 100
▁snack 100
▁Remote 100
祸 100
▁tomorrow 100
仍在 100
弹簧 100
▁exhaust 100
尼泊尔 100
▁invitation 100
▁occupied 100
solving 100
▁WIFI 100
画廊 100
拖鞋 100
瞬间 100
▁Interface 100
虚假 100
▁boasts 100
▁Armenia 100
▁stuff 100
Fu 100
常见问题 100
-09 100
浓度 100
▁midst 100
kra 100
sort 100
独自 100
▁focusing 100
盈 100
cam 100
▁Seven 100
摩洛哥 100
first 100
▁Kor 100
▁9.0 100
tier 100
放到 100
罪恶 100
▁Daten 100
▁Showing 100
线上 100
virus 100
▁civilians 100
个别 100
▁boxes 100
年开始 100
的立场 100
当天 100
▁Sala 100
umble 100
▁sightseeing 100
会议上 100
infant 100
▁我们希望 100
▁limitations 100
▁AVI 100
而且还 100
▁attain 100
可能导致 100
▁kr 100
▁visitor 100
受欢迎的 100
效益 100
▁gains 100
▁haven 100
迫使 100
适用法律 100
前进 100
UX 100
流离失所 100
contributing 100
▁WEBSITE 100
▁artificial 100
▁bathtub 100
▁choosing 100
▁neutral 100
▁possibilities 100
▁violent 100
▁oxygen 100
菲尔德 100
▁qualification 100
珀 100
蓬 100
阿塞拜疆 100
▁Henry 100
▁Arbitration 100
均匀 100
▁Hyatt 100
▁disseminat 100
绘画 100
绝佳 100
▁ibis 100
你现在 100
640 100
核准 100
70% 100
▁Leave 100
入境 100
注入 100
zon 100
dimensional 100
WM 100
▁Copy 100
▁Kir 100
▁indirectly 100
has 100
商定 100
五金 100
▁RSS 100
年期间 100
▁8.2 100
CENTURY 100
江苏 100
apping 100
▁charming 100
▁Payment 100
▁aggregate 100
▁outcomes 100
这样说 100
toxic 100
270 100
供您 100
的地位 100
ROM 100
提供商 100
▁insights 100
▁对不起 100
▁stack 100
▁commanded 100
什么是 100
▁demanding 100
▁chemicals 100
ADA 100
波动 100
5.00 100
▁consume 100
常见的 100
QUE 100
JR 100
供给 100
弥 100
剥削 100
摩托车 100
Ubuntu 100
▁Destination 100
▁Factory 100
▁Mumbai 100
▁embrace 100
▁puzzle 100
▁Backpacker 100
亞 100
▁Interior 100
▁MACHINERY 100
罪孽 100
温馨 100
抵押 100
看出 100
▁angry 100
词典 100
隐私声明 100
当他 100
▁grain 100
信徒 100
▁crack 100
伍德 100
角落 100
wind 100
永恒主 100
▁Dual 100
▁dirt 100
第八 100
我所 100
TIC 100
▁globalization 100
也不能 100
▁bonds 100
时钟 100
精心 100
优越 100
行星 100
▁OPC 100
▁1988 100
▁说完 100
锁定 100
▁initially 100
▁gathering 100
pond 100
▁$8 100
一丝 100
大气 100
极大的 100
显现 100
850 100
Visa 100
mobil 100
荣获 100
握 100
题为 100
▁declare 100
▁exploit 100
布尔 100
person 100
同一个 100
中等 100
以外的 100
▁Mali 100
self 100
RON 100
中国政府 100
扇 100
3.5 100
Rose 100
猜 100
zhu 100
▁行李存放服务 100
挂牌上市 100
首脑会议 100
拉脱维亚 100
▁shareholders 100
烫 100
▁炉灶台 100
▁优良 100
最不发达国家 100
▁ecosystem 100
忽然 100
纺织 100
▁summit 100
▁($10- 100
▁mouse 100
▁Eye 100
▁weekend 100
▁converter 100
只有在 100
短信 100
▁Torre 100
商人 100
▁Graphics 100
配套 100
运动员 100
LIN 100
辆 100
▁reign 100
遭遇 100
▁Virginia 100
▁酒店位置 100
(2000) 100
▁settled 100
间客房 100
即使是 100
金融机构 100
集中在 100
Work 100
▁Af 100
共用 100
PRO 100
▁Brook 100
2.0 100
对不起 100
ENS 100
较高 100
▁workshops 100
▁cloth 100
City 100
预约 100
在联合国 100
错了 100
▁behold 100
trait 100
IDE 100
数值 100
▁panels 100
phan 100
作物 100
他们是 100
umi 100
▁marking 100
孟 100
烹饪 100
『 100
帧 100
▁Macedonia 100
▁Pattaya 100
▁Thursday 100
▁disturb 100
▁mathematical 100
▁testimony 100
▁charging 100
爱沙尼亚 100
纠纷 100
▁Settings 100
▁administer 100
▁Surface 100
摩擦 100
灭绝 100
▁blogging 100
看着他 100
报警 100
斯蒂 100
▁Goals 100
实惠 100
▁Bird 100
诚信 100
电磁 100
▁keyboard 100
▁Venture 100
▁prospects 100
有能力 100
777 100
▁Round 100
运转 100
片段 100
不仅是 100
▁CBD 100
马丁 100
Eng 100
▁Interest 100
(2003) 100
▁rational 100
▁negotiated 100
不接受 100
健康和 100
关税 100
scan 100
▁Chair 100
附带 100
▁politicians 100
附近的酒店 100
▁Trader 100
Pay 100
FDA 100
不满 100
RAN 100
nak 100
成功地 100
名叫 100
Villa 100
部落 100
▁seats 100
缴纳 100
这个时候 100
造成了 100
▁Cold 100
sell 100
一方面 100
你看 100
▁distinct 100
▁Flu 100
Find 100
▁insist 100
ORE 100
▁dial 100
▁Rich 100
▁holidays 100
340 100
Disc 100
拒 100
侦 100
酱 100
▁Luxembourg 100
▁behaviour 100
▁hazard 100
耕 100
阿拉伯联合酋长国 100
▁Built 100
陌生 100
走路只需 100
忽略 100
▁alliance 100
的前提下 100
的某个人 100
纠正 100
3,000 100
沉默 100
px 100
▁juice 100
▁kitchenette 100
▁Denver 100
诚实 100
进化 100
▁Quad 100
▁Remember 100
▁glance 100
More 100
就算 100
▁systematic 100
USE 100
均可 100
uli 100
分析仪 100
直流 100
MIT 100
您的电脑 100
电子有限公司 100
谈到 100
专业人员 100
意图 100
当作 100
▁alia 100
▁侯龙涛 100
DK 100
yne 100
KI 100
mitte 100
CAD 100
▁Merc 100
angel 100
3.4 100
此刻 100
而成 100
是唯一 100
世界银行 100
▁advise 100
122 100
几分钟 100
处罚 100
idi 100
曾在 100
系列产品 100
试用 100
他被 100
四条 100
▁ideally 100
▁signing 100
越来越多的 100
您提供任何 100
罢 100
▁Fred 100
▁compete 100
弟 100
▁AGREE 100
圣地亚哥 100
ı 100
耻 100
▁DISCLAIM 100
▁FITNE 100
▁Galaxy 100
▁Traffic 100
▁palace 100
失踪 100
收音机 100
▁Dallas 100
里斯本 100
土壤 100
交叉 100
可能会有所不同 100
魔鬼 100
▁connectivity 100
▁fridge 100
▁treaties 100
山脉 100
过敏 100
颗 100
姐妹 100
业界 100
毒品 100
175 100
之路 100
114 100
▁Dam 100
▁(7) 100
因为这 100
三星 100
placement 100
▁Ok 100
开设 100
装配 100
▁Winter 100
革 100
注意力 100
onne 100
州市 100
lining 100
第九 100
▁tired 100
博览会 100
▁novel 100
产能 100
▁Historical 100
iki 100
▁grin 100
zone 100
节约 100
exclusive 100
▁photographs 100
World 100
Where 100
可持续性 100
▁Mir 100
▁Benefits 100
▁Gang 100
▁4.5 100
▁Soul 100
fox 100
than 100
▁Fit 100
job 100
▁converted 100
▁Gay 100
▁roller 100
version 100
▁BBC 100
激动 100
lyn 100
特尔 100
▁waves 100
-04 100
想想 100
▁migrants 100
参见 100
▁Lock 100
悉 100
婆 100
▁Wien 100
胃 100
▁Survey 100
▁Temperature 100
▁phenomenon 100
▁seamless 100
▁studied 100
▁widespread 100
枝 100
▁Lingnan 100
晋 100
泡沫 100
花和花束 100
祥 100
▁okay 100
DH 100
消灭 100
▁random 100
▁abstract 100
坚固 100
▁Gerber 100
▁advertisers 100
检索 100
狮子 100
zhi 100
很好的住宿地方 100
不愿 100
▁Princess 100
▁Stop 100
宝石 100
480 100
▁Johnson 100
废除 100
▁assert 100
开车 100
过于 100
灯光 100
因为我们 100
划分 100
是基于 100
格里 100
公爵 100
各自的 100
▁Imp 100
▁Still 100
他自己 100
▁Allow 100
zan 100
涉及到 100
digit 100
▁complaints 100
defined 100
third 100
tergovernmental 100
发动 100
▁efficiently 100
▁decent 100
1100 100
▁golden 100
Read 100
记载 100
club 100
涨 100
SAS 100
Gold 100
国际贸易 100
同学 100
成立了 100
6000 100
137 100
的细节 100
的目标是 100
研究人员 100
root 100
的好处 100
杀死 100
要把 100
330 100
▁logos 100
cai 100
2:00 100
▁faithful 100
高质量的 100
挖掘 100
▁Traditional 100
天气预报 100
宰 100
巴厘岛 100
▁hybrid 100
▁spectacular 100
机票预订和渡轮航行从 100
intensive 100
▁Bosnia 100
彭 100
船舶 100
尼日利亚 100
▁Flex 100
季节性供应 100
毁灭 100
▁Implementation 100
任期 100
▁minimal 100
战役 100
▁Hours 100
▁sovereignty 100
▁Libya 100
mobile 100
改写 100
▁crash 100
这些条款 100
包含了 100
好吧 100
最便宜的 100
kou 100
家用 100
一开始 100
数百 100
依赖于 100
vice 100
向他 100
真实的 100
XXX 100
▁以下是 100
专家组 100
lom 100
▁Holding 100
▁oldest 100
和维护 100
nen 100
1080 100
很快就 100
---- 100
很棒 100
比率 100
紧缩 100
当我 100
▁requir 100
Category 100
Who 100
埃塞俄比亚 100
▁Pil 100
盯着 100
Europe 100
Play 100
▁separated 100
1977 100
日元 100
FOR 100
工商 100
being 100
▁tent 100
LG 100
ista 100
EUR 100
何时 100
▁Except 100
天内 100
因子 100
仿 100
▁Por 100
▁punish 100
-08 100
一句 100
纲 100
幽 100
辣 100
铅 100
Informatica 100
▁Battery 100
▁prevail 100
咒 100
的工作人员及之前的 100
翁 100
Limassol 100
斯洛文尼亚 100
▁begun 100
副总裁 100
权益 100
欲望 100
▁Think 100
厕所 100
▁breed 100
升降 100
▁losing 100
基准 100
▁10.0 100
尽情 100
放射 100
贸易有限公司 100
▁particles 100
通报 100
水处理 100
▁strictly 100
▁fallen 100
这家酒店 100
rav 100
儿童权利 100
裤子 100
▁您可以在 100
高层 100
▁dealer 100
也被 100
ido 100
fen 100
profit 100
arse 100
sheng 100
计数 100
EAN 100
Power 100
▁Belt 100
control 100
尼尔 100
▁Poli 100
链接到 100
山东 100
▁performing 100
滩 100
圆形 100
焦点 100
án 100
IOS 100
▁belonging 100
▁Scr 100
169 100
gong 100
糖尿病 100
河流 100
学科 100
有一天 100
那一 100
时光 100
ometer 100
慰 100
虑 100
1993 100
Ru 100
阿尔及利亚 100
斜 100
熨 100
烘 100
ø 100
▁Principle 100
▁SOLIDWORKS 100
▁delicious 100
▁machining 100
坊 100
特大号床 100
共产主义 100
国内生产总值 100
膨胀 100
共和党 100
▁gospel 100
▁下一篇 100
▁blank 100
▁strive 100
▁快速查看 100
嘴唇 100
▁analyse 100
▁roughly 100
▁Subscribe 100
提到的 100
▁blade 100
导弹 100
言论 100
Info 100
居然 100
与我们联系 100
预备 100
难忘的 100
起到 100
恶意 100
▁Ibi 100
退款 100
▁citizen 100
lateral 100
▁$6 100
pole 100
共同体 100
火山 100
写道 100
模块化 100
一群 100
双重 100
专利权 100
cott 100
1600 100
▁Lau 100
听力 100
▁trained 100
的灵魂 100
rno 100
▁Establish 100
iPhone 100
▁Sheet 100
图书 100
▁Cash 100
起源 100
2.2 100
interest 100
永久的 100
▁arrange 100
几乎所有 100
▁trap 100
▁speakers 100
▁eating 100
沟 100
401 100
ITY 100
▁Bei 100
jin 100
▁borders 100
▁Koh 100
▁dock 100
殖民 100
早已 100
▁Vila 100
行事 100
▁promoted 100
孤 100
继续使用 100
仇 100
窝 100
芒 100
▁Memorial 100
谴责 100
▁prominent 100
▁pussy 100
▁unusual 100
▁vitamin 100
弦 100
吐 100
▁Stream 100
▁stroke 100
▁radiation 100
▁Nanjing 100
咱们 100
▁residential 100
牧师 100
争论 100
▁Seattle 100
▁Jackson 100
介质 100
协同 100
▁simultaneously 100
▁Much 100
▁Retail 100
讲座 100
旅行合作伙伴 100
著作 100
▁decoration 100
包括但不限于关于 100
肉体 100
▁Match 100
▁bowl 100
▁PCB 100
▁PRODUCTS 100
▁Story 100
banner 100
Hill 100
KING 100
不提供此 100
夜间 100
▁grid 100
的女儿 100
道理 100
用户界面 100
▁PSD 100
有统计信息 100
▁Julia 100
hydr 100
010 100
iller 100
面临着 100
可以帮助 100
▁Sep 100
▁Down 100
▁hosted 100
▁Student 100
家中 100
书记 100
enda 100
Lab 100
▁Kate 100
▁2.7 100
一面 100
爱你 100
▁deeper 100
Luc 100
lik 100
hole 100
一部 100
王子 100
的后果 100
▁Nam 100
大奖 100
国立 100
▁alcohol 100
家长 100
▁stressed 100
▁picked 100
以太网 100
诊 100
全球性 100
美国总统 100
混凝土 100
朵 100
谤 100
с 100
▁episode 100
→ 100
▁PARTICULAR 100
▁Together 100
▁Ulitsa 100
』 100
▁Wheel 100
Distrito 100
▁heavily 100
裙 100
氮 100
▁Early 100
▁inspired 100
▁Average 100
英尺 100
▁我们的线上 100
宫殿 100
接受了 100
最有 100
住宿的价格 100
插座 100
还有一个 100
▁Quarter 100
▁imported 100
logo 100
▁Portal 100
内裤 100
ppe 100
▁serial 100
▁compile 100
图案 100
或密码 100
logic 100
mur 100
资本主义 100
反映了 100
虚拟机 100
▁rice 100
igo 100
State 100
酒吧和 100
JS 100
他们将 100
民间 100
▁substances 100
▁sheep 100
▁pics 100
Chang 100
▁POS 100
ISA 100
最后一个 100
▁Kil 100
▁Rai 100
▁Victor 100
之时 100
将成为 100
▁SUN 100
▁maximize 100
Pacific 100
会谈 100
current 100
翻新 100
▁acquire 100
警方 100
一篇 100
情景 100
ALE 100
莱斯 100
balance 100
▁correction 100
▁Skin 100
▁SMS 100
款项 100
emia 100
▁hosting 100
adi 100
互联 100
rh 100
免遭 100
拳 100
▁samples 100
车和乘客的船票 100
但我们可以搜索 100
壶 100
狐 100
▁Procedure 100
▁Registry 100
▁duplicate 100
▁necessarily 100
▁nutrition 100
▁tissue 100
▁welcoming 100
Å 100
有权暂停或终止您的 100
本使用协议 100
鲍 100
遍及英国 100
▁Television 100
美术馆 100
姿势 100
▁liabilities 100
▁Tak 100
墙壁 100
▁giant 100
法令 100
▁Voice 100
▁grass 100
妨碍 100
索引 100
就把 100
▁Spin 100
1.0 100
初级 100
影像 100
乐队 100
面上 100
▁九月 100
btn 100
▁Harry 100
感应 100
多家 100
▁parameter 100
法治 100
ulated 100
开放式 100
而被 100
▁Kenya 100
SIN 100
▁Extra 100
▁Glen 100
Hardwood 100
国际合作 100
oso 100
是一项 100
▁occasions 100
▁Chris 100
▁Bow 100
▁Nazi 100
▁Rub 100
144 100
志愿者 100
疫 100
公式 100
▁ARE 100
▁wishes 100
▁fulfil 100
ffi 100
1946 100
我自己 100
▁restricted 100
合适 100
agan 100
▁Path 100
380 100
▁passing 100
American 100
▁broker 100
Contact 100
Search 100
▁relaxed 100
▁Coll 100
▁BIO 100
▁fingers 100
向我们 100
▁involves 100
球场 100
手表 100
一层 100
videos 100
click 100
▁Effect 100
叠 100
锅 100
科索沃 100
温哥华 100
美联储 100
▁Oxford 100
ú 100
▁Consumer 100
▁Different 100
▁Finnish 100
▁Vehicle 100
▁globe 100
受中国和国际版权法的 100
缠 100
▁Toggle 100
无空房 100
柳 100
▁derived 100
▁qualified 100
▁creature 100
▁descend 100
▁cyber 100
纳粹 100
所必需的 100
仿佛 100
▁比较所有可用的 100
▁Ideal 100
▁allocation 100
容忍 100
▁Function 100
修炼 100
加利福尼亚州 100
构造 100
▁iBook 100
激情 100
双腿 100
▁minority 100
愿景 100
▁pound 100
调试 100
▁pension 100
▁redirect 100
水疗 100
DEN 100
只好 100
宣称 100
KY 100
▁Reduce 100
▁hospitality 100
6713 100
单词 100
▁(8) 100
▁candidate 100
便于 100
的目的是 100
大师 100
将您的 100
▁bags 100
我去 100
去做 100
达尔 100
无关 100
您的计算机 100
豪华酒店 100
或删除 100
我们如何 100
填充 100
rose 100
▁por 100
性交 100
osis 100
不承担任何责任 100
在某些 100
灵感 100
所能 100
EMI 100
事儿 100
▁designers 100
▁Than 100
7.0 100
▁Km 100
▁Lao 100
CAN 100
不符合 100
护照 100
When 100
科尔 100
岛上 100
▁continent 100
竞 100
媚 100
foot 100
▁excess 100
▁Venezuela 100
▁hurricane 100
▁iTunes 100
▁whatsoever 100
▁Kuwait 100
可视化 100
枕 100
霜 100
首席执行官 100
個 100
疏 100
策划 100
皇帝 100
▁teeth 100
▁JavaScript 100
度假屋 100
▁biological 100
风扇 100
▁SUCH 100
相册 100
粉末 100
以下简称 100
抬头 100
▁mounting 100
▁Zhong 100
资质 100
大会第 100
再说 100
丰满 100
整理 100
loom 100
▁renewable 100
局限 100
▁naturally 100
▁farmers 100
▁Lamb 100
▁epi 100
▁tailored 100
一直是 100
Code 100
您可以在 100
▁Host 100
市长 100
179 100
enberg 100
▁Jump 100
▁Berg 100
3.0 100
7.5 100
▁Continue 100
家伙 100
海报 100
0:01 100
增进 100
似的 100
导出 100
▁cooking 100
IEC 100
转移到 100
本条款 100
展览会 100
▁如您 100
▁unity 100
营地 100
转到 100
少年 100
global 100
▁Virgin 100
提供支持 100
▁involve 100
slide 100
几十年 100
就知道 100
普及 100
Tu 100
▁analog 100
pop 100
ér 100
询 100
却没有 100
▁NON 100
▁surge 100
▁Mei 100
腐 100
▁shade 100
疯 100
哈萨克斯坦 100
▁Carolina 100
▁Friendly 100
▁MERCHANTABILITY 100
▁Structure 100
▁inhabitants 100
▁substantive 100
郡 100
▁Sofia 100
床位加早餐式旅舍 100
▁blessed 100
▁invasion 100
▁Seaways 100
▁出租车服务 100
桥梁 100
▁Regard 100
▁cocktail 100
▁SHALL 100
频繁 100
剑桥 100
请点击这里 100
▁intense 100
抵抗 100
室内游泳池 100
即时确认 100
跳舞 100
▁Iceland 100
▁polymer 100
▁drinking 100
▁Provision 100
GC 100
咖啡厅 100
快递 100
强制执行 100
▁Dog 100
信念 100
proliferation 100
▁Orange 100
Sky 100
因为它们 100
环境下 100
▁branches 100
首相 100
绝大多数 100
基础上 100
慢性 100
EAR 100
020 100
▁guys 100
▁bike 100
没事 100
haven 100
only 100
▁Fol 100
了解更多信息 100
hk 100
该区域 100
▁Geo 100
▁probe 100
赛季 100
再生 100
ZE 100
街区 100
share 100
私有 100
1970 100
章节 100
种子 100
▁seminars 100
jie 100
▁Provider 100
▁2.8 100
Central 100
Android 100
▁WI 100
渡轮票 100
公寓提供 100
▁consulting 100
探测 100
affiliate 100
多人 100
的居民 100
raz 100
▁lifting 100
紧凑 100
▁catalog 100
适配器 100
▁enthusiast 100
里约热内卢 100
▁Economy 100
▁Hampton 100
▁earthquake 100
密钥生成器 100
嫁 100
▁最近的机场 100
颖 100
讨厌 100
▁fucking 100
▁Consulting 100
岗位 100
武装冲突 100
▁radical 100
含义 100
▁($2- 100
普京 100
▁Cancer 100
▁blame 100
满了 100
舌头 100
▁react 100
分支 100
改变了 100
自豪 100
07/ 100
WP 100
女王 100
定价 100
表决 100
6.0 100
brand 100
Camp 100
extra 100
▁Kon 100
应急 100
121 100
▁Resource 100
▁organizational 100
起草 100
▁pause 100
Booking 100
戏剧 100
▁Score 100
▁Currently 100
▁Gaza 100
▁Compact 100
阿拉 100
Stack 100
▁demon 100
不起 100
▁HIGH 100
所在地 100
lux 100
▁Pic 100
最早 100
▁editing 100
LINE 100
yard 100
▁Pick 100
lton 100
没什么 100
30% 100
的食品 100
向他们 100
present 100
▁Hay 100
实质 100
敬请 100
Line 100
构成了 100
引进 100
将她 100
kie 100
▁Marie 100
▁Bold 100
理性 100
五条 100
▁sink 100
受理 100
削 100
▁Wind 100
124 100
艰 100
▁merchant 100
喻 100
Administrator 100
Ä 100
▁Categories 100
▁displaced 100
▁recipient 100
▁treasure 100
▁免费的照片效果和在线照片编辑器 100
免责声明 100
月归档 100
▁Taylor 100
曦 100
红十字国际委员会 100
畜 100
侯 100
▁mobility 100
▁tolerance 100
€¢ 100
和无侵权行为等方面的保证 100
拟议 100
▁Estonia 100
▁findings 100
捕获 100
▁ICRC 100
钢琴 100
坚决 100
的所有酒店 100
▁righteousness 100
▁Jackie 100
嵌入式 100
▁Nepal 100
讲述 100
say 100
▁Kill 100
▁rue 100
collectively 100
季节 100
滨 100
潜在的 100
合约 100
▁scenario 100
▁technique 100
德斯 100
随机 100
▁initiated 100
kit 100
▁sustained 100
与您的 100
▁Lower 100
▁assignment 100
大于 100
bonga 100
宝贵的 100
▁trusted 100
源于 100
八条 100
福特 100
迷人 100
变得更 100
酒精 100
error 100
波尔 100
▁ICT 100
▁watched 100
▁portal 100
▁namely 100
万元 100
绝不 100
▁Loc 100
oxide 100
大国 100
年起 100
▁highlighted 100
▁Diver 100
在床上 100
中美 100
coding 100
练 100
等于 100
huang 100
完善的 100
generation 100
▁mad 100
United 100
ologist 100
▁convey 100
▁loading 100
施加 100
已经成为 100
咨询服务 100
tura 100
占有 100
开发者 100
▁sovereign 100
▁switching 100
鸣 100
披 100
大理石 100
器官 100
肿 100
东南亚 100
船票价格在实时预订最便宜的 100
酵 100
搂 100
е 100
溢 100
眉 100
▁Bangladesh 100
▁Sukhumvit 100
▁Tropical 100
▁browsing 100
▁champion 100
燕 100
碗 100
捍卫 100
唉 100
▁bubble 100
▁Increase 100
英镑 100
突尼斯 100
分歧 100
不然 100
▁Depend 100
▁underlying 100
汽油 100
均衡 100
客运 100
意志 100
▁mounted 100
▁humor 100
▁Internal 100
穿越 100
放入 100
▁classification 100
▁friendship 100
收获 100
示范 100
▁Bloom 100
管理器 100
▁Nobel 100
现行 100
hall 100
▁Aviv 100
▁batch 100
▁palm 100
人间 100
形成了 100
▁opposed 100
▁expense 100
Hong 100
uku 100
等领域 100
不含 100
回答说 100
rage 100
188 100
▁lying 100
LINK 100
▁arrested 100
1939 100
上海市 100
▁Specific 100
AVI 100
约有 100
▁virtually 100
Not 100
▁Labor 100
较高的 100
zhen 100
mbre 100
时间表 100
▁burning 100
MN 100
▁1950 100
四十 100
出来了 100
第四十 100
FET 100
bach 100
WordPress 100
income 100
▁Zen 100
▁reside 100
变得更加 100
NIC 100
260 100
是多少 100
▁barriers 100
帮你 100
▁Circle 100
▁pendant 100
助听器 100
南斯拉夫 100
鸿 100
奥兰多 100
姑娘 100
闹钟 100
探险 100
沙漠 100
▁Pearl 100
便携式 100
▁marble 100
▁Leo 100
▁Weiqi 100
▁Helpful 100
发送给 100
▁Patong 100
买家 100
▁civilization 100
▁05: 100
邻国 100
▁flame 100
▁lung 100
不变 100
▁downtown 100
▁devil 100
这儿 100
▁withdrawal 100
▁Reform 100
▁MOV 100
LB 100
6:00 100
▁switches 100
看着我 100
中止 100
child 100
▁emerged 100
小于 100
咨询委员会 100
离婚 100
▁arrangement 100
怎么做 100
habitat 100
▁1985 100
▁Die 100
374 100
花店网络 100
pc 100
▁exclusively 100
stay 100
mie 100
生活方式 100
知道自己 100
页面未找到 100
▁Pte 100
0.2 100
其他选择 100
▁incorporated 100
▁reset 100
themes 100
[4 100
▁tall 100
▁captured 100
得很 100
生意 100
加剧 100
了解如何 100
HOT 100
存在着 100
azar 100
▁functioning 100
房间里 100
iano 100
borne 100
▁scenarios 100
itter 100
她说 100
水中 100
smoking 100
厘米 100
世界经济 100
ECO 100
无比 100
筛 100
漂 100
腔 100
券 100
西北 100
▁Washing 100
▁Competition 100
▁Maintenance 100
▁McAfee 100
▁commodity 100
波罗的海 100
▁Kyoto 100
▁Mandarin 100
▁diving 100
▁cotton 100
大理石地板 100
公斤 100
尊严 100
▁magnificent 100
搭乘 100
考察 100
▁Babylon 100
匿名 100
bourg 100
333 100
▁shaft 100
▁divine 100
▁excessive 100
包裹 100
maker 100
利比亚 100
夫妇 100
▁► 100
批量 100
下榻酒店 100
账号 100
电阻 100
修理 100
船票价格保证 100
星球 100
的关于分析 100
▁pitch 100
▁客房服务 100
罪人 100
湿度 100
▁Hit 100
▁Question 100
入学 100
BF 100
▁Leon 100
▁milit 100
研究中心 100
▁inspect 100
Part 100
决策者 100
黑人 100
▁Hang 100
▁gases 100
▁中文版 100
官网 100
▁tape 100
无疑 100
有一种 100
见面 100
▁trail 100
洛斯 100
天线 100
无可 100
kai 100
▁Pie 100
security 100
卧 100
▁Reap 100
▁Manag 100
trust 100
陷 100
您承认并同意 100
缸 100
东莞市 100
哥斯达黎加 100
▁Aquarium 100
▁CONFERENCE 100
▁Emerald 100
▁Intelligent 100
▁Maximum 100
▁impression 100
▁phrase 100
▁prosperity 100
▁suppress 100
住宿加早餐酒店 100
高收益投 100
▁Apartament 100
▁愿望清单 100
化合物 100
Air 100
▁Clothes 100
▁WuZh 100
▁deserve 100
噪音 100
全部或部分 100
卜 100
▁Goddess 100
邮寄 100
▁Nothing 100
环绕 100
优先事项 100
生殖 100
物联网 100
SIL 100
▁Programming 100
制定了 100
他妈的 100
▁Panama 100
Commerce 100
地看着 100
质疑 100
▁Altai 100
落在 100
100% 100
内识 100
请参见 100
▁Backup 100
xiang 100
的独特 100
个小时 100
▁2.6 100
▁boil 100
组装 100
杨明 100
▁resident 100
▁Gall 100
报名 100
高科技 100
▁Dead 100
trade 100
▁Making 100
▁observations 100
illy 100
要求提供 100
在日本 100
▁studying 100
做爱 100
▁QC 100
▁cave 100
▁Torch 100
suite 100
下次 100
不确定 100
古老的 100
KG 100
▁intent 100
格尔 100
决议草案 100
同时还 100
129 100
▁dive 100
拿着 100
华为 100
大连 100
拉丁 100
coffee 100
▁Vel 100
040 100
▁Pad 100
WAY 100
邪 100
行李寄存 100
▁Initiative 100
分钟的车程 100
圖 100
troducing 100
ă 100
▁Assessment 100
▁Between 100
▁Beyond 100
▁Madagascar 100
▁Nippon 100
▁UNESCO 100
▁Wednesday 100
▁assumption 100
▁incorrect 100
▁offensive 100
芽 100
赵 100
▁affirm 100
▁renowned 100
堵 100
▁harsh 100
厦门 100
▁accused 100
喜悦 100
讯息 100
丧失 100
▁Entry 100
燃油 100
阿姨 100
▁Piece 100
科研 100
▁competitiveness 100
▁Nova 100
▁Lotus 100
委员会主席 100
你会发现 100
▁Sainte 100
地狱 100
不断地 100
拥有一个 100
平板 100
▁periodic 100
还设有 100
转化为 100
▁Fourth 100
▁attacker 100
▁Maybe 100
501 100
▁surely 100
业主 100
巴拉 100
▁查看更多 100
location 100
▁executed 100
经历了 100
任何地方 100
▁Kun 100
▁subsequently 100
-33 100
塞尔 100
所带来的 100
▁无论您 100
▁equally 100
kill 100
AMP 100
fuse 100
哈利 100
找到了 100
地球上 100
▁constitutional 100
机密 100
aaS 100
注册商标 100
after 100
素食 100
同行 100
UF 100
host 100
▁Beth 100
▁Rat 100
要想 100
车程 100
▁preventing 100
供电 100
我们的产品 100
public 100
Microsoft 100
models 100
该网站 100
▁Transit 100
训 100
▁neighbour 100
纯粹 100
▁Administrative 100
▁Copenhagen 100
▁Ethiopia 100
▁Headquarters 100
▁Lumpur 100
▁MATERIAL 100
▁additive 100
▁compressor 100
▁council 100
小时送餐服务 100
衔 100
▁circum 100
阐述 100
▁cruise 100
▁omissions 100
▁Pafos 100
▁如果您对 100
拉丁美洲 100
酶 100
▁Travellers 100
绩效 100
▁shelter 100
▁smell 100
携手 100
▁上一篇 100
▁Cock 100
▁Wonder 100
▁Samui 100
小孩 100
▁Partnership 100
▁honey 100
▁loop 100
套餐 100
勇气 100
眼镜 100
▁representing 100
出色 100
▁ruin 100
▁Guang 100
▁everyday 100
▁promptly 100
▁convinced 100
对他们说 100
▁shame 100
货币政策 100
长达 100
▁indicator 100
▁Regulat 100
▁产品中心 100
UNTR 100
▁repeated 100
大海 100
▁Archive 100
▁Fine 100
force 100
gla 100
准确性 100
IMF 100
▁GBP 100
jar 100
▁governing 100
听说 100
录制 100
avan 100
VAT 100
UV 100
▁producers 100
大选 100
feat 100
NK 100
▁prompt 100
▁curtains 100
硕 100
▁settle 100
▁Organ 100
1948 100
▁Past 100
望着 100
▁encounter 100
track 100
流动性 100
过时 100
▁Xu 100
▁Reservations 100
▁($25 100
Christ 100
▁姓氏 100
▁Stainless 100
▁THROUGH 100
▁definitive 100
▁opponent 100
芳 100
颤抖 100
侍 100
竹 100
屏蔽 100
▁Aaron 100
澳洲 100
雕刻 100
拟订 100
▁Population 100
救赎 100
派遣 100
▁Dai 100
细菌 100
东欧的能力 100
私营部门 100
世界任何地方 100
wy 100
男士 100
▁righteous 100
▁ranking 100
▁cabinet 100
pent 100
▁Combin 100
▁Freedom 100
永生 100
▁workflow 100
▁surf 100
即使在 100
方程 100
采取措施 100
Govern 100
幻想 100
加入了 100
内核 100
▁Raf 100
▁Dell 100
主耶稣 100
▁deployed 100
极限 100
▁Sab 100
流体 100
franc 100
AMA 100
麦克 100
▁installing 100
岩石 100
外科 100
劳动者 100
ucci 100
peak 100
许多国家 100
lop 100
传动 100
▁peer 100
iba 100
屏幕上 100
nica 100
abad 100
▁Vir 100
看你 100
南海 100
NGO 100
▁IRF 100
被告 100
▁7.8 100
翼 100
▁employed 100
▁weaken 100
此外 100
航线 100
666 100
学位 100
▁sudden 100
▁arbitra 100
你自己的语言 100
layer 100
套装 100
誉 100
挥 100
毕 100
叛 100
灾害 100
翔 100
无与伦比的 100
钩 100
▁Chrome 100
▁Distributor 100
▁immigration 100
哼 100
崛起 100
蛇 100
狼 100
创始人 100
▁Mongolia 100
晕 100
▁bacteria 100
▁Constant 100
▁Conduct 100
▁tennis 100
擅 100
毫升 100
折叠 100
▁ruling 100
▁merchantability 100
▁Guidelines 100
歌剧院 100
▁Kevin 100
争端 100
▁dated 100
▁insulation 100
▁Loft 100
▁weakness 100
▁Subway 100
VIEW 100
▁Pierre 100
▁Similarly 100
▁skill 100
▁您还可以 100
计算机上 100
value 100
的旅程 100
布鲁 100
paid 100
▁SDK 100
用手 100
▁Hope 100
类似于 100
把自己 100
正好 100
中部 100
mea 100
番 100
▁beast 100
▁firmly 100
fill 100
HB 100
▁Term 100
里昂 100
▁demonstrated 100
受到了 100
▁county 100
甚至是 100
▁whereas 100
不信 100
不明白 100
▁Ship 100
更多信息 100
▁Continu 100
多媒体 100
▁impose 100
Marble 100
▁Lion 100
降临 100
stud 100
损害赔偿 100
▁frequent 100
大数据 100
Top 100
城区 100
▁mailing 100
空军 100
丶 100
▁Face 100
绑 100
多样性 100
蓄 100
▁admit 100
贞 100
郑 100
å 100
▁Nevertheless 100
▁prestigious 100
▁Voltage 100
▁copied 100
躺在 100
▁Oriental 100
▁freelance 100
操纵 100
监察 100
手工制作 100
奉献 100
截止 100
宣告 100
▁Background 100
疗法 100
▁dialog 100
▁obey 100
▁Output 100
▁Transform 100
▁Activity 100
▁Yemen 100
迹象 100
▁nonexclusive 100
人权理事会 100
转售 100
送货 100
▁Delta 100
163 100
以任何方式 100
扩 100
▁pipeline 100
▁workplace 100
龙儿 100
▁Dongguan 100
凭借 100
stress 100
protected 100
▁PVC 100
▁Grande 100
105 100
▁adaptation 100
▁Engineer 100
▁Eve 100
vir 100
岭大 100
▁Circuits 100
▁hoped 100
中国人 100
原材料 100
1962 100
是最好的 100
User 100
Profit 100
支持者 100
选择一个 100
gmail 100
运河 100
赞成 100
acial 100
解决问题 100
▁rebel 100
工作队 100
▁correspond 100
▁Unity 100
有兴趣 100
arra 100
dao 100
包容 100
▁Canal 100
怎么会 100
485 100
乃 100
FAT 100
▁anyway 100
几次 100
▁Jess 100
▁Mobil 100
▁Yuan 100
妻 100
▁arose 100
导致了 100
▁Tibet 100
Develop 100
央行 100
廊 100
▁combin 100
誓 100
辖 100
▁confident 100
兑 100
隙 100
卑 100
拖拉机 100
独一无二的 100
▁Dishwasher 100
▁complicated 100
▁eligible 100
▁terrible 100
开普敦 100
溪 100
▁Bitcoin 100
▁Austin 100
双床间 100
托马斯 100
马其顿 100
▁肛门 100
亏 100
▁valley 100
峡谷 100
▁identifiable 100
▁Angular 100
▁Hardware 100
▁Santo 100
强奸 100
薄膜 100
▁七月 100
肯尼亚 100
倾向 100
杀害 100
▁Prevention 100
▁Gateway 100
HY 100
本次 100
▁thickness 100
▁healthcare 100
▁replica 100
buri 100
主管部门 100
▁spell 100
Inter 100
▁Sharing 100
录像 100
儿童基金会 100
反对派 100
▁Macau 100
中央银行 100
▁Horse 100
▁wider 100
invest 100
▁Satan 100
▁mall 100
lapse 100
二战 100
向导 100
语法 100
price 100
把他们 100
▁Manage 100
center 100
found 100
(2010) 100
guan 100
▁vessels 100
送到 100
MAT 100
1.8 100
▁Solid 100
▁downloaded 100
必定 100
▁Asset 100
交易者 100
▁Flag 100
BLE 100
▁5.5 100
tomic 100
8000 100
搭配 100
▁broader 100
将有助于 100
▁wired 100
电台 100
卡罗 100
▁NV 100
NBA 100
136 100
▁violated 100
散热 100
防水 100
应付 100
转换为 100
▁enhancement 100
关节 100
设有带 100
完了 100
光电 100
▁deter 100
使用我们的服务 100
▁Chao 100
买方 100
展示了 100
ã 100
动机 100
INS 100
▁socio 100
第三次 100
Site 100
▁royal 100
本组织 100
缩小 100
▁poet 100
匹 100
尤其是在 100
曼彻斯特 100
學 100
卢旺达 100
衬 100
▁Exclusive 100
▁institute 100
▁rehabilitation 100
▁remarkable 100
▁surveillance 100
▁Tunisia 100
桂 100
▁Everything 100
▁silicon 100
热带风暴 100
肿瘤 100
车客渡船票 100
PORTION 100
恶劣 100
肝脏 100
伯爵 100
▁Oslo 100
漫画 100
按摩浴缸 100
▁enclose 100
桑拿浴室 100
▁birthday 100
▁missile 100
▁hyper 100
控股 100
征服 100
的准确性 100
▁altar 100
设法 100
最受欢迎的酒店 100
宁波 100
▁cure 100
▁alien 100
会见 100
装载 100
下一步 100
Sweet 100
血管 100
INA 100
送达 100
▁Thu 100
▁wherever 100
迎接 100
成像 100
▁whenever 100
▁Arabic 100
酒店坐落于 100
此项 100
Sahara 100
他没有 100
同情 100
▁Letter 100
assa 100
▁五月 100
懂 100
xxx 100
内战 100
较少 100
不幸 100
▁correctly 100
▁Had 100
我才 100
▁Esp 100
▁construct 100
▁charm 100
不一样 100
▁通过使用 100
年份 100
汉语 100
▁Verde 100
▁Beer 100
一颗 100
网球 100
抛 100
▁encrypt 100
括 100
彻 100
▁interns 100
▁interfere 100
晃 100
時 100
▁Assistance 100
▁Brochure 100
▁boutique 100
▁proximity 100
▁twelve 100
伞 100
徐 100
烂 100
▁throne 100
▁essence 100
▁statute 100
玲 100
▁beverage 100
▁dismiss 100
▁Creek 100
▁shield 100
万豪酒店 100
▁衣架 100
patitis 100
较大的 100
▁Fall 100
维持和平行动 100
的表情 100
▁Volume 100
▁mixture 100
▁Clinic 100
▁recruitment 100
▁capita 100
可怕的 100
▁的搜索结果 100
▁younger 100
欢迎您 100
保管 100
▁Robot 100
布朗 100
Template 100
auto 100
SIS 100
安娜 100
带宽 100
随之 100
加床 100
他们会 100
弗里 100
本网站提供 100
aux 100
▁consistently 100
都必须 100
▁featured 100
▁consequence 100
▁Hosting 100
earn 100
六个 100
东亚 100
▁examined 100
楼层 100
fang 100
▁Bond 100
Shift 100
▁locked 100
▁Radi 100
▁Aqua 100
▁Saul 100
▁stranger 100
三个月 100
▁的花店 100
中世纪 100
透露 100
▁LAW 100
▁geographical 100
上最大的在线船票分销网络的一部分 100
plus 100
天国 100
您的账户 100
执政 100
家园 100
▁None 100
4.0 100
颜 100
tribution 100
亨 100
一件事 100
ref 100
螺 100
投影 100
巾 100
谎 100
蚀 100
锻 100
钙 100
乐于助人 100
所罗门 100
▁extraordinary 100
▁semiconductor 100
ê 100
▁modular 100
▁socket 100
奥运会 100
垃圾邮件 100
拷贝 100
Genesis 100
的中心地带 100
忠诚 100
塑胶 100
缓冲 100
课题 100
▁policymakers 100
▁crew 100
▁Putin 100
▁Dress 100
不真实 100
▁stepped 100
▁norms 100
警报 100
精液 100
营造 100
扫罗 100
▁Tibetan 100
▁Break 100
▁Documentation 100
▁Task 100
▁alongside 100
▁tears 100
▁Priceline 100
差别 100
▁lifestyle 100
▁favour 100
这点 100
虚拟化 100
hia 100
少女 100
西藏 100
▁Clock 100
想着 100
▁stance 100
自信 100
着手 100
zzi 100
选中 100
▁7.6 100
会产生 100
穷 100
▁Ville 100
降低了 100
▁Url 100
请选择 100
emp 100
▁Feng 100
样子 100
▁sake 100
▁laughed 100
▁insight 100
▁Mit 100
iche 100
这种方式 100
chy 100
条规定 100
交易所 100
触摸 100
▁Isle 100
篮球 100
▁sustain 100
4,000 100
▁Iraqi 100
不当 100
设置为 100
抬 100
+1 100
▁Vic 100
See 100
部份 100
烦 100
辈 100
清真寺 100
р 100
▁CONTENT 100
▁Integration 100
▁Muhammad 100
▁composite 100
▁courage 100
▁hobby 100
▁nervous 100
▁vibrant 100
众议院 100
▁Silicon 100
▁电邮地址 100
凶 100
▁engaging 100
▁reiterate 100
▁nurse 100
▁constraints 100
高分辨率 100
Flickr 100
▁Desert 100
9.00 100
▁Normal 100
干嘛 100
鉴定 100
▁surgery 100
问责 100
▁Operating 100
仅限于 100
接头 100
专员 100
▁Fiber 100
背包 100
▁disposal 100
他已经 100
下跌 100
网络连接 100
之际 100
▁offset 100
(1999) 100
▁六月 100
市场营销 100
震惊 100
▁undermine 100
264 100
方法来 100
▁threatening 100
▁governor 100
second 100
但如果 100
▁dozen 100
▁Artist 100
▁curtain 100
1991 100
并确保 100
开口 100
▁discovery 100
PPT 100
ía 100
▁hardly 100
▁Esc 100
两个人 100
变成了 100
轻轻地 100
格雷 100
Bot 100
冻结 100
wire 100
TZ 100
▁earned 100
▁Prior 100
▁2.9 100
most 100
谁是 100
爱好者 100
加大 100
Get 100
Out 100
可以找到 100
▁disclosed 100
▁Say 100
373 100
▁Wide 100
9:00 100
▁lesson 100
Then 100
kle 100
赶紧 100
▁eco 100
客服 100
▁empower 100
苗 100
匆 100
▁UNICEF 100
▁pursuit 100
▁recognise 100
▁recycling 100
▁significance 100
瀑布 100
老虎机 100
▁Birmingham 100
▁Municipal 100
帅 100
委内瑞拉 100
▁regret 100
的服务器错误 100
▁recipe 100
肩膀 100
sourcing 100
▁animation 100
矢量 100
禁烟 100
∶「 100
▁Cruz 100
对话框 100
反恐 100
自助早餐 100
土著人民 100
消防 100
▁talked 100
▁encryption 100
日本人 100
▁illness 100
钢铁 100
▁classified 100
欧洲央行 100
最高法院 100
▁passport 100
▁banners 100
▁Mansion 100
环节 100
Shi 100
见解 100
Okay 100
组建 100
▁elite 100
他又 100
站起来 100
▁accountability 100
common 100
安保 100
Index 100
精力 100
的说法 100
shopping 100
▁Sau 100
园林 100
HG 100
商务酒店 100
或意外 100
▁coordinated 100
540 100
NAME 100
▁highway 100
离线 100
zip 100
的目光 100
▁Temp 100
特此 100
otte 100
好吗 100
四周 100
▁conclude 100
所使用的 100
▁Brad 100
148 100
发送到 100
工作者 100
大使馆 100
带淋浴 100
NES 100
更具 100
vik 100
地质 100
▁Understand 100
sync 100
妹 100
▁tire 100
tention 100
▁Buck 100
勘 100
讲习班 100
▁Advertising 100
▁Blowjob 100
▁Intelligence 100
▁Swimming 100
▁consolidate 100
▁cylinder 100
▁determining 100
▁furnace 100
▁gauge 100
▁literature 100
▁spectrum 100
愧 100
班车服务 100
▁durable 100
▁utilizing 100
醇 100
希伯来 100
通货膨胀 100
▁Imperial 100
设备齐全的厨房 100
▁Scripture 100
▁horizontal 100
救济 100
激素 100
指责 100
盟友 100
▁Stephen 100
▁conservation 100
▁cooperative 100
误导 100
冲浪 100
肉棒 100
▁Overall 100
康复 100
亲爱的 100
买卖 100
运送 100
性爱 100
▁authentication 100
▁authorization 100
公共交通 100
▁chairman 100
冰岛 100
正在寻找 100
殖民地 100
▁Drama 100
▁conveyor 100
▁Annex 100
▁的点评 100
▁Pump 100
期权 100
▁Format 100
▁Jet 100
rack 100
Let 100
▁Spot 100
Please 100
process 100
▁Quar 100
此前 100
(2011) 100
1965 100
在意大利 100
您的密码 100
项下 100
拿出 100
相对于 100
好奇 100
安拉 100
第三个 100
▁accurately 100
了解更多 100
进而 100
1947 100
较大 100
斯特拉 100
▁shake 100
▁deepen 100
婴 100
▁undergo 100
臭 100
娱乐场 100
Tree 100
▁Vari 100
您应 100
嫌 100
破碎 100
▁recruit 100
佛罗里达州 100
帆 100
挪 100
榜 100
赋 100
开发计划署 100
媒介 100
ë 100
▁Solomon 100
▁Strategic 100
▁anticipate 100
▁diagnosis 100
▁diagnostic 100
▁subsidiary 100
▁上次在线 100
实业股份有限公司 100
猴 100
▁Monument 100
▁crusher 100
▁unlawful 100
▁smiling 100
俊 100
▁很抱歉 100
修道院 100
▁warehouse 100
▁Rapid 100
矩阵 100
▁advisory 100
▁Launch 100
▁variant 100
信誉 100
节奏 100
▁Optional 100
▁Progress 100
波尔图 100
强劲 100
开始撰写 100
最喜欢的 100
▁KIND 100
救援 100
▁mature 100
把手 100
▁prisoners 100
预订费 100
地产 100
假如 100
日落 100
非常适合 100
▁relate 100
bate 100
代表大会 100
▁excluded 100
着重 100
911 100
▁promotional 100
您所在 100
▁prompted 100
pac 100
攻击者 100
depth 100
carbon 100
▁若要 100
民族主义 100
▁Connection 100
▁outlet 100
▁victim 100
▁seminar 100
▁$10 100
▁ISL 100
Explo 100
▁restored 100
安置 100
纳斯 100
fan 100
claim 100
▁Bund 100
我怎么 100
2030 100
▁Mario 100
及相关 100
点按 100
心理学 100
▁Ul 100
你喜欢 100
意义上 100
一千 100
burn 100
妇人 100
克里斯 100
Game 100
反复 100
1966 100
数据恢复 100
区分 100
方法是 100
负责任 100
base 100
omplimentary 100
亚美尼亚 100
范畴 100
碱 100
▁chocolate 100
▁dishwasher 100
▁mortgage 100
▁Veeam 100
▁depression 100
▁iDate 100
▁熨衣设备 100
▁chinese 100
▁confess 100
▁theoretical 100
呻吟 100
▁Resident 100
compliant 100
庇护 100
地理位置优越 100
纪念碑 100
▁exclusion 100
公交车 100
奥斯陆 100
▁Packaging 100
▁adverse 100
壁炉 100
▁journalists 100
楼梯 100
排序 100
干涉 100
闪存 100
重庆 100
刚果 100
真诚 100
▁ranging 100
破碎机 100
制止 100
退房 100
▁observers 100
粒子 100
▁Alpha 100
日起 100
▁stir 100
好评 100
▁酒店星级 100
158 100
stead 100
辩护 100
odor 100
每人 100
新增 100
怀里 100
▁$9 100
TPP 100
iPod 100
author 100
economic 100
只有一个 100
人民政府 100
▁Julie 100
我不想 100
一股 100
▁Never 100
copy 100
Did 100
1-2 100
转化 100
▁Bab 100
沙发上 100
▁fleet 100
大声 100
▁PCI 100
hunt 100
新一代 100
▁recovered 100
▁Mata 100
▁Sony 100
仆 100
打开了 100
最重要的是 100
特权 100
该系统 100
151 100
乐观 100
一根 100
背景下 100
Sun 100
▁Sense 100
▁Wire 100
online 100
一些国家 100
这个世界 100
▁specification 100
通风 100
著作权 100
▁matches 100
都没 100
无力 100
劳工 100
外包 100
普吉岛 100
▁Manor 100
设立了 100
▁Lou 100
梁 100
溜 100
薇 100
▁Slovakia 100
▁celebration 100
国际货币基金组织 100
撕 100
▁evident 100
▁phpBB 100
鑫 100
▁visibility 100
▁pillar 100
描绘 100
行动纲领 100
浴袍 100
▁trillion 100
parquet 100
▁gaming 100
▁racial 100
硬盘驱动器 100
短暂 100
脉冲 100
▁APK 100
▁verified 100
PRI 100
难题 100
▁scanning 100
▁ought 100
手工 100
报复 100
▁Transportation 100
相连 100
▁lord 100
可根据 100
渔业 100
古代 100
100,000 100
▁Hydro 100
水泥 100
cili 100
洪水 100
确立 100
▁Dear 100
▁boom 100
电视台 100
行驶 100
▁slid 100
全自动 100
简直 100
[10 100
坐下 100
已删除 100
一致性 100
件事 100
确切 100
触发 100
当您 100
种族主义 100
对妇女 100
▁Bau 100
▁Hack 100
IGN 100
次区域 100
深化 100
废物 100
1963 100
▁Lighting 100
最先进的 100
各大 100
brook 100
外交部 100
▁Tap 100
▁Bee 100
▁personalized 100
▁Diet 100
▁Grad 100
伸出 100
录音 100
者们 100
▁PRODUCT 100
海水 100
用户体验 100
privilege 100
166 100
逗 100
▁Vene 100
寸 100
债权人 100
INFRINGEMENT 100
¶ 100
̧ 100
▁Challenge 100
▁biennium 100
▁capacities 100
▁fragment 100
▁humidity 100
▁inconsistent 100
▁intensity 100
▁panoramic 100
而对您或任何第三者承担任何责 100
苯 100
▁fraud 100
▁grateful 100
捕捉 100
历史悠久的 100
▁consciousness 100
一整天 100
▁RAID 100
渐渐 100
贸发会议 100
▁mercy 100
▁Salesforce 100
▁brown 100
一口气 100
耳朵 100
▁Governor 100
▁bicycle 100
▁Complex 100
孟买 100
游艇 100
▁affiliated 100
现有条目 100
评审 100
▁Unlike 100
▁Fitness 100
▁tiny 100
▁Everyone 100
给你们 100
▁Honey 100
▁Rain 100
▁revolutionary 100
电子邮箱 100
光谱 100
数百万 100
▁disable 100
▁attachment 100
▁awake 100
渡轮在线 100
局面 100
HM 100
▁WHO 100
协商后 100
▁threatened 100
▁Bright 100
就此 100
▁protective 100
bag 100
ipping 100
1.4 100
PACK 100
EVER 100
▁Organic 100
产品质量 100
软件包 100
人权委员会 100
× 100
▁autonomous 100
big 100
可随时 100
fish 100
拿起 100
都需要 100
▁Wave 100
enza 100
北方 100
▁acceptable 100
▁flying 100
中国大陆 100
可能无法 100
我方 100
MIL 100
船只 100
便可 100
Add 100
▁propose 100
▁illustrat 100
▁initiat 100
▁parliament 100
601 100
rica 100
年初 100
护士 100
▁sail 100
BIT 100
悔 100
Origin 100
摘 100
合作关系 100
撰写 100
迅 100
慧 100
▁8.6 100
▁Ecuador 100
▁Furniture 100
▁Guatemala 100
▁NUMBER 100
▁Summary 100
▁doctrine 100
▁economist 100
▁excitement 100
▁turbine 100
碧 100
全方位 100
啥 100
▁delegate 100
巴拿马 100
聚合物 100
▁Reply 100
倡导 100
▁automobile 100
延续 100
模糊 100
▁Regulations 100
▁Submission 100
▁Storm 100
声誉 100
违约 100
邻近 100
射击 100
冬天 100
解析 100
▁Delete 100
生命周期 100
工具栏 100
多年的 100
等离子 100
基础架构 100
▁Pure 100
▁exam 100
超市 100
一封 100
ADI 100
来自于 100
▁Wales 100
email 100
▁slight 100
金融服务 100
越来越多 100
矿物 100
▁CHI 100
▁True 100
▁Mun 100
马赛 100
▁Fight 100
NR 100
▁configured 100
efficient 100
German 100
Type 100
运费 100
▁如果没有 100
发表了 100
igi 100
国家和地区 100
很喜欢 100
游行 100
▁annually 100
更低 100
流感 100
商用 100
▁manufactured 100
被发现 100
宽带 100
Leg 100
Wifi 100
▁mixing 100
▁Standing 100
▁assumed 100
quin 100
和灵活性 100
瓦克 100
TURE 100
▁regulator 100
遵 100
▁Prof 100
裸 100
惩 100
鹅 100
傲 100
iktionary 100
▁Avenida 100
▁Currency 100
▁Individual 100
▁Montenegro 100
▁Properties 100
▁Valentine 100
▁中等价格区间 100
呵呵 100
科威特 100
青睐 100
▁Mexican 100
▁Moldova 100
剪辑 100
▁emotions 100
杏 100
鹿 100
▁Hawaii 100
奖学金 100
▁auction 100
▁rotation 100
▁territorial 100
爵士 100
酒廊 100
弗雷 100
弯曲 100
剩下的 100
罕见 100
颁布 100
▁hydrogen 100
▁scanner 100
结尾 100
产出 100
引领 100
社交网络 100
▁Carpet 100
谈话 100
客观 100
后悔 100
多名 100
290 100
▁sinner 100
布置 100
▁formulation 100
阴道 100
连接浴室 100
205 100
缺点 100
最大化 100
▁Ground 100
▁Boat 100
数控 100
▁devoted 100
感动 100
▁distinction 100
规章 100
lusive 100
▁identifying 100
大桥 100
损伤 100
高精度 100
这一次 100
吉尔 100
本公约 100
我们知道 100
▁reflection 100
▁Socialist 100
▁mood 100
▁constitution 100
▁instruction 100
吸引了 100
1.9 100
传说 100
▁Lost 100
▁projection 100
RED 100
都知道 100
国家安全 100
神话 100
小镇 100
GRE 100
iye 100
成品 100
筹资 100
申报 100
您的浏览器 100
两名 100
▁header 100
颁 100
允 100
河畔 100
奴 100
使用权 100
▁reaffirm 100
▁Renaissance 100
▁encouraging 100
▁intuitive 100
▁sublicense 100
▁threshold 100
▁唤醒服务 100
瘦 100
肢 100
飘 100
▁activist 100
▁gently 100
▁tunnel 100
侠 100
跪 100
亚马逊 100
辊 100
检察官 100
忍不住 100
▁lodge 100
噪声 100
▁AutoCAD 100
▁cinema 100
▁naked 100
负荷 100
迫切 100
今晚 100
▁uncertainty 100
壮丽 100
推迟 100
zia 100
隐私权政策 100
活着 100
包围 100
如果我们 100
街上 100
动荡 100
▁Eurostar 100
▁Praha 100
▁Jeff 100
▁Grace 100
外交政策 100
75.0 100
hav 100
净化 100
(1998) 100
头脑 100
起初 100
WHOIS 100
▁RMB 100
▁unified 100
肯定会 100
黑山 100
Virtu 100
▁INR 100
宪 100
网并不 100
多少钱 100
制约 100
很久 100
304 100
扫描仪 100
20,000 100
▁projector 100
▁urged 100
之所以 100
ERA 100
推出了 100
注塑 100
▁crown 100
激进 100
美国政府 100
Girl 100
cultural 100
food 100
weight 100
mou 100
无线电 100
▁Teen 100
1958 100
去看 100
这里是 100
▁Hui 100
1989 100
Sync 100
九十 100
花束 100
岭 100
存在于 100
phon 100
吉他 100
暂 100
ifies 100
▁breathing 100
拘 100
募 100
怨 100
糟 100
▁OBTAIN 100
▁Palestine 100
▁Resolution 100
▁SYSTEM 100
▁activation 100
▁bandwidth 100
▁decisive 100
▁unenforceable 100
旷野 100
▁Amenities 100
▁excited 100
▁newsletter 100
▁不幸的是 100
揉 100
▁pioneer 100
路由器 100
棚 100
捐赠 100
▁Mosque 100
骚扰 100
▁inequality 100
▁Agenda 100
▁ASEAN 100
揭示 100
赞扬 100
▁Hanoi 100
监禁 100
修正案 100
礼宾 100
防治 100
代谢 100
cp 100
▁Hanz 100
▁abide 100
订阅用户 100
华丽 100
132 100
信托 100
▁repeatedly 100
联邦政府 100
霍尔 100
自然资源 100
主条目 100
▁Navi 100
▁illustration 100
加里 100
▁bold 100
帮我 100
▁Terra 100
▁solo 100
高峰 100
▁AVE 100
身份证 100
▁burnt 100
过期 100
safe 100
▁Castell 100
« 100
▁characteristic 100
社会保障 100
我们不会 100
传来 100
激发 100
▁suspended 100
▁酒店设有 100
ée 100
▁JU 100
DNS 100
▁translated 100
联网 100
后台 100
GLD 100
2.4 100
重要作用 100
▁Epi 100
ISE 100
门锁 100
▁Mak 100
▁Surf 100
煮 100
▁Essential 100
▁LIMITATION 100
▁resurrection 100
▁securities 100
▁stomach 100
厄瓜多尔 100
瓦伦西亚 100
詹姆斯 100
▁clause 100
▁Sebasti 100
▁greet 100
▁Landscape 100
赚钱 100
▁Himself 100
多样化 100
切削 100
▁Kitchenette 100
豪华的公寓 100
商誉 100
在任何时候 100
惊喜 100
qiao 100
依旧 100
巴塞尔 100
▁moderate 100
▁Layer 100
黑客 100
▁submitting 100
▁Recent 100
两项 100
云计算 100
EVEN 100
▁STPS 100
系数 100
成都 100
董事长 100
施行 100
▁Whatever 100
▁coupon 100
▁subway 100
告诉你们 100
▁Tits 100
▁MAY 100
在加拿大 100
所涉 100
化妆品 100
数千 100
光明 100
▁estimate 100
▁constructed 100
Option 100
了解有关 100
▁cord 100
必须要 100
udge 100
街头 100
▁sincere 100
临到 100
valet 100
有不到 100
速率 100
该组织 100
223 100
合法性 100
account 100
▁resolved 100
开采 100
其他网站 100
方便地 100
Drive 100
大多数人 100
请访问 100
宝贵 100
请点击 100
hab 100
进出口 100
▁Convert 100
etc 100
杀了 100
积极参与 100
一般性 100
国际化 100
阿德 100
不懂 100
扑 100
肌 100
炸 100
贺 100
用户名和密码 100
Uzbekistan 100
phosph 100
▁Arizona 100
▁Inspection 100
▁Response 100
▁calibration 100
▁disadvantage 100
▁physics 100
▁unexpected 100
▁vSphere 100
铲 100
▁surplus 100
怜悯 100
▁无障碍设施 100
膝 100
筋 100
逾 100
來 100
危地马拉 100
豁免 100
乌兹别克斯坦 100
妥协 100
▁denied 100
▁indication 100
考验 100
▁pride 100
▁scroll 100
柔软 100
硬币 100
摄影师 100
为客人提供 100
▁arbitrary 100
▁Jinping 100
传达 100
▁Preparat 100
▁perception 100
苦难 100
轻易 100
没有隐藏的 100
▁lease 100
密集 100
山区 100
shaped 100
儿女 100
▁Homemade 100
▁marry 100
▁underground 100
▁interval 100
胸部 100
赞美 100
和平与安全 100
▁Norman 100
▁validity 100
▁Siem 100
▁odd 100
字体 100
免除 100
lingual 100
quer 100
▁Iranian 100
isan 100
提供的服务 100
信件 100
▁speaker 100
▁Kual 100
不承担责任 100
3.8 100
▁emphasized 100
▁exploited 100
▁mainland 100
北约 100
▁meaningful 100
航天 100
经济和社会 100
看待 100
证人 100
十六条 100
▁Fax 100
naya 100
neu 100
keeper 100
▁wipe 100
icular 100
▁suspected 100
▁Phra 100
侯龙涛 100
About 100
▁uphold 100
Internet 100
关上 100
应力 100
▁personality 100
164 100
▁Mega 100
[...]
