, 100
. 100
▁the 100
▁, 100
s 100
▁ 100
▁and 100
▁of 100
▁to 100
의 100
▁in 100
) 100
▁a 100
: 100
- 100
에 100
▁( 100
▁1 100
을 100
▁- 100
▁is 100
를 100
▁전 100
는 100
▁for 100
( 100
▁2 100
▁ago 100
이 100
▁you 100
은 100
▁수 100
▁3 100
' 100
에서 100
가 100
▁with 100
▁that 100
▁on 100
▁The 100
ing 100
▁있습니다 100
▁" 100
▁from 100
ed 100
과 100
로 100
▁및 100
▁4 100
▁xHamster 100
▁년 100
▁your 100
▁be 100
▁이 100
와 100
▁I 100
▁are 100
▁or 100
▁Hotel 100
▁by 100
▁5 100
▁Datasheet 100
▁it 100
d 100
▁as 100
▁) 100
? 100
▁was 100
▁데이터시트 100
/ 100
한 100
▁at 100
▁보기 100
▁그 100
▁years 100
▁not 100
▁can 100
a 100
" 100
▁Page 100
▁호텔 100
t 100
으로 100
▁have 100
▁this 100
▁개월 100
▁map 100
▁all 100
e 100
도 100
▁will 100
▁A 100
er 100
▁6 100
하는 100
▁an 100
2 100
지 100
; 100
고 100
하고 100
▁있는 100
4 100
... 100
3 100
▁he 100
S 100
▁months 100
할 100
▁모든 100
▁km 100
1 100
C 100
ly 100
▁his 100
A 100
B 100
▁7 100
D 100
▁10 100
y 100
▁더 100
▁In 100
▁year 100
▁8 100
인 100
PDF 100
▁B 100
▁주 100
▁which 100
com 100
▁한 100
입니다 100
o 100
▁또는 100
▁And 100
▁they 100
기 100
▁: 100
▁more 100
지도 100
! 100
▁HTML 100
스 100
▁HD 100
▁. 100
년 100
▁9 100
▁S 100
▁대한 100
▁Texas 100
▁Instruments 100
▁de 100
▁내 100
6 100
▁big 100
▁has 100
5 100
▁their 100
▁we 100
Show 100
다 100
▁one 100
▁다른 100
n 100
라 100
합니다 100
m 100
▁them 100
일 100
8 100
▁할 100
Datasheet 100
▁up 100
▁but 100
▁지도 100
▁위해 100
▁C 100
7 100
▁11 100
▁our 100
▁hotel 100
▁M 100
al 100
i 100
r 100
▁경우 100
▁& 100
나 100
리 100
▁show 100
▁also 100
-10 100
T 100
어 100
자 100
▁time 100
▁do 100
▁God 100
▁This 100
G 100
▁We 100
▁PornHub 100
▁E 100
▁18 100
es 100
▁other 100
▁/ 100
in 100
사 100
▁shall 100
▁my 100
된 100
하여 100
HTML 100
▁him 100
pages 100
▁out 100
▁United 100
▁when 100
▁about 100
M 100
▁who 100
▁were 100
▁ST 100
▁data 100
시 100
re 100
▁중 100
서 100
P 100
▁가장 100
▁any 100
▁It 100
K 100
▁use 100
L 100
월 100
▁많은 100
하기 100
▁P 100
9 100
▁He 100
했다 100
하지 100
] 100
▁available 100
▁G 100
▁new 100
▁Windows 100
해 100
▁me 100
▁amateur 100
0 100
F 100
R 100
th 100
▁had 100
▁You 100
▁제공합니다 100
V 100
▁so 100
E 100
트 100
아 100
▁일 100
." 100
c 100
▁미국 100
▁D 100
▁R 100
▁into 100
h 100
분 100
▁그리고 100
▁K 100
▁함께 100
에게 100
▁may 100
▁[ 100
▁| 100
▁its 100
▁내가 100
▁12 100
▁ass 100
or 100
▁tits 100
▁15 100
적 100
▁Analdin 100
▁' 100
게 100
▁there 100
▁New 100
▁If 100
N 100
▁people 100
▁호스텔 100
▁no 100
▁것을 100
▁때 100
▁같은 100
▁only 100
만 100
▁서비스 100
▁if 100
▁0 100
▁technique 100
▁있다 100
▁에 100
W 100
▁said 100
▁For 100
-1 100
하게 100
en 100
▁first 100
▁20 100
▁system 100
드 100
수 100
k 100
▁Street 100
▁over 100
▁like 100
X 100
▁information 100
▁T 100
▁그는 100
on 100
▁F 100
le 100
▁US 100
▁30 100
▁두 100
▁V 100
▁stay 100
▁@ 100
H 100
▁KAYAK 100
▁than 100
▁file 100
▁고 100
▁X 100
ll 100
▁My 100
▁hotels 100
▁City 100
▁– 100
▁O 100
▁To 100
▁가 100
▁통해 100
▁been 100
적인 100
▁such 100
▁시 100
성 100
▁후 100
▁best 100
Microelectronics 100
▁W 100
▁us 100
▁N 100
I 100
▁파일 100
▁하는 100
▁또한 100
▁H 100
▁사용 100
▁일본 100
▁most 100
▁States 100
f 100
▁인 100
▁Free 100
▁her 100
▁그의 100
▁위한 100
▁것입니다 100
▁여행 100
▁하 100
g 100
Fiche 100
an 100
▁합니다 100
▁make 100
▁L 100
▁다 100
$ 100
▁Porn 100
x 100
to 100
▁의 100
▁after 100
▁La 100
▁된 100
▁days 100
▁No 100
▁대 100
▁world 100
J 100
▁re 100
▁이탈리아 100
면 100
▁큰 100
르 100
O 100
▁Search 100
▁files 100
▁Inc 100
들이 100
ers 100
주 100
l 100
▁아 100
▁help 100
▁Park 100
p 100
▁these 100
▁새로운 100
▁San 100
▁mature 100
b 100
니 100
▁Mac 100
히 100
▁RF 100
▁16 100
장 100
이다 100
▁man 100
▁복구 100
▁milf 100
비 100
▁아마츄어 100
▁Via 100
마 100
▁... 100
74 100
▁정보 100
▁two 100
까지 100
▁find 100
화 100
▁many 100
▁24 100
▁De 100
_ 100
▁day 100
▁then 100
▁데이터 100
대 100
▁More 100
소 100
▁anal 100
▁month 100
▁14 100
▁동안 100
▁work 100
▁Road 100
▁예약 100
▁까지 100
▁before 100
▁우리는 100
치 100
▁제 100
Â 100
▁service 100
▁바 100
▁Hotels 100
▁some 100
▁free 100
에는 100
야 100
부 100
크 100
▁made 100
▁당신은 100
▁19 100
▁used 100
들을 100
▁그러나 100
able 100
▁추가 100
u 100
▁get 100
▁무료 100
▁JizzBunker 100
들 100
▁파일을 100
▁drive 100
▁what 100
▁(18+) 100
na 100
▁데 100
▁through 100
▁St 100
▁within 100
ation 100
▁것이 100
▁software 100
▁city 100
▁see 100
▁17 100
10 100
전 100
▁비 100
▁Pro 100
▁따라 100
▁would 100
▁J 100
▁high 100
▁unto 100
세 100
들은 100
▁weeks 100
▁있도록 100
ion 100
▁PDF 100
▁Italy 100
▁숙박 100
us 100
▁With 100
▁세 100
▁13 100
▁다시 100
▁나 100
st 100
Y 100
▁08:00 100
타 100
▁오 100
하며 100
▁Inn 100
▁있으며 100
▁검색 100
▁From 100
용 100
▁제공 100
▁U 100
▁apartment 100
▁대해 100
▁House 100
됩니다 100
▁When 100
▁where 100
▁datos 100
v 100
Hoj 100
바 100
▁need 100
▁even 100
하 100
▁how 100
z 100
▁want 100
▁business 100
▁But 100
러 100
▁사 100
▁using 100
▁video 100
▁자 100
page 100
▁set 100
▁very 100
▁View 100
▁travel 100
▁Beach 100
원 100
▁TXXX 100
▁just 100
ic 100
▁다음 100
▁way 100
오 100
▁japanese 100
▁나는 100
de 100
▁네 100
▁우리 100
▁상품을 100
미 100
신 100
▁BravoTube 100
▁것 100
개 100
& 100
ar 100
▁섹스 100
▁wife 100
▁old 100
▁teen 100
▁다운로드 100
▁Now 100
▁offers 100
▁go 100
레 100
▁등 100
▁Technology 100
한다 100
▁좋은 100
▁well 100
▁deal 100
ve 100
▁제품 100
▁small 100
상 100
▁good 100
▁away 100
▁당신이 100
▁호텔은 100
▁GotPorn 100
▁now 100
Z 100
▁지금 100
제 100
▁위치 100
ra 100
▁access 100
▁그것은 100
▁게임 100
▁어떤 100
▁take 100
man 100
▁다양한 100
보 100
▁All 100
▁비디오 100
km 100
요 100
ia 100
▁cock 100
▁know 100
▁name 100
▁당신의 100
▁should 100
카 100
▁d 100
▁의해 100
▁될 100
▁come 100
▁located 100
▁마 100
ro 100
▁이러한 100
▁So 100
▁Jesus 100
▁great 100
▁관리 100
▁영국 100
▁보 100
▁개의 100
▁life 100
▁또 100
▁자신의 100
▁태그 100
® 100
프 100
est 100
이나 100
▁사용하여 100
▁여호와 100
실 100
구 100
우 100
▁car 100
▁book 100
며 100
▁because 100
즈 100
▁사진 100
▁사용자 100
▁between 100
▁sex 100
되어 100
▁LORD 100
▁큰가슴 100
식 100
▁시스템 100
해야 100
▁지원 100
▁해 100
▁group 100
▁25 100
▁스 100
▁말 100
▁every 100
▁place 100
▁back 100
진 100
▁Hostel 100
▁SN 100
▁신 100
▁As 100
▁최고의 100
▁모두 100
▁것은 100
el 100
▁TS 100
▁Re 100
▁전체 100
▁지 100
적으로 100
U 100
▁섹시한중년여성 100
▁un 100
▁datasheet 100
▁same 100
▁않습니다 100
▁public 100
▁것이다 100
000 100
▁right 100
▁가지 100
▁close 100
▁위치한 100
했습니다 100
되는 100
▁많이 100
▁기타 100
▁Israel 100
ity 100
▁found 100
▁때문에 100
▁Pages 100
▁Â 100
▁XXXDan 100
▁Q 100
▁those 100
▁Home 100
at 100
▁Z 100
25 100
▁거리에 100
▁매우 100
▁개 100
▁Co 100
▁minutes 100
12 100
선 100
▁LM 100
▁while 100
16 100
▁hard 100
▁아시아 100
▁없습니다 100
▁number 100
그 100
▁own 100
ment 100
▁near 100
▁선택 100
▁가능 100
▁> 100
▁사람 100
정 100
▁그들은 100
▁센터 100
형 100
▁Center 100
▁이스라엘 100
▁미 100
▁사용할 100
▁편집 100
20 100
▁game 100
w 100
▁South 100
▁How 100
▁Villa 100
li 100
▁Museum 100
▁우리가 100
▁Apartment 100
▁house 100
ur 100
▁우리의 100
▁blowjob 100
▁시간 100
▁Al 100
▁York 100
▁중국 100
un 100
▁22 100
▁비즈니스 100
▁유 100
▁process 100
▁There 100
it 100
▁p 100
▁against 100
18 100
▁power 100
▁여러 100
▁열 100
co 100
▁귀하의 100
ta 100
노 100
▁walk 100
▁black 100
▁down 100
▁세계 100
▁view 100
모 100
▁산 100
동 100
▁부 100
▁different 100
te 100
15 100
▁무 100
▁services 100
▁개인 100
▁mom 100
▁page 100
▁정보를 100
▁PC 100
▁볼 100
▁e 100
▁같이 100
▁came 100
▁On 100
▁나이든여자 100
▁21 100
▁아니라 100
▁성 100
▁Book 100
▁week 100
▁part 100
▁그가 100
하거나 100
▁each 100
▁support 100
ty 100
▁프리 100
티 100
▁Do 100
▁sites 100
▁without 100
da 100
ch 100
▁natural 100
▁including 100
is 100
▁그들의 100
▁At 100
▁home 100
▁아들 100
ry 100
하면 100
ton 100
▁lesbian 100
▁몇 100
▁찾아 100
▁Semiconductor 100
▁m 100
▁스타일 100
▁miles 100
▁고객 100
ma 100
차 100
▁children 100
▁Lord 100
▁king 100
▁did 100
▁소프트웨어 100
에서는 100
디 100
▁What 100
▁Airport 100
▁소 100
▁International 100
▁총 100
▁# 100
▁각 100
▁under 100
▁offer 100
▁One 100
▁사이트를 100
▁she 100
▁hand 100
27 100
▁must 100
ent 100
▁안 100
▁room 100
터 100
▁시설 100
80 100
ne 100
여 100
▁하나님의 100
▁높은 100
조 100
▁로 100
ive 100
▁발 100
▁알 100
minute 100
Q 100
▁시작 100
▁Royalty 100
▁They 100
▁아내 100
▁23 100
▁05:00 100
▁이는 100
la 100
▁불 100
▁데이터를 100
11 100
▁design 100
▁asian 100
▁heart 100
star 100
▁정 100
▁위하여 100
▁men 100
▁products 100
▁로열티 100
il 100
▁구 100
ca 100
ri 100
▁리 100
되었다 100
▁area 100
▁am 100
▁모 100
ul 100
▁기술 100
30 100
▁피 100
▁카 100
se 100
▁blonde 100
당 100
▁+ 100
파 100
▁2015 100
▁around 100
▁웹 100
14 100
▁하드 100
▁26 100
▁here 100
▁가슴 100
no 100
ist 100
▁도 100
▁공항 100
▁어머니 100
▁분 100
▁China 100
▁son 100
▁너희 100
▁기 100
▁young 100
물 100
▁서비스를 100
루 100
et 100
▁Le 100
위 100
▁three 100
▁Not 100
▁long 100
▁provides 100
▁land 100
토 100
▁TV 100
▁부터 100
단 100
ter 100
▁TL 100
▁English 100
산 100
▁type 100
▁XoZilla 100
▁어떻게 100
▁레즈비언 100
▁서 100
the 100
▁배 100
▁stars 100
▁both 100
up 100
▁computer 100
▁설치 100
▁모델 100
▁upon 100
ie 100
계 100
▁accommodation 100
ness 100
▁과 100
▁지역 100
하였다 100
▁Kingdom 100
▁Be 100
▁card 100
▁hundreds 100
40 100
▁Your 100
년에 100
▁본 100
▁control 100
▁온라인 100
▁Y 100
ian 100
j 100
▁인터넷 100
되지 100
▁water 100
▁도시 100
▁28 100
▁수백 100
보다 100
▁Microsoft 100
체 100
▁Christ 100
▁전에 100
▁운영 100
▁곧 100
▁새 100
▁에서 100
▁application 100
▁확인 100
시간 100
26 100
▁much 100
▁방법 100
▁National 100
▁An 100
▁좋아하는 100
▁설정 100
▁personal 100
▁end 100
▁차 100
려 100
▁OS 100
▁버전 100
하십시오 100
▁based 100
▁와 100
▁times 100
TR 100
▁Di 100
▁일부 100
▁개발 100
▁Japanese 100
▁저장 100
▁큰엉덩이 100
▁things 100
▁Google 100
ce 100
▁수있는 100
▁xhamster 100
유 100
▁삭제 100
▁사람이 100
▁USB 100
코 100
관 100
명 100
▁않는 100
▁2016 100
24 100
거 100
▁온 100
▁does 100
▁Outlook 100
▁University 100
▁응용 100
▁babe 100
▁최대 100
▁50 100
▁again 100
▁mi 100
02 100
더 100
▁features 100
▁By 100
▁click 100
▁quality 100
▁content 100
▁user 100
▁masturbation 100
▁could 100
▁full 100
피 100
▁러시아 100
32 100
▁관련 100
버 100
▁아마추어 100
▁라 100
개의 100
▁online 100
▁important 100
무 100
네 100
▁100 100
▁원 100
▁물 100
브 100
▁being 100
▁account 100
▁called 100
▁give 100
들의 100
데 100
▁Download 100
ol 100
▁연결 100
lo 100
라고 100
▁가지고 100
▁â 100
될 100
▁World 100
▁during 100
▁보호 100
▁금발 100
▁thou 100
린 100
way 100
이며 100
▁이상 100
▁guests 100
▁중요한 100
▁상 100
▁AD 100
▁27 100
▁thy 100
▁di 100
▁해당 100
▁검색하여 100
▁기계 100
▁bbw 100
▁Paris 100
▁order 100
▁device 100
▁YouPorn 100
▁공 100
id 100
▁영 100
▁off 100
▁나의 100
ci 100
as 100
▁Red 100
▁그들이 100
▁여자 100
▁파 100
▁provide 100
mm 100
▁단 100
▁아니 100
던 100
되고 100
▁fetish 100
▁잘 100
▁product 100
▁London 100
▁family 100
▁들어 100
▁Station 100
문 100
▁보안 100
31 100
▁tool 100
▁정도 100
▁를 100
▁rooms 100
▁맞는 100
▁His 100
age 100
▁users 100
▁선 100
▁hd 100
01 100
▁하고 100
키 100
▁love 100
▁May 100
va 100
▁Car 100
▁don 100
▁변경 100
회 100
▁property 100
▁현재 100
▁RedTube 100
▁brunette 100
▁West 100
▁massage 100
▁experience 100
▁주요 100
me 100
▁center 100
국 100
습니다 100
▁food 100
▁앱 100
▁per 100
▁stockings 100
▁went 100
질 100
방 100
호 100
am 100
ir 100
▁하나님 100
▁Then 100
▁가능한 100
▁Components 100
▁생산 100
▁쉽게 100
▁open 100
13 100
eth 100
▁i 100
▁40 100
▁Man 100
로부터 100
▁카드 100
▁She 100
▁여 100
▁74 100
:19 100
▁못 100
▁Un 100
▁약 100
▁say 100
▁스타킹 100
▁interracial 100
안 100
▁c 100
▁없는 100
▁그룹 100
▁표시 100
▁solo 100
▁Remo 100
▁storage 100
’ 100
land 100
되었습니다 100
▁Apple 100
▁double 100
▁shemale 100
▁나를 100
▁CD 100
â 100
▁Best 100
▁29 100
▁reviews 100
▁드라이브 100
▁ye 100
▁유지 100
▁바로 100
▁강 100
di 100
▁거 100
go 100
and 100
▁Electronics 100
▁스포츠 100
▁할인 100
▁예약하세요 100
▁32 100
▁코 100
▁Ro 100
▁Bar 100
▁URL 100
▁애널 100
▁왕 100
22 100
▁어 100
음 100
▁첫 100
▁하지만 100
▁El 100
▁outdoor 100
▁2018 100
ti 100
▁orgasm 100
▁High 100
▁제공하는 100
The 100
▁Corporation 100
ga 100
▁compilation 100
▁디자인 100
▁우 100
▁국제 100
▁co 100
▁next 100
▁Ho 100
▁Devices 100
▁cumshot 100
중 100
ies 100
▁필요한 100
▁include 100
▁작은 100
▁local 100
▁않은 100
▁example 100
mo 100
um 100
19 100
▁Go 100
▁Na 100
테 100
+ 100
▁location 100
▁그리스도 100
▁another 100
▁기능 100
TM 100
▁girl 100
▁이미지 100
▁After 100
▁put 100
▁거유 100
▁판매 100
▁연구 100
▁Resort 100
▁North 100
▁객실 100
▁제거 100
부터 100
▁searches 100
▁performance 100
▁등이 100
▁설계 100
▁주변 100
28 100
▁SM 100
▁night 100
▁party 100
▁Data 100
os 100
▁수도 100
▁change 100
▁딱 100
▁short 100
▁machine 100
▁프로그램 100
▁장치 100
▁Con 100
▁Android 100
do 100
▁Drive 100
▁company 100
▁뉴욕 100
ha 100
▁마사지 100
▁following 100
55 100
행 100
▁live 100
▁app 100
im 100
▁이것은 100
ine 100
▁숙박시설 100
▁여호와께서 100
▁] 100
▁조 100
▁사까시 100
ni 100
▁특가 100
▁website 100
들과 100
▁수음 100
▁자지 100
▁Our 100
min 100
▁date 100
▁포함 100
▁대학 100
ka 100
▁light 100
▁Art 100
▁real 100
▁교육 100
▁이동 100
저 100
▁동 100
▁코드 100
▁x 100
▁있고 100
▁Click 100
▁○ 100
08 100
▁이후 100
▁구성 100
▁인도 100
매 100
▁France 100
▁let 100
▁Wi 100
▁한다 100
▁applications 100
▁명 100
▁때에 100
▁위 100
▁few 100
▁방 100
▁입 100
▁만 100
▁줄 100
▁train 100
AC 100
거나 100
ate 100
▁도와드립니다 100
있는 100
▁last 100
▁create 100
▁07:00 100
one 100
▁네트워크 100
▁2012 100
▁average 100
▁설명 100
▁프랑스 100
▁평균 100
▁측정 100
▁기능을 100
son 100
연 100
▁예 100
▁Da 100
▁됩니다 100
▁고객님께서 100
ge 100
ah 100
▁자기 100
▁사랑 100
▁페티쉬 100
▁main 100
▁version 100
▁East 100
▁Business 100
▁suits 100
▁저 100
▁기업 100
▁예약하실 100
▁site 100
▁check 100
▁컴퓨터 100
포 100
▁번째 100
▁살 100
▁작업 100
ong 100
▁Big 100
발 100
하려면 100
▁Hostels 100
▁easy 100
▁Analog 100
▁Central 100
▁until 100
본인에게 100
▁con 100
▁hostels 100
▁technology 100
▁Avenue 100
▁주의 100
▁program 100
▁threesome 100
▁시티 100
▁Mar 100
▁able 100
▁혼자 100
▁시설을 100
▁야외 100
▁포 100
ut 100
▁2010 100
▁호텔을 100
▁재 100
▁이용 100
ance 100
▁있었다 100
▁하나 100
▁creampie 100
▁은 100
재 100
ina 100
▁31 100
line 100
rs 100
▁연 100
▁porn 100
▁양 100
으 100
▁security 100
▁earth 100
▁price 100
▁생각 100
▁DrTuber 100
▁server 100
▁country 100
100 100
▁그것을 100
▁이제 100
종 100
▁2017 100
▁AShemaleTube 100
▁처리 100
▁영화 100
▁AnySex 100
▁large 100
▁아파트는 100
▁비치 100
▁10:00 100
론 100
▁Read 100
▁반 100
▁lingerie 100
▁Version 100
▁사람들이 100
ism 100
▁space 100
▁파리 100
▁Me 100
▁제어 100
▁language 100
▁Microchip 100
교 100
▁point 100
▁address 100
▁still 100
▁번 100
▁태국 100
▁는 100
메 100
▁airport 100
두 100
▁날짜 100
워 100
be 100
▁Get 100
▁Square 100
ant 100
▁b 100
▁office 100
▁among 100
▁couple 100
▁치 100
▁사용하는 100
@ 100
▁예수 100
▁가격 100
▁Grand 100
00 100
ting 100
▁network 100
▁Bay 100
▁후장 100
▁통합 100
▁Server 100
▁저희 100
om 100
하도록 100
17 100
▁top 100
▁집 100
▁Can 100
▁국가 100
50 100
절 100
▁might 100
▁솔루션 100
하세요 100
▁직접 100
he 100
▁systems 100
▁possible 100
pe 100
ang 100
ad 100
▁Internet 100
▁music 100
▁la 100
▁흑인 100
내 100
▁오르가즘 100
▁도착 100
▁당 100
▁산업 100
▁노 100
▁60 100
▁Pinterest 100
ig 100
▁properties 100
ated 100
판 100
▁초 100
04 100
▁Black 100
▁여성 100
vi 100
▁mouth 100
▁since 100
ana 100
▁videos 100
less 100
ary 100
60 100
▁places 100
▁방문 100
▁Suites 100
▁devices 100
▁XHamster 100
▁Korea 100
▁David 100
ure 100
▁기록 100
학 100
▁곳에서 100
란 100
▁행 100
▁분석 100
▁업데이트 100
▁그를 100
▁Dr 100
▁Saint 100
▁Find 100
▁option 100
▁일을 100
▁달 100
▁pre 100
▁을 100
역 100
력 100
류 100
▁management 100
▁Map 100
▁hot 100
▁자연산 100
▁These 100
▁실행 100
▁Facebook 100
Porn 100
▁보고 100
인종간 100
▁음악 100
▁Santa 100
56 100
▁그녀의 100
▁See 100
▁IT 100
기를 100
▁독일 100
pa 100
▁district 100
▁플레이 100
츠 100
em 100
간 100
▁American 100
▁란제리 100
▁second 100
▁handjob 100
▁영어 100
▁유형 100
ling 100
NET 100
▁TC 100
▁Air 100
▁액세스 100
▁head 100
▁Manufacturer 100
▁thee 100
▁saying 100
심 100
▁Show 100
▁것으로 100
▁Rome 100
▁according 100
▁홈 100
ba 100
sh 100
▁거리 100
35 100
▁집단 100
▁장 100
▁g 100
공 100
▁Tags 100
▁종 100
45 100
들에게 100
▁Web 100
▁학생 100
금 100
▁호 100
ak 100
▁code 100
▁photos 100
▁결과 100
점 100
▁드 100
▁Centre 100
▁날 100
▁매 100
▁이름 100
▁머무실 100
é 100
된다 100
▁클럽 100
▁etc 100
▁Airwheel 100
▁“ 100
▁fuck 100
경 100
▁development 100
▁list 100
▁webcam 100
▁look 100
▁전송 100
▁image 100
ac 100
der 100
ler 100
▁play 100
▁f 100
▁너희가 100
▁키 100
되 100
▁확장 100
▁2011 100
▁PST 100
▁body 100
▁choose 100
▁always 100
▁특정 100
▁recovery 100
ru 100
▁가로되 100
▁strip 100
▁Bed 100
▁Casa 100
건 100
▁입력 100
▁left 100
▁Island 100
▁안전 100
▁third 100
온 100
▁select 100
▁beauty 100
이라 100
▁non 100
▁range 100
les 100
▁$ 100
▁bar 100
▁아줌마 100
▁About 100
io 100
▁screen 100
▁아주 100
▁keep 100
▁given 100
▁발견 100
▁Service 100
▁word 100
▁hairy 100
▁35 100
▁간 100
▁경 100
▁기간 100
▁관한 100
que 100
▁자리 100
▁성전환 100
▁Li 100
▁contact 100
▁pov 100
▁메모리 100
임 100
▁Room 100
▁사이트 100
bo 100
▁하이틴 100
▁디지털 100
량 100
▁save 100
ful 100
▁become 100
법 100
퍼 100
▁Los 100
▁tags 100
▁IP 100
▁pussy 100
▁있을 100
▁web 100
▁beach 100
▁side 100
▁남 100
▁Bo 100
▁기본 100
▁아파트 100
▁도구 100
▁글꼴 100
▁없이 100
▁search 100
gu 100
48 100
▁Please 100
▁크기 100
▁오늘 100
▁일반인 100
▁father 100
▁계획 100
▁더블 100
▁옵션 100
▁손실 100
▁Semiconductors 100
링 100
▁타 100
▁known 100
▁Recovery 100
▁리조트 100
▁cum 100
▁위치하고 100
▁enter 100
천 100
▁together 100
▁Bangkok 100
▁air 100
▁이메일 100
▁요구 100
▁레 100
▁size 100
▁Video 100
▁전기 100
▁페이지 100
tra 100
▁Company 100
▁항상 100
▁However 100
▁money 100
▁2014 100
▁적 100
▁3* 100
▁* 100
운 100
29 100
▁MC 100
▁mobile 100
스트 100
▁lost 100
▁로마 100
▁커플 100
▁War 100
▁test 100
▁방법을 100
▁start 100
▁took 100
▁스페인 100
▁team 100
ja 100
54 100
05 100
▁result 100
▁되 100
▁Check 100
ous 100
길 100
▁case 100
▁숙소 100
▁AM 100
▁Asian 100
▁가실 100
▁YouTube 100
bit 100
군 100
▁media 100
▁장소 100
▁클라우드 100
▁text 100
▁industry 100
립 100
▁hair 100
time 100
▁디 100
▁그래서 100
▁최신 100
▁meters 100
▁better 100
▁찾을 100
하다 100
▁John 100
▁36 100
▁전자 100
per 100
함 100
▁따라서 100
▁모바일 100
▁않고 100
림 100
▁solution 100
▁가족 100
▁계속 100
▁memory 100
▁브루넷 100
▁level 100
▁special 100
▁Hot 100
▁try 100
▁facial 100
▁period 100
▁진 100
▁add 100
▁전화 100
라는 100
▁런던 100
21 100
▁SD 100
▁그들을 100
▁Live 100
▁네가 100
lu 100
▁웹사이트 100
▁화면 100
▁차로 100
▁미디어 100
▁Chinese 100
▁스트립 100
곳 100
86 100
ER 100
▁Amateur 100
▁Seoul 100
▁Garden 100
▁서버 100
▁India 100
▁필요 100
▁File 100
▁Information 100
▁장난감 100
▁Software 100
▁Of 100
con 100
▁가진 100
▁가능합니다 100
▁CS 100
▁popular 100
▁웹캠 100
3- 100
ke 100
▁law 100
▁front 100
▁visit 100
▁German 100
▁3- 100
▁지역에 100
▁Micro 100
▁options 100
▁low 100
▁later 100
▁pool 100
▁다음과 100
▁That 100
으며 100
▁read 100
33 100
▁Ltd 100
▁도그 100
06 100
성급의 100
▁쓰리 100
▁various 100
▁문제 100
▁자동차 100
ki 100
▁ebony 100
▁유럽 100
▁적용 100
▁알고 100
▁곳 100
▁사무실 100
▁파티 100
리라 100
▁present 100
▁Mo 100
▁미소녀 100
▁베 100
었다 100
▁four 100
통 100
색 100
▁designed 100
▁아름다운 100
백 100
ay 100
▁yet 100
▁수행 100
▁75 100
net 100
▁33 100
▁Po 100
생 100
▁Old 100
▁Open 100
▁생성 100
▁Model 100
▁building 100
▁테스트 100
▁분수 100
반 100
▁Se 100
▁Am 100
ner 100
▁Sa 100
▁음식 100
Hewlett 100
Packard 100
▁38 100
▁fat 100
ap 100
▁전문 100
▁white 100
▁share 100
out 100
▁bring 100
▁NXP 100
▁face 100
▁Real 100
▁결정 100
▁field 100
ver 100
하라 100
au 100
▁저가 100
▁Lake 100
▁의사 100
AR 100
▁Ha 100
▁single 100
▁Photo 100
▁조직 100
▁실 100
▁due 100
▁앤 100
▁내게 100
▁project 100
59 100
케 100
ley 100
▁환경 100
nd 100
▁market 100
▁이전 100
?" 100
너 100
권 100
▁results 100
▁working 100
▁dogging 100
▁Ar 100
있다 100
▁having 100
▁기반으로 100
▁하지 100
▁App 100
▁Beijing 100
▁oil 100
▁granny 100
▁중심에 100
▁문서 100
▁customers 100
▁en 100
▁Studio 100
▁Green 100
▁최고 100
▁윈도우 100
▁sons 100
▁인해 100
▁06:00 100
tic 100
감 100
▁이름을 100
▁pass 100
속 100
36 100
ise 100
tor 100
▁central 100
▁Hostelworld 100
영 100
▁Technologies 100
Ark 100
▁샤워 100
▁공급 100
ham 100
▁중에 100
▁reality 100
▁편의 100
ted 100
▁등록 100
▁human 100
▁speak 100
▁sent 100
▁government 100
▁풀 100
ial 100
▁art 100
▁today 100
▁Learn 100
▁친구 100
▁후기 100
ized 100
▁line 100
ence 100
▁Power 100
편 100
▁Ma 100
▁Chi 100
▁school 100
▁게 100
▁속 100
▁font 100
ish 100
▁2013 100
▁사이에 100
하지만 100
by 100
▁Spa 100
▁hours 100
예 100
▁simple 100
.[ 100
▁공유 100
▁털이 100
▁dis 100
▁위에 100
증 100
▁표준 100
후 100
▁types 100
▁station 100
▁form 100
▁Use 100
▁손상 100
Fi 100
▁등을 100
▁뚱녀 100
▁아이 100
▁woman 100
▁Vi 100
09 100
▁value 100
▁Mexico 100
▁email 100
▁facilities 100
▁특히 100
▁hath 100
op 100
▁required 100
▁2008 100
▁Back 100
▁complete 100
ber 100
▁카메라 100
▁가까운 100
▁만들 100
▁above 100
ho 100
▁Son 100
▁삼 100
▁games 100
▁En 100
▁회사 100
▁bus 100
▁쇼핑 100
▁done 100
▁Shanghai 100
▁절벽 100
▁II 100
▁CA 100
usz 100
▁Spain 100
▁후에 100
▁HellPorno 100
▁너는 100
▁v 100
▁34 100
▁열차 100
▁French 100
▁검색엔진 100
▁HLMP 100
▁little 100
mp 100
ating 100
▁시간을 100
▁심 100
▁대하여 100
▁제조 100
▁활동 100
▁진행 100
ung 100
▁modern 100
▁여기 100
▁t 100
▁bed 100
이었다 100
▁외 100
▁토 100
▁소프트웨어를 100
dy 100
초 100
▁들 100
▁프로그램을 100
주의 100
▁button 100
▁2009 100
▁think 100
▁크림파이 100
▁brought 100
mon 100
▁says 100
▁words 100
▁Guest 100
▁Residence 100
▁하우스 100
sa 100
anych 100
▁standard 100
업 100
▁Agilent 100
▁사용자가 100
▁Group 100
▁단계 100
▁solutions 100
▁버스 100
▁구원 100
▁became 100
처럼 100
▁k 100
▁관계 100
▁download 100
▁toys 100
▁요소 100
▁easily 100
▁several 100
▁Club 100
▁perfect 100
▁please 100
▁있어 100
▁production 100
▁Type 100
▁이르되 100
▁System 100
▁Russia 100
▁Thailand 100
▁갈 100
▁문 100
▁기반 100
ts 100
ard 100
▁customer 100
▁용 100
하실 100
▁구매 100
▁이상의 100
ck 100
▁war 100
ite 100
▁언어 100
▁means 100
03 100
52 100
▁cloud 100
▁체코 100
▁거의 100
▁receive 100
▁준비 100
▁Canada 100
▁평가 100
▁living 100
▁going 100
▁이미 100
▁공간 100
▁역사 100
▁never 100
▁관 100
▁Other 100
▁Singapore 100
▁점 100
▁난 100
▁Pre 100
▁Sale 100
▁Du 100
박 100
▁once 100
▁Word 100
▁cheapest 100
직 100
었 100
▁international 100
▁제한 100
▁gets 100
▁run 100
▁멕시코 100
▁key 100
▁수정 100
▁sure 100
men 100
래 100
€ 100
▁ID 100
▁death 100
▁Japan 100
34 100
▁Angeles 100
▁않을 100
ko 100
▁course 100
▁Vishay 100
▁Australia 100
▁dress 100
▁보내 100
▁material 100
션 100
▁transfer 100
▁Cloud 100
▁Plaza 100
▁아래 100
▁provided 100
▁시장 100
▁Or 100
▁countries 100
▁box 100
▁배경 100
▁digital 100
46 100
▁built 100
▁Guests 100
end 100
▁주소 100
ster 100
▁Select 100
▁movie 100
리아 100
▁요 100
▁39 100
▁전쟁 100
락 100
▁model 100
▁캐나다 100
▁Siliconix 100
▁더욱 100
▁making 100
지만 100
▁HClips 100
lin 100
▁박물관 100
▁Del 100
▁Tokyo 100
▁enjoy 100
▁Holiday 100
▁80 100
▁sin 100
▁바이 100
▁생활 100
▁콘텐츠 100
70 100
ron 100
▁Yahweh 100
▁0.1 100
▁37 100
▁friends 100
▁장비 100
▁바랍니다 100
▁cost 100
ya 100
에도 100
▁대부분의 100
약 100
더라 100
▁LED 100
▁chubby 100
▁ON 100
▁자연 100
양 100
▁Sex 100
▁디스크 100
▁감 100
▁머리 100
▁만들어 100
▁blood 100
▁사회 100
▁검색하세요 100
▁Located 100
▁하나님이 100
▁증가 100
▁Design 100
▁energy 100
▁자세한 100
▁sea 100
▁남자 100
38 100
▁Pa 100
500 100
▁영향을 100
▁feet 100
결 100
tion 100
62 100
▁섬 100
▁역 100
로서 100
▁파크 100
▁del 100
▁이를 100
민 100
▁저렴한 100
▁Sea 100
▁월 100
▁사람을 100
품 100
▁Min 100
▁Su 100
▁침대 100
난 100
75 100
▁believe 100
▁social 100
▁온도 100
▁귀여운 100
▁send 100
번 100
▁ever 100
ot 100
▁Jehovah 100
Cafe 100
▁hostel 100
AN 100
▁문화 100
작 100
▁경험 100
▁우주 100
▁via 100
▁current 100
▁하나의 100
▁fine 100
▁훌륭한 100
▁Place 100
▁수학 100
자를 100
▁meet 100
▁정의 100
▁광고 100
▁redhead 100
ally 100
ors 100
울 100
▁Long 100
▁자동 100
53 100
▁Popular 100
90 100
▁offering 100
▁Party 100
▁White 100
▁major 100
▁할머니 100
강 100
▁conditions 100
– 100
37 100
▁품질 100
▁often 100
TA 100
본 100
▁개선 100
▁too 100
▁원하는 100
▁수집 100
▁college 100
▁2007 100
▁fire 100
▁centre 100
대로 100
투 100
▁Bedroom 100
▁age 100
▁얻을 100
▁— 100
▁연방 100
▁allow 100
▁event 100
▁Russian 100
으로부터 100
▁less 100
▁licking 100
▁젊은 100
▁되어 100
▁women 100
▁해결 100
▁사람의 100
▁person 100
▁메 100
▁예를 100
▁0.2 100
▁install 100
▁Jerusalem 100
▁beautiful 100
▁애 100
▁far 100
▁camera 100
▁Play 100
ino 100
78 100
▁땅 100
▁lot 100
▁Hong 100
급 100
▁앞에 100
▁흑단 100
▁계정 100
gen 100
▁student 100
▁pro 100
▁shower 100
팅 100
▁애플리케이션 100
▁작성 100
▁저는 100
▁doctor 100
▁state 100
ward 100
▁thing 100
▁companies 100
릴 100
▁영계 100
▁창 100
▁스위트 100
65 100
▁팀 100
ping 100
▁german 100
:34 100
▁addition 100
za 100
art 100
▁Add 100
▁Source 100
hi 100
den 100
▁되었다 100
표 100
▁DL 100
▁swallow 100
▁지불 100
▁call 100
등 100
▁페 100
▁백업 100
▁Great 100
▁looking 100
▁cannot 100
▁com 100
설 100
▁riding 100
커 100
▁cute 100
▁hidden 100
▁중앙 100
▁4* 100
23 100
▁Father 100
€“ 100
▁있게 100
99 100
▁across 100
▁클릭 100
▁Town 100
자가 100
ize 100
집 100
port 100
▁sport 100
▁Views 100
▁whole 100
▁Ne 100
▁comfortable 100
료 100
▁엄마 100
▁동영상 100
▁below 100
▁이렇게 100
our 100
▁그에게 100
ex 100
▁speed 100
▁cougar 100
▁인터페이스 100
▁details 100
▁방콕 100
랑 100
였다 100
▁temperature 100
▁homemade 100
▁시리즈 100
▁needs 100
▁kitchen 100
▁어느 100
▁룸 100
79 100
▁five 100
▁Las 100
▁Per 100
▁핸드잡 100
▁돌 100
▁fact 100
베 100
▁일반 100
런 100
▁allows 100
하면서 100
▁russian 100
▁싱가포르 100
▁도움이 100
▁Germany 100
51 100
각 100
ran 100
▁Super 100
▁turn 100
▁Spirit 100
▁플랫폼 100
▁오류 100
▁style 100
▁이다 100
▁빈티지 100
▁작동 100
ub 100
▁vintage 100
▁color 100
:39 100
▁America 100
Th 100
▁몰 100
▁과학 100
▁future 100
ow 100
▁프로젝트 100
▁operating 100
▁업체 100
▁Palace 100
▁phone 100
▁nylon 100
▁Apartments 100
Lust 100
Ã 100
▁history 100
ze 100
▁참여 100
▁정책 100
▁Republic 100
▁penetration 100
▁recover 100
▁제작 100
-2 100
쿠 100
ph 100
▁guide 100
▁therefore 100
▁포맷 100
▁why 100
▁칼 100
ab 100
하신 100
복 100
▁나일론 100
독 100
93 100
이라고 100
▁소녀 100
si 100
▁빠른 100
▁욕실 100
▁로그인 100
▁works 100
▁steps 100
▁Yodot 100
~ 100
ization 100
▁자세히 100
▁시험 100
▁tools 100
▁Florence 100
qu 100
석 100
▁areas 100
▁08:01 100
▁Lu 100
▁First 100
▁올 100
▁버 100
▁Star 100
-3 100
▁Product 100
▁LC 100
▁Office 100
▁말을 100
▁series 100
▁학교 100
nt 100
▁암 100
bi 100
▁deleted 100
▁Francisco 100
▁200 100
▁Water 100
블 100
▁Royal 100
▁너희는 100
side 100
▁Played 100
▁에너지 100
▁맥 100
▁research 100
미터 100
▁일반적으로 100
▁너희에게 100
▁Online 100
▁포르노 100
▁45 100
▁Port 100
▁Top 100
▁생 100
ou 100
▁인기 100
▁Korean 100
▁casting 100
▁보다 100
ring 100
▁iPhone 100
▁Alpha 100
▁bathroom 100
▁display 100
▁Kong 100
val 100
페 100
▁가이드 100
▁Ex 100
Me 100
▁foot 100
▁heaven 100
▁interface 100
▁Express 100
▁mind 100
▁루 100
▁서로 100
▁너무 100
▁common 100
▁청 100
▁eat 100
▁이벤트 100
ile 100
41 100
▁mother 100
▁Industries 100
▁sub 100
▁제안 100
이고 100
▁라틴 100
let 100
▁내에 100
▁already 100
▁Taiwan 100
▁along 100
플 100
▁교회 100
▁Some 100
▁얼굴마사지 100
▁이런 100
▁공격 100
sk 100
▁error 100
▁gave 100
▁created 100
▁성능 100
▁4- 100
64 100
▁존재 100
▁변화 100
vo 100
▁french 100
▁nipples 100
▁기도 100
IC 100
▁Western 100
▁photo 100
* 100
qui 100
▁사업 100
▁안에 100
▁return 100
함을 100
▁구조 100
▁48 100
▁글 100
렌 100
▁Ca 100
슨 100
lan 100
▁기름 100
▁떨어져 100
▁했다 100
했고 100
▁position 100
mar 100
▁Egypt 100
▁한국 100
▁속도 100
성을 100
▁스파 100
ue 100
▁really 100
▁공원 100
▁himself 100
▁girls 100
▁일이 100
▁도쿄 100
▁Booking 100
▁목록 100
▁Europe 100
▁복원 100
▁changes 100
Tube 100
▁global 100
목 100
ning 100
▁Church 100
▁skinny 100
▁고급 100
▁향상 100
▁choice 100
▁Series 100
AL 100
▁의미 100
85 100
▁홍콩 100
▁private 100
▁눈 100
▁answer 100
▁saw 100
▁specific 100
▁Pe 100
▁Gu 100
냐 100
▁Tower 100
▁images 100
▁Budapest 100
▁early 100
▁문제를 100
▁State 100
▁Ben 100
▁비용 100
ai 100
▁NAS 100
▁environment 100
▁요청 100
▁통 100
▁유명한 100
▁Hall 100
▁safety 100
층 100
▁외부 100
▁빨간머리 100
▁나무 100
▁Her 100
▁병 100
▁repair 100
▁지역의 100
▁가운데 100
RE 100
▁뉴스 100
▁learn 100
▁손 100
▁Prague 100
68 100
▁등의 100
▁파트너 100
▁운동 100
▁whom 100
▁번역 100
SA 100
▁Berlin 100
▁Market 100
ita 100
▁Tube 100
▁post 100
hu 100
▁fast 100
▁King 100
▁엉덩이 100
▁Akamai 100
말 100
병 100
▁그런 100
턴 100
▁build 100
▁problem 100
▁st 100
▁시스템을 100
▁status 100
77 100
▁곳에 100
▁THE 100
mer 100
▁Ta 100
▁죄 100
▁왕이 100
▁rest 100
▁ensure 100
:11 100
▁others 100
ions 100
▁법 100
▁clean 100
▁certain 100
▁찾기 100
▁전문가 100
▁loss 100
▁않았다 100
▁River 100
▁편안한 100
▁얼마나 100
▁달러 100
▁District 100
▁브랜드 100
▁갤러리 100
▁heels 100
66 100
ps 100
▁safe 100
▁팬티 100
▁Light 100
▁최근 100
날 100
▁Support 100
▁42 100
gi 100
▁0.3 100
▁rating 100
▁니 100
▁Description 100
▁panties 100
▁nor 100
▁discounts 100
▁인쇄 100
▁작업을 100
▁길 100
▁자는 100
▁pay 100
ship 100
▁Sydney 100
▁발생 100
▁완벽한 100
면서 100
▁자취방 100
▁members 100
▁관리자 100
▁Ja 100
▁베이 100
▁유다 100
▁회원 100
▁마지막 100
▁변 100
▁Fe 100
▁function 100
200 100
▁Linux 100
▁Time 100
▁동물 100
▁teacher 100
▁self 100
▁forth 100
▁텍스트 100
▁mm 100
▁레스토랑 100
57 100
▁opened 100
출 100
▁북 100
▁eyes 100
지는 100
별 100
39 100
▁아버지 100
▁class 100
▁nurse 100
▁further 100
▁차량 100
▁Blue 100
ee 100
광 100
살 100
▁커 100
▁내부 100
▁true 100
▁unique 100
mi 100
% 100
▁셀카 100
” 100
▁move 100
▁directly 100
▁Sun 100
▁ITT 100
▁센서 100
CE 100
든 100
엔 100
▁began 100
▁임 100
▁그리스 100
▁Ka 100
▁club 100
▁남편 100
▁Store 100
▁몸 100
언 100
▁호텔에서 100
chi 100
▁comes 100
▁gangbang 100
는데 100
▁접근 100
▁fucked 100
▁Electronic 100
GB 100
wood 100
▁issues 100
96 100
ren 100
▁올드 100
▁church 100
▁heard 100
▁자가 100
▁사람들은 100
— 100
▁없다 100
ov 100
▁makes 100
bu 100
▁voyeur 100
▁무선 100
49 100
▁관광 100
▁spirit 100
배 100
▁되는 100
▁Cor 100
▁VMware 100
▁past 100
▁블랙 100
▁wide 100
▁색상 100
▁되었습니다 100
▁광 100
▁70 100
▁완전히 100
▁Jo 100
▁플레이어 100
▁경제 100
▁external 100
▁재생 100
▁hands 100
▁리뷰 100
▁현대 100
▁multiple 100
po 100
▁Ko 100
▁삼키기 100
▁ES 100
hour 100
▁성경 100
▁kind 100
▁떠나 100
니라 100
▁staff 100
▁리얼 100
▁entire 100
▁표 100
합 100
▁90 100
ator 100
▁cities 100
▁미인 100
▁야 100
nce 100
▁상품 100
▁24- 100
▁taken 100
▁Ba 100
▁자전거 100
▁금 100
▁source 100
▁책 100
▁입니다 100
▁latina 100
▁question 100
▁feel 100
▁막 100
▁Services 100
pi 100
▁지정 100
▁Dubai 100
▁기억 100
▁딸 100
▁있 100
▁Don 100
▁가서 100
▁IcePorn 100
▁발전 100
▁아무 100
▁검사 100
ano 100
▁이야기 100
▁관련된 100
▁Ad 100
▁Che 100
▁폴더 100
▁당신을 100
▁architecture 100
ger 100
based 100
▁06:15 100
▁06:5 100
SS 100
▁European 100
58 100
▁r 100
▁College 100
열 100
▁strong 100
▁disk 100
▁클로즈업 100
▁우리에게 100
▁parts 100
▁General 100
▁도보 100
▁있지만 100
ara 100
▁질 100
▁라인 100
▁악 100
▁understand 100
▁500 100
▁모듈 100
▁구축 100
▁직원 100
▁근처에 100
▁부동산 100
▁브 100
▁table 100
▁04:5 100
▁치료 100
▁독일편 100
iv 100
이요 100
use 100
▁Near 100
▁하루 100
▁cause 100
▁equipment 100
▁바다 100
▁fun 100
▁가정 100
▁Family 100
▁students 100
▁Single 100
▁오디오 100
▁주문 100
달 100
▁improve 100
:44 100
che 100
▁통통 100
▁솔루션을 100
▁se 100
▁individual 100
▁옷 100
2- 100
▁전자부품 100
▁0.5 100
레이 100
▁된다 100
44 100
▁15- 100
▁maximum 100
for 100
축 100
▁faith 100
▁whether 100
▁이에 100
▁red 100
뿐만 100
▁사진을 100
▁orgy 100
ville 100
ev 100
▁List 100
▁백 100
함으로써 100
free 100
▁실제 100
▁기술을 100
▁프로세스 100
▁완료 100
▁재료 100
▁Barcelona 100
▁Czech 100
▁흡연 100
67 100
red 100
AA 100
▁Let 100
▁Standard 100
▁nearby 100
▁drives 100
▁종류 100
▁성장 100
해서 100
▁건물 100
▁돈 100
▁Pan 100
wa 100
에있는 100
:42 100
▁seven 100
MS 100
▁명령 100
이라는 100
격 100
▁voice 100
▁개인정보 100
▁pressure 100
ction 100
▁너를 100
▁말라 100
갈 100
▁classic 100
St 100
je 100
▁browser 100
▁amenities 100
▁지난 100
▁ideal 100
▁store 100
청 100
▁사실 100
▁게시 100
▁키스 100
▁항문핥기 100
▁모드 100
▁별 100
▁Added 100
▁materials 100
▁포트 100
Porno 100
▁max 100
▁계약 100
▁Lo 100
▁옵션을 100
ell 100
▁위치해 100
ven 100
▁번호 100
▁가죽 100
ath 100
탄 100
▁husband 100
▁knowledge 100
▁스키니 100
▁질문 100
▁화 100
▁강력한 100
처 100
IS 100
▁있기 100
led 100
▁Suite 100
▁August 100
▁booking 100
▁이론 100
▁School 100
▁펌프 100
▁Opto 100
▁하이힐 100
ji 100
▁million 100
In 100
▁included 100
:55 100
," 100
▁글로벌 100
▁시계 100
▁저희가 100
▁amount 100
▁analysis 100
▁10- 100
72 100
▁해야 100
▁즉 100
101 100
▁허용 100
tal 100
▁제품을 100
ama 100
▁News 100
▁step 100
▁Hu 100
▁자체 100
▁Hat 100
▁그들에게 100
▁예수께서 100
▁backup 100
:46 100
▁shopping 100
▁Moses 100
lic 100
US 100
십시오 100
▁시드니 100
▁그러므로 100
▁2003 100
▁Recover 100
▁selection 100
▁2000 100
ari 100
하려고 100
▁필요가 100
▁deepthroat 100
▁request 100
▁Phuket 100
low 100
보기 100
IN 100
볼 100
▁commercial 100
▁변환 100
▁그녀는 100
▁사람은 100
▁problems 100
▁distance 100
▁Intel 100
▁Fiche 100
:47 100
▁우리를 100
▁창조 100
▁참고 100
▁소개 100
gg 100
▁말씀 100
pro 100
▁format 100
▁truth 100
▁sp 100
니다 100
▁settings 100
▁없음 100
▁Security 100
▁Dropbox 100
89 100
▁Bridge 100
창 100
▁Breakfast 100
su 100
명의 100
▁excellent 100
▁rate 100
▁watch 100
▁캐스팅 100
▁situated 100
▁deliver 100
▁latest 100
ide 100
▁하기 100
▁wet 100
q 100
▁remove 100
▁Hi 100
AD 100
▁교 100
▁제조업체 100
▁뒤 100
AT 100
▁Ass 100
IT 100
▁분야 100
▁Game 100
▁squirt 100
▁것이며 100
름 100
ities 100
▁건축 100
▁platform 100
▁오늘날 100
▁da 100
▁protection 100
ip 100
▁걸 100
▁tattoo 100
▁이유 100
▁낮은 100
▁least 100
▁pump 100
▁브라우저 100
▁여부 100
▁가상 100
org 100
에서의 100
▁취소 100
▁Two 100
gar 100
▁Adobe 100
▁message 100
:04 100
ok 100
、 100
:41 100
ding 100
▁Union 100
▁seen 100
▁written 100
▁만나보세요 100
▁bath 100
▁유혹 100
▁커피 100
▁Today 100
▁하늘 100
▁received 100
EP 100
▁Asia 100
▁either 100
of 100
▁69 100
▁gold 100
▁Most 100
스터 100
▁Music 100
▁bbc 100
▁로스앤젤레스 100
▁Bi 100
▁method 100
져 100
▁original 100
▁Watch 100
▁공개 100
▁n 100
EC 100
▁arrival 100
▁팔 100
1303 100
없이 100
▁멋진 100
▁swinger 100
CC 100
AHC 100
▁당사 100
▁british 100
▁evil 100
mail 100
▁follow 100
▁release 100
▁앞에서 100
▁Mature 100
ical 100
▁있다는 100
ST 100
▁something 100
▁승마 100
▁increase 100
▁quickly 100
▁child 100
▁Ah 100
▁reason 100
▁범위 100
▁네게 100
리니 100
▁Har 100
▁October 100
▁hardcore 100
까 100
▁Sha 100
▁평점 100
▁Control 100
▁동일한 100
LE 100
▁Milf 100
▁단지 100
▁Day 100
▁오직 100
AP 100
▁Save 100
▁stop 100
▁링크 100
▁sun 100
▁bikini 100
▁소재 100
▁사항 100
▁자유 100
▁그랜드 100
od 100
are 100
▁300 100
76 100
▁ground 100
▁아이들 100
▁먼저 100
> 100
▁(19 100
술 100
머 100
령 100
▁Si 100
az 100
▁93 100
▁언제 100
over 100
▁아침 100
▁hear 100
▁지구 100
▁Contact 100
▁Ga 100
▁requirements 100
▁해변 100
▁= 100
▁아프리카 100
92 100
▁거래 100
▁사용자의 100
▁tight 100
IP 100
OR 100
▁취 100
▁requested 100
▁ways 100
▁park 100
들에 100
입 100
▁Is 100
▁kissing 100
▁job 100
▁Card 100
▁땅에 100
▁시간이 100
69 100
랜드 100
▁공정 100
ep 100
47 100
▁saved 100
▁ask 100
▁주십시오 100
▁Main 100
▁Ver 100
추 100
▁automatically 100
▁편 100
▁Him 100
▁노력 100
▁시도 100
mb 100
▁base 100
fa 100
▁Management 100
ology 100
▁fear 100
▁0.4 100
▁situation 100
망 100
▁둘 100
을위한 100
▁기차 100
▁빌라 100
죠 100
▁iOS 100
▁보장 100
▁includes 100
ier 100
res 100
▁활용 100
▁developed 100
▁VipTube 100
bar 100
▁상태로 100
되며 100
▁상태 100
▁12:00 100
▁tell 100
▁desk 100
▁벌 100
▁구입 100
eg 100
▁스마트 100
▁선택한 100
▁Available 100
▁study 100
▁대상 100
▁것과 100
▁도구를 100
도록 100
▁포인트 100
▁host 100
▁윤간 100
▁Vegas 100
▁ISO 100
▁이해 100
탈 100
ice 100
▁귀 100
▁processing 100
ct 100
▁처음 100
▁간호사 100
▁우유 100
▁사용하면 100
▁자동으로 100
▁o 100
▁(1) 100
▁조정 100
▁비키니 100
▁프랑스편 100
OS 100
▁themselves 100
▁advanced 100
▁Up 100
람 100
▁프로 100
88 100
EN 100
▁프로필 100
▁glasses 100
▁AlotPorn 100
▁prices 100
▁kingdom 100
▁조건 100
day 100
▁Hill 100
DR 100
NA 100
▁action 100
42 100
▁색 100
자의 100
▁command 100
▁호텔의 100
:51 100
▁금속 100
▁uniform 100
ny 100
▁결혼 100
▁있는지 100
▁link 100
▁Location 100
▁하여 100
▁그림 100
▁05:0 100
▁While 100
▁activities 100
▁policy 100
▁부엌 100
▁» 100
▁것이라 100
▁Here 100
▁takes 100
염 100
▁테마 100
07 100
▁박 100
▁USA 100
▁아직 100
▁flashing 100
▁동시에 100
▁license 100
▁스캔 100
SE 100
MP 100
▁공기 100
▁스타 100
▁잡 100
▁Motel 100
▁방지 100
▁surface 100
▁trip 100
we 100
▁similar 100
▁크게 100
▁투어 100
▁feature 100
▁종교 100
▁political 100
▁stock 100
▁코어 100
▁브라질 100
▁professional 100
▁Ni 100
KB 100
자는 100
▁어린 100
▁higher 100
▁정부 100
했던 100
ES 100
▁Bible 100
▁won 100
▁API 100
▁Maria 100
tin 100
기에 100
▁스토리지 100
▁cards 100
으니 100
▁Mi 100
▁뜨거운 100
▁Foursquare 100
▁iPod 100
▁라이브 100
새 100
▁Why 100
▁Tri 100
▁Italian 100
른 100
▁menu 100
▁왜 100
▁예술 100
▁general 100
▁Milan 100
▁connection 100
▁이름은 100
▁성공 100
▁마케팅 100
▁SS 100
▁multi 100
▁dead 100
▁milk 100
▁Note 100
▁알아보기 100
ware 100
▁UC 100
▁Holy 100
▁나이 100
▁Manager 100
▁physical 100
CA 100
▁Yes 100
▁않는다 100
▁케이블 100
▁참조 100
▁password 100
:43 100
▁것이요 100
▁Network 100
▁Win 100
▁plan 100
▁mode 100
▁받은 100
▁Update 100
▁blue 100
▁Reviews 100
▁자료 100
▁선택할 100
ING 100
▁Judah 100
▁PornoX 100
▁Next 100
▁문신 100
▁추 100
▁MP 100
▁부품 100
암 100
▁Details 100
▁공식 100
▁밤 100
▁말했다 100
isonic 100
400 100
▁내용 100
-5 100
▁subject 100
▁Good 100
▁profile 100
▁Font 100
▁베스트 100
fer 100
▁health 100
▁metal 100
▁gives 100
▁Area 100
ura 100
▁인증 100
▁중에서 100
▁중요 100
▁board 100
▁USD 100
▁채 100
▁발표 100
▁포함한 100
▁movies 100
었습니다 100
▁trade 100
▁restore 100
ible 100
▁수영장 100
ium 100
▁clear 100
▁questions 100
▁answered 100
▁ex 100
Re 100
▁Hilton 100
▁출시 100
▁가입 100
▁천 100
fi 100
▁이동하면 100
[ 100
ten 100
▁건강 100
▁Color 100
98 100
▁variety 100
▁응답 100
pt 100
oc 100
(1) 100
▁CO 100
▁culture 100
▁투자 100
▁Since 100
fe 100
▁Set 100
▁wedding 100
▁almost 100
€” 100
해야합니다 100
▁events 100
▁스파이 100
▁프라하 100
시고 100
▁요리 100
▁언급 100
▁모양 100
▁배포 100
▁출력 100
움 100
▁혁신 100
▁Travel 100
친 100
▁Melbourne 100
▁Casino 100
king 100
han 100
▁그들 100
▁traditional 100
▁smoking 100
▁만든 100
▁게이 100
▁바이러스 100
des 100
▁Fi 100
▁찾고 100
▁간단한 100
▁경험을 100
▁related 100
▁표현 100
▁Ru 100
▁말씀을 100
▁models 100
▁Ra 100
▁분출 100
ash 100
▁community 100
▁Flash 100
▁빛 100
▁64 100
DE 100
▁Ac 100
▁Who 100
▁규정 100
▁AnyPorn 100
-12 100
▁난교 100
려고 100
쳐 100
엘 100
▁전달 100
ng 100
▁플래시 100
▁가격이 100
▁Corp 100
▁Teen 100
▁stand 100
▁additional 100
▁이내에 100
▁term 100
▁정말 100
▁necessary 100
▁만나 100
▁brother 100
▁peace 100
▁44 100
▁girlfriend 100
하였습니다 100
ries 100
▁flexible 100
▁괴물 100
▁Vista 100
▁SSD 100
▁vi 100
였 100
▁시설과 100
▁Pattaya 100
리스 100
-4 100
▁Rd 100
▁포함되어 100
▁Je 100
▁자손 100
▁Roman 100
▁September 100
▁education 100
▁카지노 100
▁때까지 100
▁fucking 100
▁Gallery 100
▁held 100
ft 100
▁소스 100
싱 100
MA 100
▁참 100
AM 100
▁reduce 100
▁breakfast 100
▁요금 100
▁Paul 100
uk 100
▁감사 100
▁installation 100
▁귀하가 100
▁Val 100
▁Boutique 100
ella 100
▁Therefore 100
▁March 100
▁엘 100
cy 100
▁dildo 100
▁purchase 100
▁sign 100
▁받을 100
▁log 100
▁중심 100
PS 100
▁boobs 100
▁talk 100
▁window 100
▁담 100
ult 100
vent 100
▁alternative 100
▁여전히 100
▁monster 100
▁투 100
▁선생님 100
▁secure 100
ving 100
▁ma 100
▁문제가 100
▁electric 100
ria 100
▁당사의 100
▁준수 100
튼 100
▁November 100
▁everything 100
▁즐길 100
▁cut 100
▁Games 100
ED 100
ns 100
▁meeting 100
▁06 100
tu 100
set 100
▁internet 100
▁told 100
▁whore 100
클 100
AS 100
▁블루 100
TE 100
▁전환 100
▁Provided 100
▁나라 100
▁Building 100
▁June 100
ez 100
스타 100
▁자유분방 100
▁텅스텐 100
▁garden 100
▁배터리 100
▁2- 100
▁review 100
▁Code 100
▁전원 100
▁특별한 100
▁만드는 100
▁audio 100
▁길이 100
▁오른쪽 100
▁크 100
▁powerful 100
▁anti 100
▁Men 100
▁stepmom 100
▁however 100
▁cross 100
▁표면 100
▁Monte 100
▁parking 100
가지 100
▁원피스 100
sha 100
▁생명 100
▁longer 100
▁protect 100
▁Petersburg 100
ola 100
세요 100
▁Site 100
▁Any 100
마다 100
ET 100
▁Part 100
▁41 100
▁virtual 100
▁started 100
지라 100
▁베를린 100
▁주차 100
▁perform 100
oo 100
▁placed 100
▁collect 100
▁selected 100
▁fully 100
▁throughout 100
▁압력 100
ID 100
▁만약 100
▁업그레이드 100
▁California 100
▁charge 100
▁통계 100
-8 100
ever 100
변 100
▁Plus 100
▁Framework 100
▁Featured 100
▁cr 100
ek 100
▁결과를 100
▁XP 100
era 100
▁DM 100
▁하며 100
▁43 100
▁물론 100
▁Sal 100
ack 100
▁final 100
SC 100
▁ten 100
▁종류의 100
▁terms 100
▁Han 100
▁누 100
▁half 100
61 100
ford 100
▁받아 100
▁Media 100
▁member 100
ix 100
▁training 100
ative 100
▁식사 100
▁알맞은 100
▁DC 100
▁건 100
▁credit 100
겨 100
▁끝 100
▁coming 100
▁press 100
▁최적화 100
태 100
▁national 100
▁nature 100
▁season 100
zi 100
▁added 100
du 100
▁drink 100
▁care 100
ini 100
97 100
▁Ti 100
▁가스 100
tre 100
밀 100
▁입은 100
▁leather 100
▁있습니까 100
▁상의 100
하는데 100
지를 100
▁우수한 100
▁HP 100
field 100
▁페이지를 100
▁서울 100
▁수리 100
▁07:30 100
▁Peter 100
▁행사 100
▁comfort 100
집니다 100
▁46 100
shalt 100
▁조사 100
▁형제 100
▁통신 100
▁tube 100
▁edit 100
ey 100
ral 100
▁thought 100
▁flow 100
° 100
▁largest 100
▁total 100
졌다 100
▁전용 100
▁도촬 100
▁2019 100
▁너희를 100
▁rights 100
▁apps 100
▁판 100
▁January 100
▁항목 100
▁Master 100
▁Young 100
ake 100
▁일반적인 100
▁아시아의 100
▁테 100
▁Wikipedia 100
▁공개동영상 100
▁gas 100
▁soon 100
▁부분 100
ins 100
▁discuss 100
▁예루살렘 100
▁사람들 100
▁기관 100
▁경우에 100
jo 100
▁paper 100
oid 100
▁touch 100
▁5- 100
light 100
95 100
▁six 100
▁대한민국 100
board 100
▁국립 100
▁Last 100
▁지방 100
▁밀 100
▁유리 100
box 100
sen 100
▁Sp 100
▁선택합니다 100
▁manage 100
▁모니터링 100
▁alone 100
▁connected 100
▁사전 100
▁담배 100
▁2.5 100
wi 100
▁세상 100
▁hundred 100
▁사용되는 100
▁읽기 100
▁드라이버 100
▁Artec 100
▁Latest 100
ME 100
▁문의 100
▁dry 100
▁pantyhose 100
▁ffm 100
▁스스로 100
▁값 100
▁축구 100
▁만들기 100
▁Xbox 100
▁Village 100
▁deposit 100
빌 100
▁Mal 100
▁방송 100
▁leading 100
ica 100
▁종이 100
애 100
▁December 100
▁April 100
▁Bel 100
EL 100
▁2006 100
▁대신 100
eng 100
막 100
▁드라이브를 100
▁dates 100
▁인식 100
▁road 100
▁running 100
▁sound 100
▁재미 100
LV 100
▁programs 100
▁Smart 100
▁websites 100
▁Mer 100
▁British 100
▁departure 100
▁경기 100
▁하이 100
CD 100
iz 100
▁prevent 100
▁엘리베이터 100
▁background 100
ability 100
▁인간 100
▁pictures 100
▁outside 100
▁Double 100
▁혹은 100
▁Repair 100
▁Greece 100
▁Mobile 100
도다 100
▁Pass 100
담 100
▁이것이 100
▁필요합니다 100
▁role 100
▁MS 100
cho 100
▁세인트 100
▁54 100
ud 100
▁huge 100
외 100
▁Te 100
▁유두 100
if 100
▁목 100
▁깊은목구멍 100
▁초기 100
▁document 100
▁당시 100
▁동의 100
▁die 100
▁Gi 100
▁2005 100
▁li 100
ken 100
▁합 100
hr 100
▁포장 100
▁got 100
▁quick 100
▁케 100
▁세계에서 100
▁젖은 100
▁priest 100
▁reach 100
▁긴 100
▁것에 100
▁round 100
▁보세요 100
▁su 100
▁화이트 100
▁though 100
▁Line 100
▁아기 100
▁의료 100
LC 100
▁선수 100
DS 100
▁51 100
▁mo 100
cal 100
▁break 100
43 100
▁물질 100
▁Bu 100
ff 100
▁Rock 100
일에 100
▁Bus 100
▁Tu 100
▁fall 100
▁사용합니다 100
▁일본의 100
▁커뮤니티 100
▁출발 100
87 100
▁고전 100
딩 100
ACT 100
▁Kim 100
cha 100
시킬 100
▁nothing 100
▁힘 100
▁connect 100
300 100
▁지원합니다 100
ble 100
ei 100
▁시스템에 100
▁providing 100
▁Ci 100
▁IN 100
▁실시간 100
▁하나님께서 100
house 100
▁육 100
현 100
▁morning 100
▁cleaning 100
▁밀라노 100
▁Guangzhou 100
남 100
▁기기 100
▁Make 100
ds 100
ture 100
▁빈 100
▁파일이 100
▁스위스 100
▁enough 100
▁음료 100
ill 100
▁nice 100
well 100
하려는 100
LS 100
▁matter 100
▁일정 100
71 100
▁아일랜드 100
▁Arab 100
▁너의 100
▁훨씬 100
▁샌프란시스코 100
▁52 100
lam 100
▁위험 100
▁근처 100
▁연락처 100
▁아닌 100
▁direct 100
▁Style 100
▁Luxury 100
▁steel 100
▁안경 100
ox 100
▁식물 100
ik 100
▁뚱보 100
▁behind 100
▁영국편 100
▁인하여 100
▁Sch 100
▁기존 100
eeg 100
▁especially 100
▁risk 100
▁uses 100
섹스 100
▁published 100
car 100
▁player 100
▁Step 100
▁있지 100
▁Gold 100
▁돌아가기 100
▁floor 100
▁ch 100
▁installed 100
▁삽입 100
▁shaving 100
▁Miami 100
ABT 100
▁Fa 100
IA 100
▁Soi 100
▁getting 100
▁Just 100
안에 100
form 100
▁추적 100
▁소년 100
▁star 100
▁베이징 100
▁몰카 100
▁Bra 100
▁추천 100
▁died 100
▁버튼을 100
▁saith 100
▁thus 100
쪽 100
▁rates 100
▁hardware 100
▁충족 100
-15 100
ned 100
▁region 100
rd 100
▁Sam 100
▁Spanish 100
▁디스플레이 100
▁ShemaleZ 100
▁film 100
▁계 100
▁potential 100
▁만일 100
ld 100
▁sexy 100
▁전투 100
▁건설 100
▁Africa 100
▁article 100
▁특징 100
▁55 100
▁Digital 100
▁상세 100
▁코스 100
▁항문 100
▁계산 100
▁그렇게 100
▁애니메이션 100
▁감소 100
▁sa 100
▁July 100
▁꽃 100
▁neither 100
▁track 100
▁% 100
▁Because 100
▁흑인큰자지 100
▁Lodge 100
ska 100
▁죄를 100
▁folder 100
▁허 100
글 100
▁무엇을 100
▁DVD 100
▁lower 100
▁ability 100
▁빠르게 100
▁회의 100
▁여러분의 100
▁led 100
▁famous 100
▁장식 100
▁RAR 100
ther 100
▁AVI 100
▁포르투갈 100
▁Golden 100
▁Should 100
▁어떠한 100
손 100
▁treatment 100
▁위치를 100
▁friend 100
▁concern 100
uch 100
▁오래 100
▁그래픽 100
▁purpose 100
▁접 100
▁Sur 100
TS 100
▁패 100
▁실패 100
▁교복 100
▁만족 100
▁Non 100
▁items 100
▁posted 100
▁타워 100
대표적인 100
▁남아 100
▁Marina 100
▁1.6 100
og 100
율 100
▁쉬운 100
▁지속 100
▁종료 100
▁듣고 100
▁역할을 100
▁사이 100
하시기 100
ious 100
▁하나는 100
▁Many 100
▁제공됩니다 100
tel 100
▁NuVid 100
▁QNAP 100
▁갖춘 100
▁엔진 100
room 100
ku 100
▁lead 100
▁soul 100
▁달리 100
▁thousand 100
▁Pra 100
don 100
SD 100
▁February 100
시아 100
PW 100
▁shows 100
▁방식 100
▁즉시 100
tro 100
▁visiting 100
len 100
하였고 100
ists 100
▁하드웨어 100
족 100
▁자주 100
▁하나님을 100
불 100
▁안내 100
▁bit 100
▁마음 100
▁단일 100
▁Start 100
▁collection 100
▁Access 100
▁record 100
님 100
▁국 100
▁따르면 100
▁doing 100
ane 100
▁w 100
▁Gar 100
또는 100
▁경찰 100
str 100
께서 100
▁flash 100
▁green 100
▁대표 100
▁100% 100
▁itself 100
▁남성 100
▁Pen 100
▁cases 100
▁그러한 100
▁트 100
▁백보지 100
▁클릭하십시오 100
▁object 100
ks 100
텐 100
▁availability 100
▁Modern 100
▁jerking 100
▁Rio 100
▁hope 100
▁손상된 100
▁focus 100
▁ASP 100
with 100
▁태양 100
▁path 100
▁소유 100
▁절차 100
RI 100
▁appear 100
▁default 100
▁Mont 100
▁BC 100
▁success 100
▁가까이 100
▁플라스틱 100
RA 100
▁Even 100
▁delete 100
나니 100
▁택시 100
▁채널 100
ef 100
▁mathematics 100
▁taking 100
▁위협 100
▁0.6 100
줄 100
▁spy 100
▁town 100
▁brand 100
킹 100
▁particular 100
▁purposes 100
▁당사는 100
▁소리 100
▁glory 100
▁Close 100
▁비교 100
▁Twitter 100
▁century 100
▁손에 100
fo 100
▁호주 100
▁골프 100
▁organization 100
▁User 100
▁함 100
▁강화 100
▁유연한 100
▁flesh 100
▁새엄마 100
▁식품 100
▁Ch 100
▁toilet 100
▁사항을 100
▁절 100
▁말합니다 100
▁Ri 100
▁대로 100
▁leave 100
▁configuration 100
ites 100
▁킬로미터 100
▁사고 100
▁TO 100
▁Once 100
긴 100
▁Emp 100
▁그것이 100
▁Distributor 100
▁bdsm 100
▁이용가능 100
▁여름 100
▁타고 100
▁여기에 100
▁메시지 100
▁연락 100
63 100
▁• 100
▁turned 100
되어야 100
▁전략 100
▁born 100
▁바르셀로나 100
▁avoid 100
▁03:0 100
▁views 100
▁Products 100
▁holy 100
▁; 100
▁Where 100
▁주는 100
틀 100
ani 100
▁President 100
▁RE 100
▁시설입니다 100
▁exchange 100
▁Flat 100
▁파일의 100
▁rental 100
▁Share 100
fin 100
▁Mega 100
▁Multi 100
▁Upornia 100
▁정액먹기 100
▁작품 100
▁배치 100
▁사이의 100
으로서 100
▁부다페스트 100
ach 100
") 100
▁여행을 100
▁잠 100
▁Life 100
▁주님 100
▁게임을 100
▁upskirt 100
▁Overview 100
▁시즌 100
▁official 100
▁Temple 100
lia 100
▁쿠 100
book 100
▁Enterprise 100
▁무엇입니까 100
▁Mor 100
▁dance 100
▁OST 100
올 100
▁People 100
▁Mark 100
▁터키 100
▁output 100
▁Machine 100
지고 100
느니라 100
▁Over 100
▁components 100
▁협력 100
gan 100
▁Boulevard 100
▁반응 100
▁08 100
▁목적으로 100
▁매일 100
▁Ocean 100
▁인기있는 100
▁cheating 100
sis 100
▁델 100
▁하라 100
▁na 100
▁쇼 100
▁여호와께 100
▁실제로 100
▁음 100
uck 100
▁ready 100
▁technical 100
▁위해서 100
자들은 100
▁Thus 100
▁asked 100
ens 100
my 100
▁recommended 100
▁Dell 100
▁방식으로 100
▁Global 100
▁아랍 100
▁포함하여 100
▁le 100
▁가라사대 100
▁Lee 100
▁sales 100
▁주장 100
▁펜 100
▁Mini 100
▁Hard 100
▁load 100
▁maid 100
▁와서 100
▁Cam 100
▁custom 100
▁Com 100
▁53 100
▁라이센스 100
▁뛰어난 100
▁일어나 100
▁구현 100
▁supports 100
▁north 100
▁yoga 100
▁Estate 100
▁damage 100
▁49 100
대의 100
▁pa 100
▁Bre 100
▁Name 100
▁TnaFlix 100
▁매춘부 100
▁찾아보세요 100
▁stored 100
▁kids 100
▁가공 100
▁수많은 100
▁사람들을 100
▁정확한 100
▁highly 100
▁복 100
▁Downtown 100
▁사용자는 100
누 100
센터 100
so 100
▁cfnm 100
▁Choose 100
▁필터 100
▁타이즈 100
▁Food 100
▁마을 100
▁gay 100
록 100
▁Head 100
} 100
▁빌 100
BC 100
▁deep 100
▁거기 100
▁세탁 100
ments 100
▁report 100
닝 100
▁앞 100
▁bondage 100
시키는 100
▁latex 100
▁Condo 100
▁yourself 100
van 100
▁셀 100
EMF 100
▁환자 100
▁보증 100
▁47 100
▁instead 100
▁Court 100
▁내용을 100
▁딜도 100
PC 100
▁hosts 100
했을 100
sp 100
▁ad 100
▁cast 100
▁Help 100
▁가치 100
▁다리 100
▁놀라운 100
▁continue 100
▁deals 100
ea 100
▁1.8 100
▁Portugal 100
▁pregnant 100
▁learning 100
▁않았습니다 100
▁processes 100
yo 100
Ro 100
▁Love 100
▁복사 100
ual 100
▁소프트웨어는 100
▁Full 100
▁공장 100
▁정보는 100
▁points 100
레스 100
▁complex 100
▁spanish 100
▁먹을 100
ker 100
▁write 100
▁court 100
ear 100
▁마음을 100
▁가는 100
니아 100
▁beginning 100
ale 100
work 100
▁받고 100
▁door 100
▁Advanced 100
▁메뉴 100
▁needed 100
ada 100
▁supply 100
▁venue 100
▁죽은 100
▁0.7 100
▁블 100
▁그리 100
▁existing 100
▁능력 100
▁copy 100
▁Valley 100
▁resources 100
▁Qu 100
▁Calle 100
▁< 100
HC 100
▁반드시 100
▁caught 100
330 100
▁제공하고 100
되면 100
83 100
▁가든 100
▁housewife 100
▁부티크 100
▁블로그 100
▁촬영 100
▁테이블 100
▁단어 100
▁정원 100
▁결혼식 100
▁설립 100
침 100
▁지지 100
▁effect 100
시기 100
ade 100
▁Quality 100
▁지혜 100
항 100
셔 100
▁heat 100
▁정치 100
▁cheap 100
▁기대 100
▁숫자 100
▁Special 100
iah 100
▁확인하기 100
▁있다고 100
로운 100
평 100
보고 100
▁j 100
▁OF 100
▁cuckold 100
▁iTunes 100
▁muscle 100
▁iPad 100
mark 100
▁2* 100
▁준 100
▁update 100
▁MOV 100
PA 100
▁신부 100
▁Cat 100
▁legal 100
spect 100
▁캘리포니아 100
RL 100
▁Ab 100
▁01:4 100
▁block 100
▁super 100
▁개발자 100
▁하나를 100
▁Samsung 100
▁하면 100
▁fix 100
▁로드 100
▁미리 100
하므로 100
tri 100
We 100
▁Sky 100
▁highest 100
▁du 100
▁체제 100
▁universe 100
룸 100
▁친 100
▁씨 100
▁슬 100
▁포르노를 100
▁회 100
▁structure 100
rap 100
알 100
pri 100
▁보관 100
▁무슨 100
▁양식 100
녀 100
▁헤 100
mor 100
▁최종 100
▁들어가 100
▁usually 100
▁cable 100
▁wish 100
▁공동 100
▁이내 100
▁Class 100
▁capital 100
▁증거 100
old 100
ug 100
UR 100
▁05:5 100
▁buy 100
▁Ph 100
▁불륜 100
▁두바이 100
ette 100
▁컴퓨터에 100
CO 100
▁얼굴 100
습 100
▁뉴 100
▁쓰 100
라이 100
▁Instant 100
▁Request 100
▁셔틀 100
▁documents 100
▁theory 100
▁ba 100
▁czech 100
▁여친 100
▁Dan 100
▁levels 100
▁필 100
▁story 100
▁issue 100
▁만화 100
▁스웨덴 100
▁날짜를 100
▁수신 100
▁Take 100
▁방법은 100
▁During 100
▁경쟁 100
-11 100
SP 100
▁고려 100
▁budget 100
▁필리핀 100
▁police 100
▁현실 100
▁인정 100
▁형식 100
▁찾는 100
▁Also 100
▁이용할 100
▁SA 100
▁하나님께 100
▁최소 100
▁Player 100
▁Convention 100
▁rather 100
쉬 100
▁Castle 100
▁wine 100
▁1:1 100
▁inter 100
▁경우에는 100
▁기준 100
▁2004 100
off 100
▁Lisbon 100
▁trains 100
▁hold 100
▁누가 100
▁approach 100
▁도움을 100
▁심지어 100
▁근육 100
▁construction 100
▁ride 100
▁act 100
▁세트 100
▁Mom 100
▁Christian 100
▁AC 100
▁제공할 100
▁piercing 100
▁gym 100
▁LA 100
▁상자 100
▁프레스 100
▁제출 100
▁시내 100
▁dick 100
▁al 100
▁news 100
기는 100
▁l 100
▁Rue 100
▁무료로 100
▁럭셔리 100
▁직 100
▁pray 100
▁학습 100
CP 100
▁뒤에 100
억 100
cent 100
ju 100
▁Opera 100
▁HPE 100
▁behold 100
▁방법으로 100
▁화장실 100
▁산타 100
sch 100
▁recommend 100
▁suggest 100
거리 100
▁유부녀 100
▁보고서 100
▁150 100
▁Indian 100
ris 100
▁순 100
▁basic 100
▁대통령 100
▁Log 100
ves 100
▁functions 100
ification 100
때 100
illa 100
근 100
▁allowed 100
▁Compare 100
▁기회를 100
년부터 100
ify 100
▁2:1 100
▁십 100
320 100
▁뷰 100
▁이르시되 100
▁Public 100
▁Tableau 100
▁사망 100
▁filter 100
▁1.5 100
uff 100
nes 100
ag 100
▁결합 100
▁사건 100
all 100
▁Bal 100
▁completely 100
▁수하물 100
▁icon 100
▁seduced 100
▁apply 100
DI 100
BR 100
▁doll 100
▁bad 100
액 100
sy 100
▁Cal 100
▁section 100
▁helps 100
▁현지 100
▁높이 100
▁먹 100
ants 100
91 100
▁중단 100
▁성도착 100
▁오스트레일리아 100
▁특별 100
▁measurement 100
▁좋아 100
▁과정 100
▁골 100
▁세부 100
▁returned 100
600 100
▁책임 100
환 100
▁Visit 100
▁성급 100
vis 100
gra 100
▁공부 100
귀 100
▁south 100
81 100
▁세계의 100
▁Key 100
▁operation 100
▁moment 100
CH 100
▁도시의 100
▁07:01 100
▁Out 100
▁inside 100
▁진리 100
▁Space 100
▁Community 100
▁스트랩 100
air 100
izing 100
▁daughter 100
에서도 100
tar 100
▁군 100
▁요가 100
ations 100
▁안드로이드 100
▁medical 100
tech 100
▁아비 100
▁Mon 100
▁Anal 100
▁cookies 100
세기 100
▁한남자 100
▁Ave 100
▁걸어서 100
▁sight 100
▁평 100
ose 100
rt 100
á 100
▁require 100
▁Cha 100
▁limited 100
▁호텔입니다 100
▁핵심 100
▁시스템의 100
▁Athens 100
▁Th 100
칭 100
▁체 100
pl 100
▁George 100
lon 100
▁티 100
▁체험 100
▁두여자 100
▁ball 100
town 100
▁pick 100
▁애굽 100
▁versions 100
▁사람에게 100
▁뿐만 100
▁Program 100
▁01 100
▁strength 100
▁패스 100
▁Ulitsa 100
ney 100
AHCT 100
▁신청 100
▁plant 100
▁수상 100
▁나가 100
▁h 100
▁Ser 100
▁골드 100
▁groups 100
되었으며 100
하리라 100
▁delivery 100
▁length 100
▁Ge 100
▁백성 100
▁800 100
▁Bank 100
▁해수욕장 100
▁법률 100
▁나중에 100
▁메일 100
셀 100
▁400 100
젤 100
▁고정 100
▁캐 100
▁Moscow 100
▁교통 100
▁미니 100
log 100
▁port 100
▁concept 100
▁Joseph 100
▁사양 100
MC 100
▁서비스로 100
▁없 100
▁왕의 100
▁구역 100
▁공공 100
▁인형 100
▁gr 100
▁Vivud 100
▁데이터베이스 100
▁players 100
▁수준 100
84 100
▁제사장 100
Shaft 100
▁economic 100
▁활성화 100
▁이르 100
▁결 100
▁내에서 100
▁자동화 100
▁04:0 100
▁형성 100
▁Content 100
▁imp 100
▁hast 100
▁드라이브에서 100
▁Dublin 100
▁italian 100
▁Website 100
▁조각 100
▁PA 100
▁딸딸이 100
ick 100
▁Engine 100
▁Skip 100
▁07 100
ova 100
ky 100
▁marketing 100
▁costs 100
▁sc 100
▁메인 100
▁Point 100
▁produce 100
▁master 100
▁베트남 100
▁훈련 100
▁했습니다 100
▁` 100
▁전통 100
▁Sand 100
▁객실을 100
:4.0.30319 100
▁0.8 100
▁capacity 100
▁푸 100
▁아이디어 100
향 100
▁표시됩니다 100
다른 100
160 100
har 100
▁offered 100
▁(1 100
▁Institute 100
▁투숙객 100
▁패키지 100
▁타이트 100
▁주택 100
▁boots 100
▁향 100
▁didn 100
철 100
리는 100
▁계정을 100
lor 100
▁잔 100
▁컬렉션 100
▁Project 100
▁sperm 100
▁오줌 100
▁대답 100
▁57 100
▁Rose 100
\ 100
▁ideas 100
▁sports 100
▁Lane 100
▁TryBoobs 100
▁왼쪽 100
▁WordPress 100
▁unit 100
어요 100
rate 100
Co 100
▁Gra 100
ised 100
▁기념 100
▁당신 100
▁female 100
▁vSphere 100
94 100
RT 100
▁58 100
▁탭 100
▁광장 100
▁성숙한 100
▁주께서 100
▁정치적 100
▁떨어진 100
IL 100
▁라텍스 100
RP 100
먼 100
place 100
▁범주 100
▁출 100
▁울 100
▁Str 100
슬 100
rk 100
▁대체 100
▁aunt 100
oy 100
▁부족 100
▁설정을 100
▁~ 100
mont 100
▁확실 100
▁안에서 100
mal 100
▁scanning 100
▁벽 100
▁출판 100
▁limit 100
▁Sign 100
amp 100
▁0.9 100
▁사용하기 100
▁FetishShrine 100
▁깊은 100
힌 100
▁유일한 100
▁프로그램은 100
▁Cross 100
▁워드 100
can 100
▁모세 100
▁ticket 100
▁restaurant 100
스크 100
▁처음으로 100
▁지도에서 100
▁strategy 100
▁temple 100
▁사용됩니다 100
▁원격 100
▁whose 100
▁나타나 100
압 100
mit 100
▁OP 100
▁수준의 100
tur 100
ray 100
▁Systems 100
▁Gen 100
▁PornLib 100
▁아닙니다 100
▁좋습니다 100
▁도로 100
▁Well 100
▁원래 100
TP 100
▁serve 100
ram 100
▁servant 100
▁최초의 100
serv 100
▁Category 100
▁저녁 100
▁pissing 100
▁호스트 100
▁Files 100
▁자신을 100
▁difficult 100
▁클릭합니다 100
▁마르 100
▁nations 100
▁idea 100
ore 100
▁square 100
▁피어싱 100
▁1.2 100
ona 100
▁나와 100
▁어제 100
▁Customer 100
▁사이트에 100
▁않으면 100
▁히 100
▁시뮬레이션 100
▁clit 100
af 100
▁명소 100
▁가져 100
▁interest 100
▁movement 100
RM 100
▁lift 100
int 100
▁Mr 100
▁헝가리 100
▁개최 100
ö 100
▁im 100
▁간편 100
▁독특한 100
▁집중 100
gy 100
▁volume 100
▁현 100
▁센트럴 100
▁댄스 100
▁오픈 100
▁Nu 100
oth 100
uc 100
▁Voyeur 100
▁04:4 100
▁spiritual 100
▁있었습니다 100
press 100
▁번에 100
800 100
성이 100
▁통화 100
▁notice 100
▁보라 100
▁Copyright 100
▁인프라 100
▁현대적인 100
73 100
▁툴 100
▁discount 100
▁것도 100
▁spoke 100
Hit 100
▁미래 100
▁Fabulous 100
▁description 100
센 100
했 100
▁어린이 100
시는 100
▁lies 100
▁simply 100
▁vCenter 100
▁Motorola 100
▁마이크로 100
▁이르기를 100
▁appointed 100
▁행동 100
▁growth 100
kin 100
▁06:0 100
▁parties 100
▁wall 100
▁doesn 100
핑 100
her 100
▁financial 100
▁Only 100
ec 100
▁짧은 100
▁01:5 100
▁AMD 100
▁NY 100
슈 100
▁마리아 100
▁독립 100
▁파티션 100
▁activity 100
▁desktop 100
▁released 100
▁shoes 100
력을 100
act 100
취 100
▁특성 100
▁요청한 100
▁fa 100
시며 100
▁daily 100
ery 100
COM 100
▁Euro 100
▁welcome 100
.” 100
▁1.1 100
▁주로 100
▁날에 100
ute 100
ped 100
▁Manchester 100
long 100
▁승인 100
▁tree 100
▁이번 100
▁성능을 100
▁celebrity 100
▁스튜디오 100
▁작은자지 100
cing 100
▁thai 100
▁받는 100
▁목록으로 100
ory 100
를위한 100
bb 100
▁위치에 100
▁XenMobile 100
▁science 100
▁상트페테르부르크 100
▁문자 100
▁보이 100
aw 100
▁르 100
▁반대 100
▁Babe 100
▁프레임 100
적이고 100
▁태 100
▁hour 100
▁target 100
▁Cu 100
▁immediately 100
▁greater 100
▁속성 100
▁판매용 100
▁당신에게 100
자들이 100
▁info 100
▁1:2 100
음을 100
82 100
berg 100
dic 100
med 100
▁레벨 100
▁있어서 100
▁분야에서 100
ati 100
▁부르 100
▁© 100
▁Each 100
▁enable 100
▁탄 100
▁Like 100
씨 100
돌 100
nc 100
▁뿐 100
▁Post 100
▁direction 100
▁elements 100
▁Commercial 100
▁부츠 100
▁약관 100
▁영역 100
▁bi 100
▁되고 100
▁effective 100
▁{ 100
istic 100
하기를 100
▁enterprise 100
▁vibrator 100
▁anything 100
▁Golf 100
▁Christmas 100
▁trust 100
에게서 100
▁홀 100
▁있음 100
/2 100
!" 100
▁2.0 100
▁driver 100
▁industrial 100
▁technologies 100
▁블록 100
▁감염 100
▁Bang 100
▁seek 100
▁공화국 100
▁개별 100
▁approximately 100
▁회전 100
칠 100
다는 100
률 100
▁Event 100
▁탐색 100
▁Shopping 100
▁Operation 100
▁indian 100
shi 100
▁교수 100
▁위키백과 100
▁funny 100
▁street 100
▁그대로 100
▁지식 100
▁Victoria 100
▁집에 100
▁콜 100
Please 100
▁02:2 100
충 100
dia 100
▁짧은머리 100
stone 100
▁것처럼 100
▁Tea 100
▁지원하는 100
▁Ju 100
Ma 100
app 100
▁walking 100
oli 100
▁efficiency 100
▁response 100
▁Secure 100
▁cartoon 100
▁secretary 100
▁03:3 100
▁weight 100
▁65 100
dom 100
▁established 100
MI 100
▁02:3 100
▁제가 100
▁필수 100
▁LCD 100
▁PSD 100
elle 100
▁증 100
▁안전한 100
▁recovered 100
▁Price 100
▁Ke 100
▁Country 100
▁journey 100
▁military 100
▁mar 100
다가 100
▁engineering 100
리어 100
▁이어 100
▁followed 100
▁Ye 100
▁페리 100
▁input 100
▁최상의 100
▁적절한 100
like 100
ius 100
▁Are 100
tes 100
▁FAT 100
▁이와 100
▁돈을 100
▁fucks 100
▁카드를 100
▁Language 100
▁Mountain 100
▁James 100
▁시대 100
▁ZIP 100
▁종종 100
▁wind 100
▁Mary 100
▁시간에 100
▁Privacy 100
▁african 100
▁Policy 100
▁방법에 100
ato 100
준 100
mat 100
▁toward 100
▁entered 100
▁선택하고 100
▁reasons 100
▁작 100
▁mini 100
▁Orlando 100
▁spot 100
▁taxi 100
▁효과 100
OT 100
▁Way 100
▁values 100
ect 100
▁Washington 100
▁infrastructure 100
▁Regular 100
▁목욕 100
▁약속 100
▁tab 100
▁내려 100
▁domain 100
▁APK 100
AB 100
▁workers 100
▁Application 100
▁Pi 100
▁electronic 100
▁bo 100
▁파타야 100
▁Jacob 100
▁망 100
▁bride 100
▁달성 100
tt 100
▁develop 100
bus 100
▁거부 100
cu 100
▁완전한 100
▁상점 100
▁연예인 100
▁2015-05-0 100
▁spread 100
▁소셜 100
▁partition 100
▁strapon 100
▁두고 100
▁arab 100
▁입장 100
▁항공 100
▁forward 100
▁여러분이 100
하시 100
▁? 100
욕 100
▁Av 100
됨 100
` 100
▁fight 100
▁Istanbul 100
▁웃긴 100
▁Personal 100
▁있다면 100
▁이루 100
▁contains 100
▁Women 100
▁battery 100
▁foreign 100
▁playing 100
▁Cup 100
▁신뢰할 100
▁Train 100
bal 100
▁seconds 100
▁클릭하여 100
▁× 100
Gu 100
ON 100
▁Il 100
▁fathers 100
▁active 100
▁engine 100
톤 100
▁지나 100
든지 100
▁07:2 100
▁rock 100
▁depend 100
▁accept 100
▁smart 100
있습니다 100
hen 100
▁그만큼 100
ition 100
▁필요로 100
소서 100
▁10:10 100
DG 100
ala 100
▁Girl 100
▁01:1 100
▁개념 100
▁Cottage 100
▁크리스마스 100
SI 100
point 100
▁remain 100
▁순간 100
▁닫기 100
▁장기 100
▁Cons 100
▁금고 100
▁drop 100
▁match 100
▁침 100
▁대화 100
▁무리 100
▁Apt 100
▁wrote 100
▁직업 100
▁스페인편 100
▁게스트 100
▁알아 100
To 100
vin 100
▁편리한 100
▁있었 100
했지만 100
▁mark 100
▁조식 100
▁이미지를 100
▁두려워 100
▁03:4 100
▁주차장 100
▁있어야 100
▁대학교 100
▁jeans 100
▁제품의 100
▁cam 100
▁(2 100
▁edge 100
▁동기화 100
도를 100
되기 100
▁개요 100
▁partners 100
▁(2) 100
▁보여 100
물을 100
▁combination 100
▁클라이언트 100
ans 100
▁pen 100
Flix 100
▁나은 100
ata 100
▁UK 100
▁03:1 100
▁낮 100
▁lose 100
▁인구 100
▁미터 100
▁Sol 100
▁understanding 100
▁Using 100
▁Private 100
▁giving 100
▁translation 100
▁검토 100
▁감독 100
▁Auto 100
▁→ 100
DC 100
▁mountain 100
했으며 100
▁GS 100
화된 100
▁업무 100
▁restaurants 100
pu 100
▁Create 100
▁03:2 100
▁shared 100
▁Tel 100
▁Exchange 100
▁Greek 100
ms 100
▁Relation 100
eb 100
▁자세 100
▁계시 100
wo 100
▁teaching 100
▁essential 100
MB 100
▁패션 100
▁stats 100
▁Col 100
▁micro 100
▁AND 100
CS 100
▁degree 100
▁화학 100
▁교환 100
▁레이 100
▁Superb 100
xi 100
▁domination 100
▁Keep 100
▁뜻 100
▁맨 100
late 100
▁standards 100
ston 100
▁Test 100
▁extra 100
back 100
▁통과 100
▁시스템은 100
▁Xvideos 100
▁족속 100
▁shown 100
ole 100
▁기후 100
▁돌아 100
▁Metro 100
av 100
규 100
FS 100
시켜 100
▁tri 100
▁보통 100
성급 100
sc 100
▁compared 100
▁01:2 100
▁Para 100
셨 100
▁비서 100
▁Hollywood 100
▁note 100
▁68 100
▁적합한 100
▁폰 100
▁Ban 100
▁땅에서 100
▁client 100
VE 100
벨 100
▁Za 100
▁considered 100
▁Classic 100
▁Electro 100
▁고양이 100
▁트랙 100
▁summer 100
▁내용은 100
▁있던 100
▁label 100
▁Manufacturers 100
▁선택하십시오 100
▁자신 100
▁sleeping 100
▁bread 100
▁56 100
골 100
순 100
▁힐튼 100
▁장치를 100
▁visitors 100
▁1.7 100
▁도입 100
▁benefit 100
ero 100
▁필드 100
▁CB 100
▁노래 100
▁Angel 100
▁race 100
▁박사 100
▁camp 100
▁지역에서 100
get 100
▁reliable 100
▁청바지 100
▁폴 100
vid 100
▁resolution 100
And 100
▁알려진 100
▁Device 100
▁character 100
▁moved 100
▁03:00 100
▁자의 100
에서부터 100
▁와인 100
▁shape 100
gue 100
▁machines 100
eo 100
▁ro 100
▁Martin 100
bra 100
▁changed 100
하였으며 100
pur 100
▁KatesTube 100
▁트위터 100
▁weather 100
▁느 100
▁멀티 100
zo 100
▁Year 100
▁다윗 100
▁cancer 100
얼 100
다면 100
년대 100
▁late 100
▁설교 100
▁능력을 100
▁형 100
패 100
▁영상 100
▁Par 100
▁PornSharing 100
▁저작권 100
▁drunk 100
eu 100
▁120 100
▁시설이 100
▁조금 100
▁팬 100
▁혼 100
▁Tra 100
▁갈색 100
▁전세계 100
▁rich 100
▁glass 100
▁Emirates 100
▁옆에 100
▁quite 100
▁지침 100
▁베이브 100
▁마십시오 100
ux 100
You 100
▁05:4 100
▁surprise 100
und 100
▁제시 100
▁웨스트 100
▁Unit 100
▁boy 100
▁노인 100
▁continued 100
▁separate 100
▁Vietnam 100
▁결국 100
▁Four 100
▁sensor 100
▁everyone 100
▁SP 100
▁attack 100
▁연합 100
▁모터 100
▁seat 100
▁force 100
승 100
▁07:3 100
▁river 100
▁Number 100
XX 100
▁전력 100
▁모두의 100
TV 100
ob 100
▁인도네시아 100
▁노트북 100
▁수있다 100
▁05:2 100
▁Queen 100
▁행성 100
▁조명 100
▁generation 100
▁Cap 100
▁사라 100
▁Electric 100
PT 100
SSC 100
렸다 100
▁주제 100
▁traffic 100
▁impact 100
▁비용을 100
▁Act 100
DA 100
▁sins 100
▁하나입니다 100
▁누구 100
▁integrated 100
▁명의 100
▁그러 100
ye 100
▁judgment 100
▁치마속 100
▁커컬드 100
▁Guesthouse 100
▁행위 100
▁갖추고 100
▁kill 100
What 100
▁Connect 100
▁win 100
▁Hub 100
▁예상 100
▁땅을 100
▁레드 100
▁slut 100
책 100
졌 100
▁방어 100
▁Ya 100
릭 100
▁presence 100
▁bisexual 100
▁패널 100
▁mean 100
▁지배 100
▁bookings 100
▁fruit 100
SM 100
▁servants 100
▁불러 100
▁사람들의 100
▁절대 100
▁supported 100
▁chinese 100
▁더불어 100
▁destroy 100
▁하녀 100
하니 100
▁enables 100
ign 100
▁Palm 100
▁advantage 100
▁임대 100
▁케이스 100
▁disciples 100
He 100
▁독 100
▁범죄 100
▁버튼 100
▁전통적인 100
▁Rooms 100
없는 100
TO 100
gate 100
▁대회 100
SH 100
▁holiday 100
▁marriage 100
▁충전 100
▁Module 100
▁그냥 100
▁차지 100
례 100
▁것이라고 100
▁Mount 100
▁쿠키 100
-20 100
▁prior 100
▁길을 100
▁급 100
▁Smoking 100
▁Solutions 100
▁[...] 100
▁wireless 100
▁tied 100
▁살아 100
▁penis 100
▁commanded 100
▁delivered 100
▁Adam 100
▁fish 100
del 100
▁methods 100
view 100
▁purchased 100
▁압축 100
▁04:3 100
▁Cathedral 100
▁충돌 100
▁creation 100
▁모스크바 100
▁프로세스를 100
▁Low 100
meter 100
olo 100
▁count 100
gre 100
▁부여 100
▁historical 100
▁Fu 100
▁Turkey 100
▁파괴 100
▁은혜 100
▁날씨 100
pan 100
read 100
ming 100
▁associated 100
▁1.3 100
▁보지 100
▁Saul 100
▁도보로 100
▁기사 100
▁운전 100
▁currently 100
▁김 100
악 100
▁Collection 100
▁› 100
풍 100
▁Blonde 100
▁links 100
▁없어 100
▁operations 100
hai 100
▁stage 100
▁1.9 100
▁sister 100
▁성인 100
▁theme 100
pon 100
▁convert 100
▁languages 100
▁선물 100
프리 100
랜 100
▁fisting 100
▁YourLust 100
▁Arm 100
▁면 100
IM 100
cia 100
▁remote 100
킨 100
▁업계 100
▁benefits 100
▁€ 100
tan 100
▁battle 100
▁특허 100
▁있나요 100
▁obj 100
▁죽음 100
▁플러그인 100
▁Van 100
▁시스템에서 100
▁마음에 100
▁DE 100
▁tungsten 100
▁통한 100
▁그린 100
트리 100
PI 100
님의 100
▁wanted 100
▁불구하고 100
▁monitor 100
▁dwell 100
▁오브 100
▁healthy 100
▁Work 100
▁Ter 100
▁실험 100
착 100
▁패밀리 100
▁sword 100
-6 100
▁-- 100
팀 100
▁머물고 100
cor 100
▁원인 100
▁consider 100
▁Pacific 100
▁혁명 100
▁신호 100
▁hit 100
▁worship 100
▁싶으십니까 100
▁Land 100
▁butt 100
▁WiFi 100
되었고 100
▁Shi 100
▁‘ 100
▁배송 100
í 100
sol 100
▁알려 100
▁다운 100
ons 100
▁민족 100
▁손을 100
▁편의시설 100
▁otherwise 100
▁아파트에 100
▁진동기 100
▁cell 100
▁lives 100
▁Fo 100
▁exist 100
▁reservation 100
▁Mall 100
▁handle 100
▁보드 100
▁통제 100
▁사용하고 100
함이 100
기가 100
▁manufacturing 100
▁sacrifice 100
으면 100
▁Tag 100
▁일곱 100
▁참조하십시오 100
▁cover 100
▁《 100
았 100
▁복음 100
▁MA 100
▁min 100
▁communication 100
▁않았 100
려면 100
ello 100
▁참가 100
▁매년 100
▁Marriott 100
▁아테네 100
▁사례 100
ado 100
▁지원을 100
▁72 100
▁미국의 100
▁SE 100
▁Costa 100
▁버전을 100
▁식 100
RG 100
▁setting 100
▁correct 100
▁250 100
play 100
▁altar 100
▁절약 100
▁엿 100
▁Guide 100
▁SI 100
▁skin 100
제공 100
▁감지 100
ew 100
더니 100
▁알게 100
하던 100
▁explore 100
▁England 100
▁걸으면 100
▁폭 100
▁비율 100
▁본인 100
벌 100
콜 100
▁터 100
▁항 100
ori 100
ENT 100
▁tour 100
▁Cl 100
▁08:4 100
▁제공하며 100
▁Earth 100
▁유형의 100
name 100
▁Backup 100
▁등급 100
▁알지 100
▁named 100
rus 100
▁attractions 100
ras 100
ida 100
▁Sexy 100
▁Brazil 100
br 100
▁TitsBox 100
▁border 100
▁장갑 100
▁:: 100
▁패턴 100
▁저항 100
▁condition 100
▁속박 100
▁칠 100
shan 100
▁선지자 100
나무 100
나요 100
▁VPN 100
ese 100
▁practice 100
▁shop 100
▁sky 100
▁군대 100
▁상대 100
▁Videos 100
▁요한 100
나는 100
▁Paradise 100
▁뉴질랜드 100
▁Health 100
비아 100
▁SOLIDWORKS 100
down 100
▁멀리 100
rc 100
PE 100
▁destination 100
▁01:3 100
For 100
▁에어 100
▁Behold 100
▁EU 100
▁brazil 100
▁contract 100
▁금융 100
▁sauna 100
▁favourite 100
▁Tool 100
▁거대한 100
▁Inter 100
북 100
▁BA 100
▁08:3 100
▁기초 100
▁picture 100
▁useful 100
ami 100
▁왔 100
▁도메인 100
▁넓은 100
▁걸쳐 100
▁접속 100
▁서비스와 100
cc 100
이자 100
▁Although 100
▁pe 100
los 100
▁forces 100
▁하였다 100
▁convenient 100
▁성령 100
▁League 100
▁클래스 100
▁wrong 100
▁Moo 100
▁poor 100
▁상호 100
▁입력하고 100
mes 100
▁아니다 100
▁미술관 100
ire 100
▁휴가 100
▁County 100
▁프로세서 100
▁Unclassif 100
的 100
▁towards 100
3/ 100
lar 100
▁chart 100
▁완전 100
▁소식 100
나이다 100
▁맞 100
BD 100
컬 100
▁testing 100
see 100
▁Oracle 100
▁creating 100
▁facesitting 100
▁corner 100
▁angel 100
▁Sim 100
▁CMOS 100
▁friendly 100
▁06:2 100
grad 100
▁조절 100
IR 100
▁샌 100
▁넘 100
▁처 100
▁앞으로 100
▁이전에 100
▁leaving 100
▁History 100
unk 100
▁제목 100
▁described 100
스는 100
▁소비자 100
▁hire 100
▁샤 100
시키 100
▁우크라이나 100
▁이스탄불 100
▁internal 100
▁보험 100
▁06:10 100
▁po 100
▁문서를 100
▁정신 100
▁은행 100
▁Wall 100
▁백과사전 100
▁스퀘어 100
▁핀란드 100
▁율법 100
▁Comfort 100
▁° 100
▁제도 100
▁projects 100
▁objects 100
▁군사 100
▁anyone 100
▁requires 100
▁lines 100
rop 100
▁08:5 100
▁Sub 100
▁Three 100
▁일에 100
ties 100
느냐 100
폭 100
LI 100
▁라이 100
CT 100
▁평화 100
▁Comp 100
▁자원 100
pos 100
스의 100
스러운 100
▁Memory 100
▁Puerto 100
▁families 100
▁Author 100
▁Storage 100
▁정보가 100
▁Floor 100
år 100
▁EN 100
ome 100
▁환 100
▁efficient 100
▁Size 100
▁그것의 100
▁covenant 100
▁않다 100
▁Pool 100
▁데스크 100
▁Chat 100
NE 100
▁유틸리티 100
▁Ram 100
찰 100
▁successful 100
▁served 100
▁Social 100
▁님이 100
▁sh 100
이트 100
▁Run 100
▁Platform 100
▁Stadium 100
▁valid 100
▁무역 100
▁오래된 100
▁Vo 100
▁cl 100
= 100
칸 100
▁bank 100
▁Ag 100
▁다양 100
▁SAP 100
▁사람들에게 100
▁scale 100
▁서울특별시 100
▁specified 100
▁년에 100
ib 100
필 100
kan 100
▁시도해 100
▁Fuck 100
▁previous 100
ches 100
▁격 100
▁이들 100
▁Every 100
▁확인할 100
▁Coffee 100
▁녹색 100
▁말하기를 100
▁laundry 100
▁advance 100
avi 100
▁Minh 100
았다 100
▁Bon 100
▁displayed 100
Con 100
▁성읍 100
▁coffee 100
▁swimming 100
▁저자 100
▁콘텐츠를 100
DW 100
▁제국 100
▁Mc 100
▁2.1 100
들로 100
bin 100
▁안전하게 100
▁3.0 100
▁Have 100
▁rule 100
▁regular 100
▁Times 100
▁능 100
하시는 100
head 100
협 100
▁parents 100
▁링크를 100
▁Before 100
▁luxury 100
▁faster 100
▁ladyboy 100
▁dark 100
▁레이저 100
▁네덜란드 100
▁구두 100
nic 100
▁극 100
▁significant 100
ably 100
사를 100
이드 100
▁plastic 100
▁빨리 100
▁금지 100
▁electronics 100
sur 100
wan 100
▁암호화 100
▁pop 100
심을 100
▁유명 100
송 100
ich 100
▁tourist 100
▁이유로 100
째 100
▁extension 100
▁responsible 100
▁population 100
▁sense 100
▁favorite 100
ase 100
▁Limited 100
▁포함된 100
자와 100
▁Gate 100
▁실시 100
▁influence 100
▁조건에 100
▁cells 100
▁돌아가 100
▁mine 100
▁Wine 100
▁고유 100
ics 100
▁Lesbian 100
▁spring 100
▁부정 100
LD 100
▁Steam 100
▁remember 100
▁사람과 100
▁응 100
▁title 100
▁진화 100
gal 100
▁되지 100
▁III 100
▁Restaurant 100
▁가득 100
▁월드 100
▁GmbH 100
▁정리 100
▁거기서 100
▁머물 100
됐다 100
▁Pop 100
-16 100
▁lo 100
ART 100
▁achieve 100
ration 100
▁maintenance 100
▁pornhub 100
▁렌터카 100
▁sharing 100
▁End 100
pp 100
▁launch 100
rm 100
께 100
ple 100
왕 100
▁숨 100
ALS 100
PR 100
▁1000 100
▁티켓 100
▁museum 100
▁Fun 100
▁database 100
▁컨트롤러 100
▁agree 100
▁caused 100
▁Tour 100
BS 100
▁Hua 100
▁prayer 100
▁fl 100
HA 100
▁못한 100
▁탈 100
▁석 100
▁frame 100
릿 100
▁Shenzhen 100
▁erotic 100
▁middle 100
▁Es 100
▁머신 100
▁Wood 100
▁콘 100
▁마치 100
▁09:4 100
▁2002 100
으나 100
▁법적 100
▁Yu 100
빈 100
▁리뷰를 100
몬 100
▁Heart 100
▁59 100
▁못할 100
▁OR 100
▁downloads 100
▁Bur 100
▁Lin 100
▁분리 100
▁ring 100
GA 100
▁08:0 100
▁appropriate 100
▁dream 100
▁슈퍼 100
▁트리 100
▁따 100
▁respect 100
▁Fer 100
▁영광 100
▁AS 100
lot 100
▁Stay 100
▁TPA 100
▁feed 100
트라 100
였습니다 100
▁Spring 100
▁아르 100
▁Premier 100
▁음경 100
▁Quick 100
▁Sexu 100
Inc 100
▁규칙 100
▁bear 100
존 100
▁Cur 100
▁속에 100
ico 100
▁없었다 100
예약 100
▁최저가 100
▁Mag 100
▁reading 100
▁도전 100
▁휴대 100
▁library 100
▁Summer 100
▁sedan 100
DT 100
▁Busty 100
GR 100
▁! 100
▁진정한 100
▁그것 100
▁07:4 100
5- 100
yl 100
▁eye 100
▁1990 100
▁Us 100
lip 100
▁brings 100
▁pages 100
▁bike 100
▁05:01 100
cher 100
▁scan 100
▁목적 100
▁recent 100
▁Science 100
▁Exhibition 100
▁기뻐 100
▁다운타운 100
▁knew 100
▁차트 100
▁데이 100
▁타입 100
▁actually 100
▁아마 100
▁Trans 100
▁존 100
▁의한 100
▁Pu 100
▁제공되는 100
AI 100
sta 100
HS 100
▁Porto 100
▁간의 100
▁priests 100
▁Budget 100
▁XBabe 100
▁스쿠터 100
▁laws 100
▁예측 100
▁힐 100
▁특수 100
▁환경을 100
범 100
▁도구는 100
▁mu 100
▁Silicon 100
▁laptop 100
▁잠자는 100
▁increased 100
▁MB 100
▁Edition 100
혀 100
▁플라자 100
▁질문에 100
▁배우 100
▁송 100
700 100
월에 100
more 100
▁말하는 100
▁Industry 100
▁opportunity 100
▁그렇지 100
▁amazing 100
▁Fast 100
▁서명 100
▁Mother 100
▁저희는 100
▁데이터가 100
ski 100
lea 100
맨 100
▁그와 100
▁pi 100
▁Apps 100
▁author 100
vert 100
▁같습니다 100
▁기능이 100
▁Email 100
▁10:01 100
▁$1 100
▁증명 100
▁너 100
▁시작했다 100
▁하니 100
▁단체 100
▁쉬 100
AG 100
▁NTFS 100
▁Society 100
▁Switzerland 100
▁거기에 100
▁채팅 100
▁effects 100
▁벨 100
▁worked 100
▁meat 100
이면 100
▁02:4 100
▁8.0 100
lt 100
nan 100
eri 100
▁대중 100
닉 100
▁TubeWolf 100
▁License 100
▁sometimes 100
▁Cheap 100
lie 100
▁확실히 100
ü 100
▁외장 100
▁print 100
▁Max 100
front 100
mas 100
▁Send 100
▁여기서 100
▁NE 100
▁위로 100
BE 100
▁Front 100
다고 100
▁privacy 100
▁corrupt 100
▁ha 100
▁보는 100
▁Sen 100
▁신문 100
▁condom 100
▁MO 100
▁고대 100
▁normal 100
iya 100
© 100
▁000 100
▁trying 100
▁switch 100
▁attempt 100
▁Tor 100
▁스위치 100
▁Charles 100
▁8.1 100
▁Report 100
▁여관 100
▁차단 100
▁thereof 100
▁package 100
▁someone 100
▁변수 100
▁express 100
▁Rua 100
▁conference 100
▁받았다 100
▁양성애 100
▁항공편 100
oke 100
▁아시아인 100
TB 100
▁600 100
▁guarantee 100
서를 100
▁reservations 100
2011 100
▁09 100
▁rent 100
▁Brand 100
▁Zealand 100
▁elevator 100
▁겨울 100
▁리소스 100
▁session 100
인지 100
▁met 100
5% 100
▁파이 100
▁goal 100
part 100
▁지키 100
Bit 100
iff 100
OL 100
푸 100
▁홀리데이 100
▁Display 100
▁percent 100
▁들킨 100
▁어디 100
정보 100
▁male 100
▁내장 100
▁Scan 100
wn 100
▁사용하지 100
▁되었 100
anda 100
▁목표 100
ls 100
▁Mel 100
▁위성 100
▁혜택을 100
▁섹션 100
▁이집트 100
▁skills 100
▁motor 100
oz 100
▁체크인 100
▁Offering 100
우드 100
▁인류 100
▁equipped 100
▁corrupted 100
▁철 100
▁굴 100
스티 100
▁결코 100
▁dollar 100
▁풍부한 100
▁담당 100
우스 100
LO 100
VI 100
▁없고 100
▁upgrade 100
▁Tro 100
▁employees 100
▁08:2 100
ved 100
▁드리 100
▁Piazza 100
▁일상 100
▁basis 100
▁Kids 100
▁문을 100
우리 100
▁비록 100
▁올라 100
ien 100
▁rules 100
▁취한 100
▁names 100
▁퍼 100
▁부모 100
▁writing 100
▁파일에 100
▁라이선스 100
▁guest 100
▁심판 100
▁Under 100
▁민 100
▁학 100
oe 100
▁85 100
▁produced 100
▁거주 100
▁career 100
▁ca 100
▁폐 100
▁리스본 100
▁iCloud 100
not 100
▁grand 100
▁corruption 100
▁위해서는 100
▁y 100
▁각각 100
▁사실을 100
▁제공하기 100
▁2.2 100
▁Em 100
▁대형 100
▁도달 100
널 100
▁권리 100
▁개체 100
▁Education 100
▁Vienna 100
▁swimsuit 100
▁마지막으로 100
▁Citrix 100
▁황 100
▁05:30 100
▁rise 100
▁wait 100
▁profit 100
▁하나님은 100
burg 100
▁solve 100
▁비행 100
▁chain 100
극 100
▁천사 100
» 100
Bookings 100
par 100
명을 100
▁According 100
▁salvation 100
▁오스트리아 100
▁Client 100
▁silver 100
▁Little 100
▁로컬 100
▁비밀 100
ser 100
▁인생 100
▁gate 100
노라 100
만이 100
▁형태 100
▁bottom 100
▁innovation 100
▁메리어트 100
▁확대 100
▁Night 100
▁export 100
▁carried 100
▁Hand 100
▁Side 100
▁서비스에 100
▁LLC 100
▁sold 100
▁나오 100
타운 100
▁마리 100
ert 100
▁EX 100
▁폴란드 100
▁여러분은 100
▁Academy 100
▁Experience 100
▁distribution 100
▁fashion 100
▁gloves 100
▁몇몇 100
▁논문 100
▁finger 100
▁머물기 100
▁lowest 100
웨이 100
▁Ball 100
EST 100
▁partner 100
▁gain 100
aya 100
▁잘못 100
▁Universal 100
▁capabilities 100
▁컬러 100
▁suitable 100
TMs 100
▁relationship 100
▁앤드 100
tta 100
102 100
▁하신 100
▁gone 100
▁initial 100
igh 100
▁manual 100
▁discover 100
▁Yesterday 100
▁instructions 100
▁광범위한 100
▁아니하고 100
▁controller 100
▁CF 100
▁Direct 100
▁guy 100
▁former 100
Pro 100
TER 100
▁CAD 100
tation 100
▁Dual 100
▁task 100
py 100
▁경영 100
▁eternal 100
▁stood 100
▁worldwide 100
▁difference 100
▁clothed 100
▁Ku 100
▁받으 100
▁desire 100
▁Jews 100
▁Tom 100
uri 100
▁transport 100
▁체육 100
rea 100
▁Photoshop 100
MO 100
▁임신부 100
▁게시되고 100
▁blog 100
rit 100
▁thanks 100
.[1 100
▁played 100
dra 100
▁이것을 100
▁플라 100
느 100
La 100
▁Features 100
▁religion 100
▁출처 100
▁전시 100
까지는 100
▁이들은 100
▁마찬가지로 100
▁Kar 100
▁분류 100
▁warm 100
▁복잡한 100
▁선정 100
▁커버 100
▁자녀 100
▁maintain 100
▁lock 100
ili 100
▁lay 100
▁monitoring 100
▁east 100
▁버전의 100
▁bottle 100
ae 100
▁mask 100
ora 100
▁반복 100
▁국내 100
list 100
dam 100
▁flight 100
▁joy 100
▁노동 100
▁900 100
▁stone 100
On 100
덴 100
▁정자 100
▁맛 100
▁널리 100
▁PowerPoint 100
▁saving 100
▁삶 100
▁Box 100
▁넘어 100
▁disease 100
lf 100
▁클 100
▁Found 100
지지 100
▁마우스 100
load 100
▁messages 100
▁Drinks 100
▁chief 100
▁utility 100
▁있는데 100
▁해석 100
▁Mu 100
▁식별 100
▁기여 100
▁qu 100
▁08:1 100
LA 100
▁filled 100
▁mission 100
▁대부분 100
▁장소입니다 100
▁Verified 100
▁Fire 100
▁우승 100
▁알려져 100
▁broken 100
▁동작 100
▁Off 100
▁슈 100
▁액세스할 100
fu 100
어서 100
▁8- 100
ira 100
rin 100
십 100
▁장치에 100
▁Plan 100
bri 100
▁의심 100
▁Computer 100
▁내맘대로 100
▁다섯 100
▁Protection 100
▁노출 100
▁술 100
▁CPU 100
혼 100
▁numbers 100
PD 100
▁Converter 100
▁completed 100
▁복구하는 100
▁때문입니다 100
▁beyond 100
ock 100
▁Law 100
▁audition 100
▁chance 100
▁바람 100
▁과거 100
▁경고 100
▁백성이 100
▁전망 100
▁panel 100
하고자 100
▁adjust 100
명이 100
▁봉 100
lit 100
cm 100
▁비트 100
▁카테고리 100
▁Sports 100
▁면접 100
▁ne 100
▁PornWhite 100
▁대응 100
▁대해서 100
▁무엇이 100
▁passed 100
▁수없는 100
▁심장 100
mun 100
▁Gal 100
ali 100
san 100
되거나 100
▁농 100
▁봉사 100
▁기차역 100
개월 100
▁자위 100
▁사용자에게 100
▁Previous 100
▁Small 100
▁현장 100
▁midst 100
▁판단 100
▁우편 100
▁메시지를 100
RO 100
▁payment 100
FT 100
▁Boy 100
var 100
pic 100
벤 100
▁sl 100
▁PervClips 100
▁회사는 100
▁Development 100
CI 100
▁에로 100
▁07:59 100
▁환경에서 100
▁세션 100
들도 100
▁올림픽 100
▁문제에 100
▁Change 100
▁2001 100
▁Amsterdam 100
ging 100
▁신뢰 100
▁고객이 100
완 100
hin 100
▁Ireland 100
▁웨스턴 100
▁빌어 100
호텔 100
▁바닥 100
▁Profile 100
▁pics 100
▁busty 100
▁wood 100
▁Shower 100
▁Cum 100
▁피렌체 100
▁조합 100
▁computers 100
NV 100
▁같 100
▁플 100
De 100
▁무게 100
허 100
롤 100
▁independent 100
。 100
▁혼합 100
▁permission 100
▁말미암아 100
▁86 100
▁상표 100
▁66 100
▁63 100
▁Press 100
▁ho 100
▁관심을 100
▁0.0 100
▁origin 100
곡 100
▁Gardens 100
▁일본유부녀 100
▁socks 100
▁수영복 100
/1 100
▁fo 100
▁Km 100
▁billion 100
▁영원한 100
▁07:5 100
▁mass 100
▁레이디보이 100
▁오는 100
▁announced 100
ctor 100
▁혁신적인 100
가요 100
▁fell 100
▁Ki 100
▁이같이 100
▁Bro 100
▁compatible 100
▁리더 100
ula 100
▁61 100
▁모델을 100
▁progress 100
▁쿠폰 100
▁클립 100
▁auto 100
search 100
▁관심 100
104 100
stra 100
▁Pri 100
bon 100
럴 100
하시고 100
▁제품은 100
▁none 100
지에 100
▁secret 100
Pa 100
▁샘플 100
▁sit 100
▁till 100
skaya 100
▁청소년 100
It 100
▁core 100
▁UN 100
▁이름으로 100
▁위의 100
▁벤 100
▁virus 100
▁애플 100
▁seem 100
▁Fort 100
답 100
▁완 100
▁업로드 100
▁broad 100
▁Look 100
▁04:00 100
▁Tre 100
▁승리 100
No 100
▁appears 100
▁thousands 100
▁accurate 100
▁다이 100
▁해제 100
헤 100
▁공간을 100
▁naked 100
▁resistance 100
▁VintageTube 100
▁빠 100
위원회 100
▁휴대용 100
ass 100
▁진공 100
적이 100
▁spoken 100
hy 100
▁nation 100
▁item 100
1- 100
▁Pin 100
ony 100
▁물리적 100
▁귀하는 100
year 100
▁join 100
▁actual 100
ified 100
code 100
▁Chrome 100
채 100
▁간격 100
김 100
MD 100
▁타이 100
▁attention 100
▁파워 100
▁유대인 100
▁vehicle 100
▁Ce 100
▁일본어 100
▁동일 100
로우 100
▁2.4 100
리고 100
▁말고 100
퇴 100
rac 100
▁wrestling 100
▁Prices 100
▁과정을 100
▁스타일의 100
▁밖으로 100
lat 100
RF 100
▁Arts 100
▁보수 100
▁집에서 100
via 100
▁survey 100
▁Theatre 100
▁Osaka 100
▁mail 100
▁updates 100
TH 100
▁nu 100
▁극장 100
▁rose 100
▁조회 100
▁manner 100
▁병원 100
▁Mari 100
▁aim 100
120 100
cur 100
▁이용하여 100
▁있으면 100
▁활동을 100
▁신체 100
▁enemies 100
▁innovative 100
▁나머지 100
▁Wife 100
SEMI 100
▁엔 100
▁있음을 100
▁farm 100
▁팁 100
FF 100
▁받지 100
▁강한 100
▁09:5 100
hol 100
▁measure 100
낼 100
▁경로 100
▁grow 100
▁시트 100
▁Abraham 100
▁happy 100
▁Chicago 100
▁싸움 100
값 100
key 100
▁연속 100
put 100
CK 100
▁07:0 100
기로 100
▁Au 100
▁지점 100
rr 100
▁유로 100
▁고객에게 100
▁이상적인 100
왔다 100
▁이유는 100
▁베드로 100
▁아트 100
니스 100
빙 100
▁사정 100
▁Festival 100
▁흐름 100
▁MacBook 100
▁Silver 100
▁CEO 100
ess 100
▁파일은 100
▁Dong 100
▁organizations 100
▁cool 100
▁의회 100
▁스크린 100
REEL 100
▁즐 100
▁경계 100
▁Pat 100
▁사랑하는 100
▁드릴 100
elli 100
▁03:5 100
▁scene 100
▁등과 100
PG 100
뉴 100
하심 100
ington 100
▁Soviet 100
▁VikiPorn 100
▁프로모션 100
▁taught 100
▁draw 100
▁reference 100
▁humor 100
▁Phone 100
트로 100
▁이웃 100
LT 100
Ch 100
▁부문 100
▁1.4 100
▁finish 100
och 100
▁Audio 100
▁볼륨 100
dis 100
▁02:5 100
▁carry 100
▁웹사이트에서 100
▁Walk 100
▁XVideos 100
▁확보 100
▁root 100
103 100
aka 100
이스 100
▁체계 100
▁Stock 100
nu 100
▁사우스 100
▁cap 100
dale 100
▁결제 100
▁mis 100
ave 100
tting 100
▁updated 100
Mo 100
▁Va 100
▁Crystal 100
▁fbx 100
▁femdom 100
▁contest 100
EM 100
▁초대 100
top 100
▁Camp 100
▁우수 100
▁sort 100
▁교사 100
▁complimentary 100
CM 100
▁특 100
▁예언 100
▁빠르고 100
▁전립선 100
▁참석 100
▁Anti 100
▁else 100
ao 100
pre 100
샤 100
돈 100
gna 100
년까지 100
▁빅 100
▁사용을 100
▁호환 100
▁cat 100
site 100
402 100
▁단위 100
▁05 100
▁errors 100
▁covered 100
▁SQL 100
dan 100
었고 100
▁라스베이거스 100
▁WetPlace 100
▁GNU 100
▁플러스 100
▁Middle 100
▁tease 100
▁비디오를 100
NT 100
걸 100
▁북한 100
▁라고 100
CN 100
▁내리 100
▁근 100
▁ja 100
▁presented 100
▁나서 100
업체 100
▁수녀 100
▁만큼 100
겐 100
▁퇴실 100
▁figure 100
▁영향 100
▁저를 100
▁Poland 100
RS 100
▁easier 100
▁소프트 100
▁Photos 100
▁양말 100
NS 100
▁Net 100
▁공항에서 100
▁FM 100
▁Michael 100
▁agreement 100
ates 100
▁올해 100
▁연결된 100
▁오류가 100
▁Er 100
므로 100
▁대학에서 100
▁tit 100
NG 100
FP 100
▁새로 100
▁매력적인 100
▁보려면 100
▁RAW 100
▁갖고 100
▁Op 100
▁포함됩니다 100
▁자산 100
▁ironing 100
▁말이 100
cul 100
▁62 100
▁해안 100
▁respond 100
▁integration 100
▁테니스 100
▁전공 100
ians 100
즉 100
▁아니요 100
324 100
▁Thai 100
ua 100
right 100
▁발생할 100
▁프로그램에 100
▁Stra 100
▁Poly 100
cle 100
▁Ukraine 100
▁어플리케이션 100
▁주먹넣기 100
▁Account 100
▁eight 100
▁회복 100
▁보존 100
ena 100
pha 100
▁tap 100
리스트 100
Le 100
Korea 100
▁introduced 100
▁거룩한 100
▁청소 100
▁아이콘 100
yu 100
▁trouble 100
▁Print 100
교회 100
ric 100
▁압 100
▁Tam 100
▁한편 100
▁Prince 100
tte 100
▁campaign 100
▁righteousness 100
▁atmosphere 100
▁지속적으로 100
와의 100
하자 100
홀 100
▁signal 100
▁investment 100
▁타운 100
▁말씀이 100
▁음성 100
▁손으로 100
EE 100
▁accident 100
▁flights 100
▁Both 100
rim 100
▁06:1 100
▁하시 100
▁encyclopedia 100
▁balance 100
▁Babylon 100
▁wa 100
▁도움말 100
▁윈 100
class 100
las 100
▁par 100
▁컴퓨터에서 100
/10 100
▁에어컨 100
▁prostate 100
▁foursome 100
하니라 100
▁critical 100
▁물을 100
▁관계를 100
멘 100
이여 100
▁ME 100
자에게 100
ava 100
BM 100
릇 100
▁decision 100
능 100
▁provider 100
kh 100
렉 100
▁풍 100
▁싶은 100
▁라이브러리 100
기도 100
▁plans 100
▁순서 100
▁Wa 100
▁AI 100
▁Foot 100
▁score 100
▁Archive 100
sia 100
▁제품에 100
▁Total 100
▁완성 100
▁용량 100
▁Cho 100
스톤 100
텔 100
▁sur 100
This 100
met 100
▁foundation 100
▁Kit 100
▁사용해 100
▁09:2 100
▁으로 100
▁insurance 100
▁twenty 100
▁싱글 100
▁기쁨 100
▁Bat 100
▁Coast 100
▁언약 100
▁Research 100
▁록 100
▁vision 100
한다면 100
AV 100
▁army 100
▁유용한 100
▁processor 100
▁장착 100
▁인간의 100
rad 100
▁bag 100
▁chemical 100
mann 100
▁아파트에서 100
▁장소를 100
▁놀이 100
BA 100
▁interested 100
▁02 100
▁Department 100
▁Entertainment 100
▁어려운 100
▁Error 100
▁TrannyOne 100
▁비자 100
것 100
▁건조 100
▁decided 100
▁작용 100
▁Bali 100
▁수용 100
▁IBM 100
▁fi 100
hel 100
▁Chang 100
▁Radio 100
▁comprehensive 100
▁dedicated 100
▁얼굴앉기 100
▁줍니다 100
▁Congress 100
▁위대한 100
▁반환 100
견 100
▁자에게 100
▁인텔 100
EX 100
▁속에서 100
win 100
장을 100
pen 100
▁leader 100
bil 100
흐 100
▁prepared 100
001 100
eon 100
yn 100
▁손님 100
▁피부 100
▁막대 100
▁98 100
▁허가 100
▁Image 100
▁nun 100
▁pack 100
▁상황 100
▁Sony 100
ys 100
드리 100
▁다윗이 100
▁Beautiful 100
▁Related 100
▁Bentley 100
▁Solomon 100
▁Switch 100
▁insertion 100
서는 100
▁removed 100
▁Pet 100
▁점점 100
oni 100
▁Quad 100
▁컨벤션 100
▁성당 100
▁rain 100
▁보이는 100
II 100
▁묻 100
련 100
동안 100
▁z 100
▁automatic 100
▁프런트 100
▁관찰 100
▁의하여 100
▁포함하는 100
콘 100
ets 100
관리 100
ain 100
term 100
▁받았 100
▁권리를 100
nk 100
▁아웃 100
▁determine 100
▁통해서 100
▁700 100
▁Far 100
▁Jordan 100
▁gospel 100
▁레지던스 100
▁아브라함 100
▁따른 100
▁드레스 100
▁구글 100
hal 100
▁교체 100
▁계신 100
▁로그 100
라인 100
▁CH 100
lay 100
▁logo 100
NSR 100
▁행복 100
합니까 100
랄 100
▁느낌 100
▁마이애미 100
▁instance 100
▁exam 100
▁Camera 100
▁추출 100
non 100
▁radio 100
▁Roma 100
젠 100
▁전혀 100
▁Case 100
▁동료 100
▁Mil 100
▁Indonesia 100
ATION 100
tai 100
밍 100
씩 100
▁오사카 100
▁begin 100
▁인근 100
▁진단 100
▁강조 100
▁GPS 100
▁PRO 100
▁Buy 100
▁오일 100
▁모습 100
ient 100
▁페이지에 100
dal 100
FC 100
DM 100
▁Easy 100
▁Aaron 100
▁적이 100
▁궁전 100
▁절감 100
▁좀 100
▁고전적인 100
▁pornstar 100
▁바라 100
▁96 100
▁showing 100
사의 100
셨습니다 100
▁Mail 100
▁소비 100
▁Ve 100
▁주어 100
▁에스 100
▁Fucking 100
▁Second 100
▁sand 100
▁아래에 100
픽 100
▁Blowjob 100
▁라디오 100
▁kept 100
▁효율적인 100
▁테라스 100
▁lu 100
2010 100
▁judge 100
▁명령을 100
▁고품질 100
▁10% 100
▁dynamic 100
▁spa 100
232 100
▁refer 100
TI 100
uring 100
렛 100
▁상업적 100
▁society 100
▁샹하이 100
▁액세서리 100
▁Plastic 100
▁rail 100
▁presentation 100
An 100
▁만들고 100
▁Simple 100
▁Core 100
▁sleep 100
▁slow 100
▁오후 100
객 100
DP 100
▁옷을 100
▁구리 100
ological 100
▁선거 100
▁Java 100
▁Review 100
▁중지 100
▁lactating 100
▁기숙사 100
▁ancient 100
▁quiet 100
사이 100
pat 100
▁호수 100
▁엔지니어링 100
▁89 100
▁books 100
▁detect 100
▁Virtual 100
▁신발 100
ters 100
▁불과 100
프트 100
▁중국의 100
▁진실 100
▁입으로 100
▁gift 100
▁module 100
IG 100
▁killed 100
▁Bla 100
nny 100
▁television 100
사가 100
▁소련 100
▁involved 100
▁Director 100
FA 100
▁Gre 100
▁더블린 100
▁지속적인 100
▁측면 100
▁확인하십시오 100
▁Sense 100
폐 100
▁Developer 100
럼 100
▁Ze 100
tron 100
▁마음이 100
▁looked 100
▁영적 100
익 100
▁지시 100
베이 100
▁ZMovs 100
▁wise 100
▁낙 100
SL 100
▁폴리 100
권을 100
팔 100
▁어찌하여 100
▁Trade 100
sco 100
▁고객님 100
▁Thou 100
▁온라인으로 100
▁Sin 100
ern 100
▁LD 100
▁제자들 100
▁African 100
hand 100
▁relevant 100
▁천국 100
▁SO 100
▁영업 100
▁성격 100
▁tasks 100
가능 100
▁Den 100
짐 100
sex 100
학교 100
ros 100
▁머 100
시티 100
▁Madrid 100
▁올바른 100
▁starting 100
▁annual 100
▁50% 100
로드 100
▁TI 100
▁tea 100
▁obtain 100
▁demand 100
rick 100
있을 100
▁goes 100
4040 100
▁구성된 100
▁growing 100
▁저장된 100
▁McAfee 100
▁luggage 100
▁삽니다 100
▁PornGem 100
▁array 100
▁MILF 100
▁부활 100
▁Value 100
▁스틸 100
▁지적 100
▁믿는 100
▁넘는 100
▁labor 100
▁Kan 100
▁없을 100
엄 100
▁applied 100
▁gather 100
셋 100
섬 100
ret 100
hor 100
▁desired 100
hotel 100
장이 100
▁방문자 100
▁끌어 100
▁RAM 100
gram 100
NO 100
▁prophet 100
eria 100
▁Ber 100
▁island 100
▁$30.00 100
▁비밀번호 100
▁아파트먼트 100
▁Diego 100
▁말할 100
▁firm 100
▁Foundation 100
▁appeared 100
PM 100
DB 100
▁sheet 100
iano 100
▁Lion 100
▁roll 100
▁자신이 100
▁업 100
▁헬 100
wall 100
▁honor 100
▁선택입니다 100
▁위에서 100
▁때마다 100
010, 100
▁pain 100
▁Hol 100
HD 100
▁보유하고 100
찌 100
▁mathematical 100
▁올랜도 100
▁Metal 100
▁affect 100
▁Twin 100
▁환영합니다 100
▁extremely 100
▁solar 100
▁대기 100
▁모유 100
▁becomes 100
▁(10 100
▁덜 100
▁sale 100
vel 100
하였으니 100
arn 100
▁사는 100
▁MHz 100
▁재산 100
▁강의 100
▁함수 100
▁fit 100
rie 100
▁mountains 100
▁Bin 100
▁생산성 100
▁displays 100
ä 100
▁calendar 100
▁태블릿 100
▁수수료 100
▁옷입고하기 100
▁구름 100
PP 100
▁마스터 100
앙 100
▁Steel 100
▁trees 100
▁도심 100
▁William 100
▁보내기 100
▁정상 100
▁그분 100
KE 100
▁tall 100
▁환영 100
250 100
▁솔 100
ituated 100
수를 100
▁numerous 100
▁않음 100
▁덕분에 100
▁불가리아 100
▁알리 100
▁밖에 100
▁sw 100
bed 100
▁Motor 100
▁Enter 100
wing 100
une 100
▁stream 100
HCT 100
▁regarding 100
# 100
▁LF 100
▁꿈 100
▁덮 100
▁fields 100
▁tax 100
▁invest 100
▁Material 100
로는 100
▁Conference 100
▁익스프레스 100
▁symbol 100
▁Creative 100
▁Empire 100
▁파악 100
▁선언 100
ost 100
sky 100
▁TP 100
▁바울 100
▁하려 100
SO 100
▁Lab 100
▁역시 100
참 100
▁believed 100
hang 100
▁성전 100
AF 100
▁철학 100
▁뇌 100
ax 100
▁destroyed 100
▁Vol 100
리지 100
▁album 100
▁identify 100
▁Downloads 100
▁골든 100
디아 100
▁이용하실 100
▁cold 100
▁Very 100
BT 100
▁노동자 100
▁저희에게 100
▁Ham 100
▁Mai 100
》 100
▁Bor 100
▁다수 100
▁로고 100
▁장치에서 100
▁04:1 100
▁opt 100
ere 100
▁Results 100
▁president 100
▁chair 100
▁가능성이 100
▁이르러 100
▁flat 100
▁예약을 100
▁분명 100
▁이름이 100
▁의지 100
▁pl 100
▁VI 100
rum 100
CL 100
▁공학 100
▁수단 100
▁그때 100
▁95 100
▁프 100
하되 100
▁프랑스어 100
는지 100
▁Dar 100
▁Adventure 100
▁certificate 100
▁committed 100
▁경악 100
받을 100
▁Clock 100
▁Delta 100
▁ob 100
▁효과적인 100
▁currency 100
0000 100
▁적은 100
▁감사합니다 100
vy 100
▁happened 100
core 100
▁열기 100
이지만 100
▁IV 100
틴 100
육 100
▁신용 100
▁王 100
110 100
tern 100
▁scooter 100
▁깊이 100
▁리셉션 100
▁이르기까지 100
▁상하이 100
▁언제든지 100
uit 100
▁tower 100
▁reached 100
UN 100
▁키를 100
▁곳이 100
▁Farm 100
style 100
▁한국어 100
▁철도 100
own 100
▁기회 100
Free 100
▁waters 100
서비스 100
▁clicking 100
▁Discover 100
▁프로그램의 100
▁아무것도 100
▁즐겁게 100
人 100
▁fe 100
▁planning 100
▁시청 100
▁lack 100
▁청구 100
기술 100
▁발생하는 100
리에 100
▁IC 100
응 100
▁vs 100
inc 100
▁Avenida 100
▁applicable 100
▁collaboration 100
▁시나리오 100
▁superior 100
▁mouse 100
▁검정 100
▁Skype 100
▁탁월 100
▁Basic 100
▁waste 100
상황 100
▁웹사이트에 100
▁세우 100
If 100
리오 100
주는 100
▁larger 100
이었습니다 100
▁tried 100
▁컨트롤 100
▁Hospital 100
ika 100
▁listen 100
▁세대 100
▁나타납니다 100
▁앨범 100
▁trading 100
▁스톡 100
▁Ultra 100
▁회사의 100
▁주소를 100
▁때문이다 100
▁신속하게 100
▁호텔에 100
델 100
▁00 100
가는 100
▁listed 100
(4/ 100
▁damaged 100
▁wonder 100
▁이메일을 100
but 100
▁forms 100
▁Swedish 100
▁exercise 100
▁않도록 100
▁diaper 100
▁희망 100
link 100
▁눈을 100
▁코트 100
▁anywhere 100
▁spent 100
▁cup 100
▁단계를 100
▁잔디 100
▁문제는 100
▁십대 100
▁시스템이 100
것을 100
▁2.3 100
▁AG 100
▁잘못된 100
▁상태를 100
▁그녀 100
ó 100
사항 100
▁Pad 100
.2) 100
▁belong 100
▁sta 100
yuan 100
▁고통 100
▁카탈로그 100
ml 100
zen 100
▁Sh 100
▁81 100
▁hi 100
▁Zoo 100
▁clients 100
▁· 100
-01 100
갑 100
▁teens 100
▁범 100
▁CE 100
▁booked 100
▁competition 100
▁convenience 100
▁fresh 100
▁Football 100
tit 100
▁Railway 100
▁bedroom 100
▁실현 100
▁laser 100
tz 100
PL 100
▁locations 100
▁책임을 100
▁arm 100
▁manager 100
story 100
LF 100
▁Fashion 100
▁although 100
▁wisdom 100
▁아름다움 100
▁shuttle 100
▁현황 100
▁Terms 100
▁Antonio 100
▁servers 100
reg 100
▁boot 100
TION 100
▁IS 100
▁악성 100
▁Date 100
▁lived 100
▁지파 100
▁77 100
궁 100
폰 100
▁의무 100
▁fail 100
▁체크 100
▁Tar 100
▁Bluetooth 100
▁드라이클리닝 100
인의 100
▁Short 100
fr 100
▁하나가 100
▁extract 100
▁pieces 100
▁publish 100
▁줄을 100
▁통하여 100
▁accommodations 100
▁(3) 100
▁Mid 100
▁살고 100
row 100
▁contain 100
었으며 100
BI 100
▁말한다 100
▁cutting 100
▁Board 100
▁완벽하게 100
▁evening 100
▁08:30 100
2015 100
▁Cr 100
▁독일어 100
▁3.5 100
이니 100
▁발리 100
▁mechanical 100
▁serious 100
▁리눅스 100
▁맨체스터 100
▁유머감각 100
▁프레 100
01- 100
▁Block 100
▁Nan 100
BO 100
ense 100
▁장면 100
▁Sant 100
▁Record 100
▁레슬링 100
▁Islands 100
▁kinds 100
1/ 100
print 100
▁wicked 100
▁truly 100
▁push 100
▁patient 100
▁일본엄마 100
mu 100
▁1980 100
▁para 100
▁upload 100
▁notes 100
▁외에도 100
▁layer 100
5,000 100
jpg 100
▁Local 100
▁likely 100
▁Will 100
▁plate 100
▁remains 100
▁관련하여 100
▁Vintage 100
▁Premium 100
▁맹세 100
▁Hungary 100
▁짐승 100
LP 100
new 100
▁0,1 100
▁Ed 100
▁FOR 100
▁가운데서 100
접 100
▁메시지가 100
▁정부는 100
▁메이 100
▁드라이브에 100
측 100
▁Kh 100
▁answers 100
▁힘을 100
▁calls 100
▁band 100
포트 100
▁Welcome 100
▁호치민 100
▁Swiss 100
▁마련 100
에만 100
▁Thank 100
▁Action 100
▁축제 100
▁Lock 100
택 100
영어 100
▁우선 100
▁VM 100
▁어찌 100
▁BU 100
▁Age 100
water 100
임을 100
HO 100
▁Harbour 100
▁university 100
▁워싱턴 100
▁positive 100
▁false 100
▁보여줍니다 100
▁없었 100
▁정렬 100
▁상징 100
▁fixed 100
▁신속 100
▁03 100
VER 100
▁experiences 100
▁Cas 100
룩 100
▁Engineering 100
▁Install 100
지어다 100
▁expect 100
▁하시고 100
▁environmental 100
▁porno 100
▁Track 100
봉 100
▁cultural 100
▁bright 100
묘 100
▁Manhattan 100
▁Natural 100
▁sweet 100
▁묘사 100
▁Daniel 100
▁escape 100
▁failure 100
lum 100
▁로봇 100
▁element 100
gli 100
nna 100
ough 100
▁Gran 100
▁가치를 100
▁Tan 100
▁중간 100
sti 100
els 100
▁units 100
▁registered 100
cast 100
▁1.0 100
▁Fair 100
▁인한 100
▁Ten 100
▁Hai 100
하기로 100
rist 100
mmer 100
▁Ana 100
▁animals 100
▁돌아오 100
tter 100
▁Homes 100
▁bang 100
▁assembly 100
▁퍼즐 100
▁travelers 100
▁접촉 100
▁sitting 100
▁목록을 100
▁Dress 100
▁song 100
▁간주 100
position 100
▁ESXi 100
사는 100
hua 100
▁닫 100
▁83 100
onic 100
▁아는 100
▁보면 100
라스 100
▁보내어 100
황 100
▁meaning 100
▁받 100
▁몸을 100
▁97 100
▁XXX 100
LM 100
▁리스트 100
▁Favourite 100
▁획득 100
▁넷이서 100
▁오페라 100
▁상세정보 100
▁driving 100
▁있으므로 100
▁Cer 100
▁식당 100
▁Tits 100
▁보유 100
▁페이지의 100
▁현금 100
▁수술 100
▁섹시한 100
MM 100
table 100
▁까 100
▁wear 100
▁균형 100
▁Cute 100
▁생물 100
같은 100
▁minimum 100
▁결혼여부 100
▁exceed 100
▁heavy 100
▁sat 100
▁Children 100
▁entertainment 100
▁ju 100
▁불가능 100
▁정액 100
TC 100
▁effort 100
▁행정 100
▁사이트에서 100
EUN 100
▁사이트의 100
▁capture 100
숙 100
▁역할 100
▁마시 100
cker 100
▁fair 100
베르 100
mic 100
▁상황에서 100
시니 100
run 100
인이 100
▁si 100
▁얼마 100
▁캠 100
▁electro 100
▁사진은 100
▁Portuguese 100
▁Dream 100
▁옛날 100
▁바꾸 100
▁질병 100
▁Usage 100
라도 100
▁재판 100
▁brain 100
니까 100
▁ta 100
▁세금 100
▁import 100
▁spend 100
▁4.0 100
▁쌍 100
vit 100
▁관하여 100
▁(18 100
bla 100
▁공용 100
▁Stone 100
▁센 100
▁한번 100
▁99 100
▁SL 100
▁죽이 100
효 100
▁Library 100
▁brethren 100
▁multitude 100
▁다이아몬드 100
랴 100
▁Brunette 100
▁광저우 100
▁valve 100
▁grace 100
▁Hamster 100
een 100
▁chosen 100
▁tu 100
▁improved 100
▁Explorer 100
▁Kr 100
▁06:3 100
▁부서 100
▁rated 100
졌습니다 100
▁fr 100
▁타임 100
UL 100
▁pan 100
▁states 100
▁분위기 100
▁방향 100
▁Industrial 100
▁Sukhumvit 100
▁콘돔 100
▁changing 100
▁RAID 100
▁게시물 100
영화 100
▁gods 100
GP 100
▁권 100
▁실내 100
2014 100
▁무엇 100
▁중국어 100
▁승 100
ail 100
▁78 100
▁360 100
▁tips 100
ele 100
▁bound 100
▁8.4 100
거든 100
aspx 100
▁removal 100
▁Battle 100
▁홈페이지 100
▁Arena 100
▁희생 100
▁건너 100
▁Patong 100
여자 100
▁appearance 100
rant 100
▁여군 100
iki 100
▁92 100
▁comment 100
ici 100
▁스트 100
▁disc 100
rio 100
▁apartments 100
▁expected 100
▁Wild 100
▁Ken 100
이는 100
▁van 100
곤 100
▁웨이 100
혈 100
bre 100
▁연결을 100
ui 100
▁birth 100
▁워 100
▁가구 100
▁연구소 100
▁animal 100
▁핫 100
▁운영되는 100
▁letter 100
aga 100
▁leaders 100
▁cars 100
▁promotion 100
▁plants 100
▁180 100
스토 100
oi 100
▁엘리 100
▁creative 100
▁디렉토리 100
▁비슷한 100
▁religious 100
▁probably 100
▁필름 100
▁영원히 100
▁Strada 100
aba 100
▁적합합니다 100
▁1998 100
▁개인적 100
▁dorm 100
▁보트 100
▁interests 100
some 100
▁언제나 100
▁06:07 100
▁협회 100
상을 100
험 100
털 100
풀 100
▁자격 100
킬로미터 100
▁(3 100
바이 100
▁그녀가 100
tti 100
▁miss 100
▁값을 100
body 100
▁에이 100
▁Blog 100
arital 100
▁권장 100
lash 100
▁beds 100
▁않게 100
▁breast 100
▁conversion 100
▁러시아어 100
IO 100
▁fill 100
matic 100
▁Mode 100
▁Friendly 100
▁protected 100
▁represent 100
▁conduct 100
▁Gr 100
una 100
▁older 100
?) 100
▁각각의 100
llo 100
240 100
ulation 100
▁영혼 100
▁Sil 100
▁Ap 100
▁저장할 100
▁behavior 100
▁evidence 100
▁읽다 100
▁확신 100
▁analyze 100
▁빌딩 100
▁lord 100
▁thong 100
▁진짜 100
▁가르치 100
▁보시고 100
▁06:4 100
▁브루 100
▁Falls 100
▁Ty 100
▁Nice 100
뿐 100
▁seed 100
0:07 100
▁항목을 100
▁Boot 100
▁무기 100
▁1:3 100
▁Precision 100
▁대규모 100
▁스캐너 100
▁커넥터 100
▁Firefox 100
▁오렌지 100
▁Ol 100
▁praise 100
▁채택 100
▁grass 100
▁Orange 100
▁02:00 100
▁anime 100
▁pair 100
▁san 100
렸 100
▁넷 100
▁wonderful 100
▁sum 100
ique 100
▁여인 100
▁Eli 100
▁아들이 100
night 100
bs 100
▁가격을 100
▁efforts 100
▁Acronis 100
▁Deluxe 100
▁casino 100
▁고성능 100
▁디자이너 100
▁블레셋 100
▁쉬메일과 100
▁자국어로 100
지라도 100
▁제휴 100
▁표시합니다 100
▁상담 100
▁들으 100
러스 100
▁여러분 100
▁관심이 100
▁인터내셔널 100
▁ice 100
성과 100
▁국가의 100
file 100
-18 100
▁싶어 100
▁쌍둥이 100
▁mercy 100
▁moving 100
▁graphics 100
▁05:10 100
JO 100
▁권한을 100
▁취미 100
▁숙 100
▁터치 100
회의 100
▁1970 100
▁reviewed 100
▁고속 100
▁Come 100
▁비해 100
Br 100
▁award 100
▁중인 100
▁하는가 100
▁LAN 100
▁하리라 100
▁Association 100
▁알고리즘 100
▁즐거운 100
있 100
▁boat 100
▁enhance 100
▁회로 100
▁5.0 100
덤 100
▁cheerleader 100
▁twelve 100
▁Article 100
▁사자 100
▁야곱 100
▁구성되어 100
▁원본 100
으므로 100
▁consist 100
▁trial 100
arch 100
▁증상 100
▁gathered 100
▁Fran 100
tis 100
-7 100
▁Les 100
horn 100
▁Memorial 100
▁아랍에미리트 100
▁solid 100
▁height 100
▁Another 100
▁축복 100
▁아이폰 100
▁모텔 100
▁라벨 100
▁방법이 100
자들의 100
▁2.6 100
▁죽으 100
▁카드에서 100
▁clip 100
ort 100
ges 100
▁challenge 100
▁가면 100
VR 100
▁laid 100
ML 100
▁늘 100
ood 100
▁맥주 100
시스템 100
▁mid 100
▁Posted 100
▁생명을 100
▁straight 100
▁캠페인 100
▁푸켓 100
▁Venice 100
▁Bad 100
ude 100
▁tablet 100
OP 100
▁레이크 100
▁prophets 100
spir 100
▁수업 100
▁항공사 100
▁09:1 100
war 100
▁품 100
▁수명 100
▁Zip 100
XT 100
▁남은 100
TT 100
▁Team 100
로스 100
▁Job 100
▁Link 100
▁cousin 100
▁트럭 100
▁football 100
▁productivity 100
▁욕조 100
▁sell 100
습니까 100
▁visa 100
SW 100
▁육체 100
▁소유자 100
▁markets 100
▁stick 100
▁attend 100
▁standing 100
▁channels 100
▁꼭 100
▁쿠키를 100
몰 100
▁businesses 100
▁PS 100
▁효과를 100
nie 100
▁jo 100
▁뉴욕의 100
▁맞춤 100
▁아이들에 100
bury 100
tek 100
▁Amazon 100
▁Professional 100
▁Wankoz 100
▁afraid 100
▁korean 100
▁smooth 100
▁에어포트 100
▁txxx 100
▁Sk 100
▁투표 100
▁할아버지 100
rated 100
▁reported 100
▁dog 100
▁카페 100
▁kg 100
rn 100
▁AV 100
▁burnt 100
▁kings 100
▁sample 100
tha 100
-19 100
▁des 100
aries 100
▁Tru 100
020, 100
▁particularly 100
위를 100
▁헤드 100
▁떼 100
nn 100
▁Explore 100
aki 100
nova 100
▁accepted 100
만을 100
▁accuracy 100
▁adventure 100
▁terrace 100
▁스트리트 100
▁오히려 100
▁Fairchild 100
▁Glass 100
uro 100
▁공급업체 100
▁09:00 100
▁opening 100
▁자기의 100
AY 100
▁route 100
hill 100
▁주고 100
▁planet 100
eck 100
▁적합 100
▁케이 100
inch 100
▁마일 100
150 100
▁printing 100
SR 100
▁fan 100
▁except 100
▁Desktop 100
▁intelligent 100
▁엔터테인먼트 100
▁콘테스트 100
▁Joshua 100
▁Disney 100
▁시민 100
▁묶여 100
ound 100
cra 100
▁Robert 100
▁충분히 100
yan 100
▁해외 100
▁Speed 100
▁twins 100
▁Moreover 100
▁Parking 100
▁Studios 100
▁백성을 100
▁Award 100
▁shy 100
▁pure 100
▁alloy 100
하려 100
DN 100
▁암호 100
▁스키 100
▁Try 100
ean 100
▁알림 100
▁84 100
▁파라다이스 100
▁트래픽 100
▁Axis 100
▁좌석 100
▁가르 100
▁상업 100
▁휘 100
▁주기 100
▁둔 100
▁성공적으로 100
▁nine 100
bor 100
▁잠금 100
▁101 100
▁팩 100
▁Its 100
진다 100
▁Torre 100
▁Gay 100
▁기독교 100
▁퀸 100
▁Rail 100
버리 100
싸 100
040 100
▁과정에서 100
▁participate 100
▁predict 100
gin 100
▁consistent 100
▁golf 100
▁오랜 100
▁lets 100
▁houses 100
▁sha 100
▁Alt 100
▁Places 100
한다는 100
▁지원되는 100
dent 100
/3 100
▁쓸 100
▁의도 100
iti 100
▁래 100
▁현상 100
▁NO 100
▁88 100
▁bukkake 100
▁template 100
▁tutorial 100
▁formatted 100
▁native 100
겠 100
gio 100
▁Cri 100
▁의존 100
▁FI 100
▁연장 100
▁환불 100
▁ATME 100
More 100
BB 100
▁1960 100
받은 100
ii 100
▁아론 100
점을 100
▁sources 100
이니라 100
▁신뢰성 100
▁gyno 100
▁slave 100
-9 100
▁Jin 100
▁Zen 100
▁되게 100
CR 100
▁궁 100
▁ge 100
▁그러면 100
▁일치 100
▁historic 100
▁detailed 100
▁꾸 100
▁GB 100
▁missing 100
▁효율 100
▁유사한 100
▁folders 100
▁자라 100
ban 100
▁싸 100
▁economy 100
▁팰리스 100
▁라운지 100
▁규모 100
▁voters 100
▁앉아 100
stro 100
zu 100
▁소프트웨어의 100
▁Snow 100
itz 100
▁Lesson 100
▁아담 100
▁forever 100
▁Excel 100
▁Mat 100
▁향하여 100
▁이중 100
▁자손이 100
▁ver 100
▁ve 100
▁할당 100
▁transform 100
▁Flor 100
맹 100
lies 100
항공 100
▁수천 100
▁Bas 100
▁라이트 100
▁Kingston 100
▁04 100
gging 100
▁서비스의 100
버그 100
tail 100
ography 100
▁것이니라 100
번째 100
▁가기 100
어야 100
▁Tai 100
▁있으 100
▁promise 100
▁forget 100
▁factors 100
bro 100
▁2.9 100
Windows 100
▁VR 100
▁노르웨이 100
▁phase 100
▁wild 100
▁적어도 100
▁사촌 100
▁Cre 100
▁시설은 100
Ex 100
ender 100
▁안티 100
▁합금 100
▁기능은 100
▁SMS 100
▁올라가 100
state 100
▁experts 100
▁여기를 100
▁찍 100
cus 100
▁Ski 100
▁SC 100
CU 100
▁emb 100
zz 100
▁sensors 100
▁축 100
하였더라 100
▁마크 100
럽 100
▁swap 100
▁층 100
▁페이지에서 100
▁Blvd 100
▁Terminal 100
▁기저귀 100
▁다림질 100
▁루마니아 100
▁Release 100
cam 100
▁느끼 100
▁의견 100
▁PE 100
▁근무 100
tube 100
tch 100
tru 100
▁Moon 100
▁happen 100
▁tickets 100
▁DAC 100
FO 100
Resource 100
▁fee 100
▁earn 100
▁집을 100
bert 100
▁오신 100
ular 100
exe 100
징 100
▁cha 100
▁생각합니다 100
힐 100
▁civil 100
▁Mumbai 100
▁SleazyNEasy 100
▁accessories 100
▁featuring 100
▁policies 100
▁Janeiro 100
lect 100
▁숨겨진 100
치는 100
GE 100
mate 100
.1) 100
셨다 100
▁정책을 100
▁recently 100
▁봄 100
▁리그 100
oma 100
hon 100
▁overall 100
▁전압 100
band 100
▁Which 100
▁measuring 100
▁릴리스 100
▁Level 100
▁언어를 100
▁cash 100
우리는 100
▁Hills 100
▁이민 100
▁삶을 100
▁drivers 100
ode 100
까요 100
▁변경할 100
072 100
▁characters 100
▁increasing 100
▁None 100
줍니다 100
죽 100
rai 100
▁Enjoy 100
▁알루미늄 100
▁earlier 100
▁uncle 100
▁snow 100
Li 100
▁정확하게 100
▁사이즈 100
▁대여 100
▁노선 100
pers 100
상의 100
▁Info 100
New 100
▁soft 100
▁raise 100
▁목적지 100
scribe 100
▁베드 100
▁Uni 100
▁channel 100
▁서비스는 100
ille 100
벳 100
▁대략 100
▁Order 100
▁그런데 100
스코 100
▁행사를 100
▁sq 100
▁establish 100
자위 100
▁plugin 100
▁첫번째 100
▁비명 100
ima 100
▁Latin 100
▁Jose 100
▁스페인어 100
▁레위 100
▁답변 100
lav 100
cat 100
6/ 100
atic 100
▁anger 100
▁롤 100
▁editor 100
▁Heritage 100
▁사운드 100
▁프로그래밍 100
▁거짓 100
▁노스 100
▁금연 100
▁Dun 100
▁professor 100
▁preview 100
▁joint 100
▁Massage 100
▁west 100
▁Magic 100
Al 100
ene 100
▁오락 100
▁Mus 100
▁successfully 100
▁shops 100
▁component 100
▁아래의 100
▁데이터는 100
▁Safe 100
▁예비 100
장치 100
▁Kai 100
▁이용해 100
▁요셉 100
east 100
nor 100
▁계획을 100
hood 100
▁사회적 100
▁댓글 100
▁컨텐츠 100
시킵니다 100
▁Thomas 100
▁Current 100
▁계좌 100
놀 100
▁assistance 100
▁요인 100
▁formats 100
ress 100
5:18 100
atch 100
▁Apart 100
사람 100
삭 100
▁Turn 100
▁73 100
▁1999 100
▁noise 100
▁Command 100
▁emails 100
자로 100
▁오르 100
▁128 100
▁71 100
▁throne 100
▁시카고 100
▁템플릿 100
▁즐기실 100
비트 100
▁(5 100
▁treat 100
▁404 100
cl 100
▁안정 100
try 100
▁모여 100
▁mentioned 100
kov 100
dor 100
▁retrieve 100
ace 100
rag 100
▁malware 100
FI 100
tsu 100
▁시간은 100
▁extensive 100
▁TubeDupe 100
▁conflict 100
▁벡터 100
▁Screen 100
▁운송 100
▁felt 100
▁나쁜 100
▁사도 100
▁closed 100
▁reception 100
▁예배 100
▁싸우 100
▁반영 100
▁점수 100
▁Highway 100
▁holding 100
graph 100
fil 100
▁가능성 100
▁있었고 100
▁ML 100
cel 100
▁웃 100
수록 100
▁용어 100
▁babes 100
▁플로 100
▁forest 100
▁brothers 100
mus 100
▁아직도 100
▁눈에 100
▁부분을 100
▁110 100
▁Sco 100
rel 100
▁feeling 100
▁갤러리에 100
▁Agreement 100
▁Netherlands 100
▁circuit 100
잔 100
▁dirty 100
▁대성당 100
▁끈팬티 100
▁규제 100
▁ferry 100
뜨 100
▁국민 100
▁데리고 100
▁크로 100
▁Sharma 100
▁맞게 100
▁신경 100
▁터미널 100
▁Gil 100
▁extended 100
▁Olympic 100
▁이곳 100
tive 100
store 100
있어 100
▁최대한 100
▁mix 100
▁모험 100
▁아무도 100
▁년전 100
▁prison 100
▁stretch 100
▁왔습니다 100
▁해상도 100
▁뿌리 100
잡 100
▁thermal 100
▁Resources 100
▁myself 100
▁developing 100
OC 100
시키고 100
▁designated 100
▁Ash 100
pin 100
대학교 100
▁Frankfurt 100
▁ga 100
▁Visa 100
▁Days 100
▁척 100
▁Models 100
FE 100
MN 100
.4) 100
1000 100
닥 100
▁하셨 100
▁Whether 100
▁nuclear 100
▁opportunities 100
▁클래식 100
▁Sweet 100
▁HTTP 100
▁렌즈 100
▁Economic 100
▁받았습니다 100
▁EC 100
▁쓰기 100
▁Delhi 100
▁Anton 100
▁하느님 100
▁angle 100
▁factory 100
▁mighty 100
▁숲 100
▁cycle 100
▁Jan 100
gia 100
▁나에게 100
▁사용하실 100
CONC 100
▁ads 100
▁worth 100
▁택 100
▁아니면 100
▁놀라 100
▁태평양 100
▁finished 100
▁드라이브의 100
▁Austria 100
확 100
fit 100
▁엔지니어 100
▁Stockholm 100
▁pleasant 100
▁마드리드 100
▁바벨론 100
▁텔레비전 100
▁멜번 100
▁서서 100
▁motion 100
▁th 100
▁인상 100
▁statement 100
▁아름 100
▁인종 100
▁actions 100
▁networks 100
▁소형 100
▁타사 100
ela 100
▁occur 100
▁최적의 100
▁완벽 100
uction 100
▁재정 100
▁예수를 100
▁잡아 100
▁감시 100
▁seems 100
▁영광을 100
▁2.7 100
▁pipe 100
▁이것 100
▁Mas 100
▁Bill 100
▁클리토리스 100
▁proceed 100
▁탱크 100
▁협업 100
옥 100
▁지켜 100
▁Croco 100
▁홍보 100
▁계급 100
칼 100
she 100
▁connections 100
▁2.8 100
2016 100
▁심각한 100
Be 100
▁performed 100
▁Bru 100
▁속도를 100
cess 100
▁수행하는 100
▁67 100
▁모두가 100
ANT 100
▁주어진 100
▁Condominium 100
▁Field 100
▁예정 100
▁누구든지 100
▁Address 100
▁Louis 100
▁풍경 100
▁Ray 100
▁paid 100
▁onto 100
▁highlight 100
▁Ville 100
cap 100
▁counter 100
▁tradition 100
itch 100
▁아마도 100
▁주신 100
▁방식을 100
▁manufacturer 100
▁greatly 100
▁공중 100
용으로 100
균 100
▁climate 100
▁설문조사 100
▁레이아웃 100
백만 100
▁entry 100
▁authority 100
▁호출 100
▁cameras 100
▁수영 100
하였으나 100
▁앞서 100
▁Sav 100
▁bra 100
▁04:59 100
제품 100
▁컨 100
▁하나로 100
▁finally 100
▁Dec 100
▁usage 100
iel 100
▁Remote 100
▁약물 100
stand 100
▁Film 100
2.5 100
▁보여주 100
▁위원회 100
▁conversation 100
▁expansion 100
▁넣어 100
▁여호수아 100
▁Right 100
▁스테이션 100
rian 100
▁토론 100
▁Ang 100
city 100
▁일은 100
0, 100
▁때는 100
▁reports 100
▁공연 100
▁원수 100
▁GHz 100
▁물리학 100
▁FL 100
▁수여 100
▁cm 100
▁extend 100
lli 100
▁generally 100
▁아메리카 100
▁starts 100
▁weak 100
▁게임의 100
AX 100
▁버리 100
▁객실에 100
▁Would 100
▁디바이스 100
▁밸브 100
쿨 100
▁consent 100
▁Anna 100
▁Terrace 100
▁LE 100
▁Im 100
▁미국에서 100
되었을 100
▁가리 100
▁차원 100
▁놀 100
▁trans 100
▁반면 100
▁Fly 100
▁tank 100
▁net 100
▁자들이 100
폴 100
AZ 100
구나 100
일본 100
-24 100
zer 100
▁tests 100
▁possess 100
▁daughters 100
베리 100
▁것들 100
BN 100
▁visual 100
▁계정에 100
„¢ 100
▁Taipei 100
▁lodging 100
▁renovated 100
▁Krakow 100
▁보상 100
▁Planning 100
▁압축기 100
born 100
▁1993 100
▁찬 100
▁Remove 100
▁수동 100
▁침실 100
▁Oil 100
TF 100
party 100
▁쪽 100
▁environments 100
▁providers 100
▁shot 100
info 100
만큼 100
짝 100
▁암스테르담 100
▁blind 100
▁Samuel 100
▁provision 100
▁Seagate 100
▁Boston 100
▁첫째 100
▁archive 100
▁사울 100
▁대적 100
▁el 100
량을 100
▁Custom 100
▁분산 100
▁Menu 100
▁애플리케이션을 100
quality 100
▁PM 100
▁Canon 100
▁piece 100
law 100
▁greatest 100
▁buildings 100
▁HA 100
▁바탕 100
▁coast 100
▁모르 100
▁causes 100
▁CC 100
▁registration 100
▁screaming 100
▁엔터프라이즈 100
▁colour 100
이어 100
▁Brown 100
▁여자친구 100
▁Return 100
▁Breakfasts 100
▁functionality 100
▁admin 100
▁Springs 100
▁Hope 100
▁ark 100
▁네트워크를 100
▁cry 100
▁기본적으로 100
▁발행 100
▁JR 100
▁parameters 100
▁지정된 100
▁paint 100
▁인공 100
▁가족과 100
3:10 100
▁데려 100
▁failed 100
▁Nero 100
▁defined 100
▁흑 100
▁attacks 100
▁watching 100
▁TR 100
▁Cock 100
▁attract 100
2:1 100
▁$2 100
▁Tweet 100
▁Yobt 100
▁졸업 100
▁copper 100
▁않으며 100
▁minister 100
▁94 100
▁얻는 100
scale 100
uz 100
▁Mill 100
▁동안에 100
▁후원 100
▁약간 100
▁Blu 100
▁Their 100
▁Tim 100
▁contents 100
겠습니다 100
uni 100
▁em 100
▁고용 100
139 100
▁하려면 100
▁이루어진 100
▁영어로 100
▁MI 100
▁Oak 100
아이 100
▁rev 100
▁platforms 100
lus 100
▁Romania 100
잉 100
è 100
▁corporate 100
▁elegant 100
룬 100
▁데스크톱 100
▁흰색 100
▁씨발 100
▁dust 100
▁winter 100
▁인사 100
craft 100
png 100
▁짓 100
verse 100
▁상단 100
▁최저 100
▁Performance 100
▁포도 100
▁나온 100
▁세워 100
▁relax 100
▁주방 100
▁쓴 100
▁방문하는 100
▁Format 100
▁bridge 100
▁Driver 100
▁짐 100
▁데이터에 100
UM 100
▁satellite 100
▁developers 100
▁promote 100
▁Wal 100
▁Forest 100
▁teach 100
▁Featuring 100
▁vacuum 100
▁읽고 100
▁04:26 100
▁Visual 100
▁Pornicom 100
ibility 100
▁Sunday 100
▁1995 100
▁cal 100
lem 100
▁unless 100
izz 100
▁왔다 100
▁08:02 100
▁모습을 100
▁ear 100
▁posts 100
▁못하게 100
▁대상으로 100
▁곳으로 100
▁resource 100
▁fees 100
▁귀하 100
pra 100
▁못하고 100
2012 100
하시면 100
득 100
▁초과 100
ising 100
▁Thanks 100
▁Council 100
▁married 100
▁catalog 100
▁ugly 100
▁Hamburg 100
▁studies 100
▁취득 100
▁species 100
▁상승 100
▁권한 100
125 100
▁goods 100
duct 100
▁입증 100
▁TD 100
▁Ur 100
▁lamp 100
▁지식을 100
▁ECU 100
▁stayed 100
하우스 100
▁적용됩니다 100
▁poly 100
▁raised 100
▁Bai 100
sar 100
▁여호와여 100
받 100
245 100
▁이사 100
▁9.0 100
▁Forum 100
▁삶의 100
▁지금은 100
▁adapt 100
RC 100
▁이스트 100
RY 100
▁Call 100
▁곳입니다 100
-0 100
롬 100
▁페이스 100
넬 100
▁밝은 100
깁니다 100
▁subscription 100
strasse 100
▁Localita 100
테르 100
▁accounts 100
▁Sar 100
▁보낼 100
▁장점 100
▁surrounding 100
▁Delete 100
pass 100
▁recorded 100
▁아들을 100
▁Philip 100
cer 100
▁킹 100
DF 100
▁offerings 100
▁princes 100
▁Edit 100
▁걱정 100
chu 100
▁답 100
▁14:4 100
▁연주 100
▁者 100
▁Pl 100
▁Ethernet 100
▁Philippines 100
▁advertising 100
▁category 100
룰 100
▁단단한 100
▁Loft 100
▁TA 100
▁department 100
▁demo 100
▁Bell 100
▁Pal 100
▁기존의 100
LY 100
▁blend 100
▁wants 100
▁떨어 100
▁electrical 100
▁measures 100
▁clearly 100
VA 100
cla 100
▁sy 100
▁rank 100
넓 100
▁아들들 100
선을 100
▁compliance 100
▁wilderness 100
▁strike 100
▁Cruz 100
157 100
회사 100
▁포럼 100
▁ram 100
▁ease 100
▁interesting 100
▁특별히 100
▁Australian 100
▁로지 100
▁예산 100
▁충분한 100
dar 100
▁7.8 100
▁밤에 100
자리 100
ancy 100
으로써 100
▁피우 100
rat 100
▁나아가 100
함으로 100
xx 100
▁따르 100
▁pattern 100
under 100
▁Vic 100
▁director 100
ched 100
▁variable 100
▁빅토리아 100
▁할리우드 100
▁Alerts 100
▁Complete 100
▁원칙 100
▁Medical 100
oon 100
▁주인 100
▁Mad 100
▁directory 100
▁Panel 100
▁브레 100
년간 100
▁전파 100
무료 100
스카 100
▁£ 100
▁string 100
▁Milk 100
lis 100
▁register 100
보세요 100
▁Dam 100
▁얻기 100
스키 100
VC 100
▁투쟁 100
bl 100
▁실수로 100
▁장애 100
vic 100
▁시작할 100
▁Ly 100
▁Happy 100
▁픽셀 100
▁액션 100
▁Playa 100
kr 100
▁becoming 100
▁Tools 100
드는 100
▁부품명 100
tim 100
▁sheep 100
▁3.3 100
롱 100
▁Face 100
▁wi 100
ept 100
▁reduced 100
▁recording 100
▁implement 100
▁Bath 100
asi 100
▁Strip 100
Fox 100
기관 100
IE 100
▁awarded 100
▁reign 100
▁트레이 100
▁플레이스 100
▁loved 100
▁bow 100
▁Var 100
chan 100
탕 100
PO 100
▁헤어 100
AE 100
▁커뮤니케이션 100
」 100
▁Rhino 100
▁Weather 100
▁Expert 100
▁stress 100
▁Beth 100
▁절단 100
ook 100
▁따뜻한 100
▁무리가 100
ific 100
▁대비 100
CB 100
▁reflect 100
▁Sound 100
clo 100
토리 100
Open 100
▁매체 100
ota 100
ATE 100
▁Shin 100
하나 100
▁teams 100
기의 100
▁09:3 100
bel 100
▁joined 100
DO 100
▁claim 100
HI 100
▁ship 100
▁Eva 100
▁remained 100
옵 100
▁divine 100
▁받게 100
▁포도주 100
▁추구 100
▁스프링 100
큐 100
▁진보 100
▁열린 100
▁떡 100
▁RS 100
mble 100
▁데이터의 100
▁매력 100
▁www 100
MT 100
▁8.6 100
▁Ul 100
▁형상 100
ule 100
▁mon 100
most 100
▁조지 100
▁항공권 100
텍 100
▁Deutsch 100
▁보너스 100
▁생존 100
▁유대 100
date 100
▁pull 100
anna 100
▁좌 100
▁출신 100
▁설계되었습니다 100
▁음식점 100
HF 100
화를 100
▁Satan 100
▁nearly 100
▁장관 100
▁드립니다 100
smoker 100
▁challenges 100
hem 100
▁보십시오 100
cie 100
이란 100
▁favor 100
▁righteous 100
▁formed 100
▁Equipment 100
▁flexibility 100
▁아르헨티나 100
▁insert 100
▁hobby 100
▁Hardcore 100
▁Cy 100
zy 100
▁Cooper 100
티브 100
ADJ 100
▁pet 100
▁보조 100
▁팝 100
멜 100
자들에게 100
▁brands 100
▁열정 100
▁고객을 100
▁남부 100
ito 100
▁수출 100
▁lake 100
▁설치된 100
▁widely 100
▁재생할 100
▁moon 100
▁looks 100
▁선호 100
하느니라 100
-2000- 100
▁박스 100
▁Active 100
▁운 100
▁하니라 100
했는데 100
▁operate 100
▁Tree 100
▁베르 100
osa 100
iver 100
미국 100
▁사용한 100
▁올리 100
.5) 100
ators 100
▁근거 100
닐 100
RD 100
▁가게 100
▁사용자를 100
▁Door 100
▁eliminate 100
▁mexican 100
▁struggle 100
▁프리미엄 100
▁데스크탑 100
▁Output 100
지로 100
▁둘째 100
▁Function 100
▁importance 100
ison 100
▁수행할 100
▁twin 100
▁pound 100
활 100
pot 100
▁강도 100
uel 100
▁국가에서 100
▁불법 100
▁contacts 100
gel 100
▁occurs 100
▁것이었다 100
phone 100
fl 100
지역 100
EA 100
2) 100
▁instrument 100
▁threat 100
▁sector 100
▁춤 100
▁Channel 100
hat 100
▁Yo 100
▁delivers 100
▁scientific 100
▁컴퓨터를 100
▁courses 100
▁도서관 100
▁Airlines 100
클리 100
▁딜 100
▁Aviv 100
▁beast 100
▁taste 100
▁Manual 100
▁도망 100
▁구독 100
▁Sy 100
2018 100
식을 100
▁1996 100
▁시장에서 100
▁알림을 100
▁이하 100
쇼 100
▁signed 100
▁방문할 100
nom 100
▁Tha 100
uda 100
▁먹고 100
▁voltage 100
nia 100
▁fly 100
SN 100
▁sing 100
▁agent 100
▁FA 100
▁13:4 100
▁revolution 100
▁Mod 100
▁여성생식기 100
▁컴퓨팅 100
▁포트폴리오 100
▁Woman 100
▁쉽고 100
▁흥미로운 100
▁주식 100
▁layout 100
▁Fre 100
▁허락 100
▁도와 100
▁downtown 100
▁클릭하세요 100
▁goals 100
▁assist 100
▁chat 100
▁상당한 100
▁등장 100
▁thine 100
▁20% 100
▁06:06 100
utter 100
GO 100
머스 100
▁zone 100
▁세계적으로 100
▁의미합니다 100
▁방법입니다 100
cco 100
▁프로젝트를 100
nut 100
▁Mario 100
▁extreme 100
DRE 100
DL 100
AH 100
▁wash 100
▁있으니 100
▁surely 100
▁patients 100
▁Galaxy 100
▁갑자기 100
▁스팽킹 100
▁엄청난 100
▁enemy 100
▁resort 100
▁armpit 100
▁멸망 100
▁프로파일 100
▁interview 100
▁맞추 100
▁진동 100
▁Adult 100
▁grandpa 100
▁연습 100
cut 100
▁Resorts 100
▁hearts 100
▁왕국 100
tics 100
▁믿음 100
▁목표를 100
▁vote 100
▁Edge 100
총 100
▁바탕으로 100
▁Argentina 100
▁..." 100
▁얼굴을 100
▁DA 100
▁뼈 100
▁경제적 100
fri 100
▁웹사이트를 100
zza 100
▁edition 100
하사 100
cro 100
TG 100
order 100
▁Sweden 100
▁Pussy 100
▁게스트하우스 100
▁tennis 100
▁Theater 100
▁구별 100
ND 100
BL 100
▁equal 100
▁satin 100
▁님 100
▁작가 100
▁중요합니다 100
▁Chan 100
ias 100
▁Rica 100
▁cur 100
▁잠재 100
▁thinking 100
▁Sales 100
gon 100
▁보낸 100
▁regions 100
▁남쪽 100
▁certainly 100
▁Peru 100
▁일단 100
▁Ref 100
▁industries 100
▁lecture 100
▁simulation 100
▁Valencia 100
▁BBW 100
▁영웅 100
▁context 100
▁Hyper 100
▁Nord 100
▁Mah 100
▁transportation 100
▁Fat 100
▁셀프 100
▁스카이 100
▁Disc 100
▁레이스 100
ssa 100
nel 100
▁modules 100
aku 100
▁Arch 100
▁Directory 100
펜 100
논 100
AQ 100
rah 100
▁미치는 100
▁DI 100
▁detail 100
▁Dog 100
관계 100
대한 100
기구 100
▁portion 100
pet 100
5:1 100
▁curve 100
▁여부를 100
▁managed 100
yer 100
▁seeking 100
▁Basilica 100
▁HDZog 100
▁어댑터 100
▁와이파이 100
▁Pedro 100
temp 100
▁fitness 100
nik 100
▁Mix 100
▁연구를 100
▁1950 100
▁찾으 100
▁직면 100
UB 100
▁exactly 100
▁달려 100
▁Rate 100
▁750 100
nis 100
▁확인해 100
▁loves 100
dd 100
▁Self 100
tree 100
Do 100
▁Castel 100
lio 100
▁검증 100
▁Zi 100
▁관리를 100
▁클라 100
▁lesbians 100
▁articles 100
▁finding 100
▁자신들 100
▁RO 100
▁찬송 100
cht 100
▁Norton 100
3:16 100
▁sagg 100
▁Heaven 100
▁runs 100
lex 100
▁infection 100
agon 100
▁분할 100
▁대전 100
▁Xi 100
▁Login 100
▁Cities 100
▁세상에 100
▁말했습니다 100
▁Input 100
▁Points 100
▁다중 100
lee 100
제를 100
력이 100
▁helped 100
▁upper 100
▁Options 100
▁launched 100
▁keys 100
▁위치에서 100
lau 100
▁솔로몬 100
▁운행 100
▁못하는 100
▁경력 100
Script 100
▁Liverpool 100
▁Tungsten 100
▁definitive 100
▁pleasure 100
▁멜버른 100
▁콘서트 100
▁조용한 100
▁11:00 100
▁아웃룩 100
▁캡처 100
▁구멍 100
▁지능형 100
▁experienced 100
▁controls 100
din 100
▁녹음 100
graphic 100
▁역사를 100
▁eating 100
▁경우에도 100
▁활 100
▁colors 100
thy 100
▁Ads 100
▁generate 100
▁Gor 100
▁옥 100
▁Settings 100
스와 100
chen 100
▁Levites 100
▁submit 100
▁Reserve 100
▁것보다 100
▁키보드 100
▁robot 100
▁상당히 100
▁단순히 100
▁Dei 100
▁저주 100
▁변형 100
입니까 100
▁NOW 100
▁combined 100
▁Ob 100
aff 100
· 100
friendly 100
▁형태로 100
▁compare 100
▁DIN 100
GL 100
▁WA 100
▁rod 100
▁세포 100
파일 100
▁검은 100
이것은 100
▁견 100
▁5.1 100
▁다만 100
▁owner 100
▁plus 100
▁burn 100
▁Ice 100
flow 100
▁부인 100
▁deploy 100
2:22 100
▁북쪽 100
▁구분 100
▁(" 100
NC 100
▁Toronto 100
▁인터뷰 100
aria 100
▁spanking 100
▁Wireless 100
ente 100
▁요약 100
하이 100
▁exclusive 100
BG 100
멸 100
▁상관 100
▁LB 100
컨 100
▁심히 100
▁Human 100
▁외에 100
▁founded 100
▁역사적인 100
▁Fix 100
ttle 100
RU 100
▁reserve 100
함과 100
▁순위 100
zh 100
▁같다 100
▁숙박을 100
▁인터 100
▁Santo 100
▁witness 100
▁bill 100
▁8.2 100
Go 100
▁의식 100
▁column 100
▁rejoice 100
▁화려한 100
▁사우나 100
▁Diamond 100
▁Kings 100
▁proper 100
▁Living 100
다운 100
▁워터 100
▁1997 100
-33 100
▁수치 100
▁유효 100
▁experiment 100
▁enabled 100
▁stores 100
ante 100
▁Shop 100
시에 100
▁초점을 100
▁Mur 100
▁얻은 100
201 100
인데 100
▁payments 100
▁살펴보 100
▁준비가 100
▁세상을 100
▁Due 100
하고있다 100
▁유사 100
▁hungarian 100
▁valuable 100
▁화살표 100
▁Sofia 100
▁smartphone 100
▁로얄 100
▁번호를 100
▁창녀 100
▁Southern 100
▁액체 100
▁독일의 100
▁persons 100
▁정보에 100
▁노트 100
▁Juan 100
▁Round 100
cas 100
pm 100
▁bl 100
▁script 100
솔 100
시키기 100
세탁 100
▁핀 100
▁숙소는 100
mission 100
▁시행 100
omi 100
▁Oh 100
▁대만 100
▁너와 100
▁PPT 100
PN 100
▁::: 100
▁설정할 100
▁Executive 100
▁Toshiba 100
▁primary 100
▁충격 100
▁낚시 100
▁Wedding 100
▁Kitchen 100
even 100
▁야생 100
▁천연 100
▁Spec 100
▁단축 100
▁employ 100
range 100
sec 100
▁제대로 100
▁Signal 100
▁Sta 100
▁휴식을 100
▁82 100
▁최소화 100
웨어 100
삼 100
▁precision 100
▁했 100
space 100
이든 100
NI 100
▁studio 100
▁농장 100
▁Fr 100
▁명예 100
▁Partner 100
MR 100
▁drawing 100
▁Solar 100
▁Theme 100
▁Ren 100
둥 100
▁LO 100
▁Depositphotos 100
▁Pharaoh 100
▁protocol 100
▁uncensored 100
▁아카데미 100
▁않기 100
▁때때로 100
▁ibis 100
▁Technical 100
▁Form 100
▁TT 100
▁받습니다 100
▁취급 100
▁Tutor 100
▁아니하리라 100
▁Controller 100
▁magic 100
▁Tech 100
▁보이지 100
GN 100
▁보여주는 100
라면 100
하리니 100
▁reward 100
▁KEC 100
0.5 100
▁iron 100
▁comp 100
▁individuals 100
▁sucking 100
▁검 100
▁Marco 100
▁예방 100
BP 100
▁그래프 100
▁젖 100
▁얻으 100
162 100
쟁 100
▁아이디어를 100
▁프로그램이 100
▁시기 100
▁liquid 100
▁나타냅니다 100
▁스트리밍 100
캄 100
▁outstanding 100
▁Discount 100
▁22:16 100
▁inhabitants 100
▁콘솔 100
▁Florida 100
▁Large 100
▁순종 100
339 100
▁PHP 100
▁2:2 100
▁PO 100
▁소리를 100
mir 100
▁EMC 100
Ho 100
▁노예 100
▁일부는 100
▁DB 100
▁구동 100
▁Ger 100
피스 100
▁Sync 100
▁Route 100
▁엄 100
▁dr 100
than 100
버스 100
test 100
mini 100
▁인수 100
▁로마에서 100
▁휴식 100
▁u 100
lov 100
▁지하철 100
▁Solution 100
▁Property 100
▁왜냐하면 100
▁프로토콜 100
햄 100
▁ANKO 100
▁색깔 100
▁Launch 100
▁copyright 100
▁permitted 100
▁Dutch 100
▁메뉴에서 100
▁Des 100
롭게 100
▁이야기를 100
-25 100
▁선도 100
▁Simon 100
▁Restaurants 100
▁07:58 100
▁Song 100
▁사이에서 100
▁主 100
▁이후에 100
▁잊 100
▁공구 100
▁시작합니다 100
찬 100
▁Sho 100
▁Ak 100
▁leads 100
wer 100
!! 100
▁1:5 100
▁앉 100
iga 100
lock 100
▁Pie 100
▁4.1 100
itive 100
▁Movies 100
haus 100
▁reliability 100
▁signature 100
▁치어리더 100
▁patent 100
▁우아한 100
▁유권자 100
▁retain 100
▁오프라인 100
mine 100
▁탈출 100
▁rough 100
244 100
▁7.6 100
▁조작 100
▁155 100
▁1991 100
▁오버 100
▁collected 100
▁달라 100
▁켜 100
▁Army 100
▁대해서는 100
▁row 100
▁tent 100
▁나이트 100
QU 100
▁defend 100
▁Neu 100
OW 100
▁추가할 100
왔 100
PF 100
▁사원 100
SF 100
▁왕에게 100
▁연결할 100
▁원자 100
▁automation 100
▁밸리 100
▁스마트폰 100
▁landscape 100
▁girdle 100
▁Safety 100
▁clothes 100
▁목록에서 100
▁동쪽 100
▁Training 100
▁만들어진 100
VM 100
-30 100
▁악한 100
▁효과적으로 100
▁옆 100
▁0% 100
▁Ari 100
▁Philistines 100
▁06:01 100
성에 100
ering 100
gh 100
▁사람들과 100
▁Branch 100
park 100
▁특징으로 100
머리 100
▁represents 100
▁350 100
▁일본인 100
bridge 100
▁Sri 100
▁기준으로 100
▁과제 100
▁컨퍼런스 100
콤 100
▁테이프 100
▁Outdoor 100
▁compact 100
▁하드코어 100
▁Question 100
▁indeed 100
▁점을 100
▁Clean 100
▁시간과 100
▁whatever 100
▁Loc 100
erry 100
▁Comments 100
▁형식을 100
4:12 100
▁BY 100
탑 100
▁SH 100
mil 100
▁hole 100
Man 100
▁용서 100
rov 100
▁외국 100
▁피를 100
▁핵 100
▁나타내 100
▁멸 100
/4 100
▁crash 100
▁움직임 100
▁pretty 100
▁손가락 100
▁gloryhole 100
▁Turkish 100
▁앳 100
▁벨기에 100
▁SATA 100
▁programming 100
▁Albert 100
▁여행객 100
▁fuel 100
▁Solid 100
▁automated 100
▁OEM 100
rent 100
▁요건 100
▁1992 100
▁없게 100
Di 100
▁명이 100
▁Bri 100
▁주위에 100
▁오프 100
▁PL 100
▁음악을 100
ugh 100
▁수요 100
▁tape 100
성의 100
▁discovered 100
ception 100
▁hub 100
리로다 100
륙 100
랍 100
tana 100
▁hall 100
1:15 100
▁Ky 100
▁Energy 100
▁Sheraton 100
▁circle 100
▁눌러 100
▁부르짖 100
▁Built 100
▁doubt 100
▁lobby 100
▁terminal 100
▁프린터 100
▁하실 100
▁우리와 100
▁baby 100
mod 100
▁신앙 100
문화 100
▁분명히 100
▁blow 100
▁village 100
▁Exp 100
ote 100
Mi 100
vor 100
▁aware 100
▁BR 100
▁smaller 100
0.1 100
개국 100
▁Tian 100
▁모델은 100
▁가방 100
1:10 100
▁mount 100
▁감자 100
▁행한 100
▁제품군 100
▁Move 100
▁편집기 100
▁Join 100
▁불가 100
▁연결되어 100
▁OK 100
하였느니라 100
▁건강을 100
▁god 100
▁Mare 100
▁consumption 100
▁손쉽게 100
▁싶습니다 100
▁opinion 100
▁목소리 100
▁Courtyard 100
▁Study 100
▁Seattle 100
트는 100
last 100
▁Cannes 100
▁마련되어 100
략 100
lm 100
dr 100
002 100
▁모델링 100
▁05:59 100
▁Manage 100
▁표시된 100
▁manually 100
▁무시 100
▁Mars 100
▁깨끗 100
특 100
네스 100
▁Jung 100
▁가질 100
IF 100
bat 100
▁breakfasts 100
▁Revolution 100
▁3.1 100
▁prepare 100
sea 100
▁hearing 100
▁notification 100
▁AP 100
▁몽 100
uma 100
▁주시기 100
wel 100
▁Wat 100
▁FAQ 100
UT 100
봇 100
흥 100
▁Alldatasheet 100
▁communicate 100
▁packaging 100
▁Finland 100
▁schools 100
▁적응 100
▁expand 100
▁선보 100
▁Left 100
▁adult 100
▁FC 100
▁보았 100
▁06:30 100
▁설계된 100
▁revealed 100
▁아니하며 100
▁boxes 100
▁손님들 100
▁머리를 100
▁강제 100
린다 100
▁방해 100
하셨습니다 100
▁Kin 100
▁SW 100
▁고도 100
WE 100
▁안정성 100
낭 100
랙 100
▁풀무비 100
lines 100
▁가져올 100
▁사기 100
▁새롭게 100
▁끝에 100
▁Horny 100
▁착용 100
▁requests 100
▁Movie 100
▁임신 100
sil 100
▁항문의 100
▁Processor 100
▁blessed 100
데이 100
▁determined 100
speed 100
▁갖 100
▁품질을 100
▁물리 100
▁확인하고 100
▁signs 100
▁Sport 100
▁Trip 100
MU 100
▁Hide 100
EF 100
▁Gro 100
겁 100
▁핸드 100
▁Jomtien 100
▁analytics 100
▁biggest 100
▁Eurail 100
▁console 100
Buenos 100
▁다이빙 100
▁헝가리편 100
umb 100
▁폭발 100
▁독신 100
▁documentation 100
▁blocks 100
▁변화를 100
▁plays 100
▁rid 100
▁spin 100
포드 100
mel 100
▁저장소 100
▁사용될 100
▁하늘에 100
▁나누 100
porn 100
▁Matt 100
▁제기 100
▁8.8 100
▁Host 100
▁크리스 100
Lo 100
▁comments 100
ession 100
▁Bag 100
▁Financial 100
▁counsel 100
▁stainless 100
▁붙이 100
▁valley 100
▁talent 100
▁Couple 100
▁weapons 100
▁효율적으로 100
▁rides 100
▁아버지의 100
▁서쪽 100
▁코팅 100
치를 100
▁크레 100
▁Force 100
▁76 100
▁election 100
▁버전에서 100
▁얻 100
▁Cable 100
▁isn 100
▁콩 100
▁Vid 100
▁상상 100
4:18 100
▁classes 100
핀 100
▁Kor 100
박물관 100
▁CX 100
▁선전 100
▁Pack 100
IST 100
하노라 100
▁얼 100
-155 100
▁Aires 100
▁친한 100
▁Spy 100
▁DNS 100
4:10 100
▁Char 100
▁기술은 100
만한 100
ivity 100
asa 100
꾼 100
▁portfolio 100
▁부카케 100
▁Third 100
▁Mol 100
▁구입하신 100
▁specifically 100
▁있었던 100
zhou 100
▁Member 100
▁procedure 100
▁divided 100
▁PVC 100
▁감정 100
▁Cop 100
▁누드 100
ball 100
1:12 100
▁fourth 100
▁좋 100
girlfriend 100
▁열고 100
iana 100
ister 100
adi 100
브라 100
sign 100
▁arrow 100
하기도 100
▁(4 100
▁멤버 100
▁tabernacle 100
▁mortal 100
▁트윈 100
▁Urban 100
▁환경에 100
▁pot 100
▁복합 100
▁keyboard 100
▁절반 100
▁제공해 100
▁구성원 100
▁조항 100
▁발생한 100
▁항구 100
bol 100
▁Story 100
▁79 100
▁비탄 100
▁속한 100
▁대답하여 100
▁소매 100
▁경주 100
▁Clip 100
wick 100
▁Tur 100
▁mainly 100
▁87 100
▁orders 100
▁브리 100
rl 100
▁리버 100
▁수는 100
▁일치하는 100
▁CR 100
▁지금까지 100
▁거룩 100
▁합니까 100
▁위험을 100
RAM 100
▁정당 100
▁LP 100
▁학위 100
4:16 100
▁Centro 100
▁세계에 100
▁클릭하고 100
▁filipina 100
▁proximity 100
▁글로리홀 100
▁리뷰했음 100
▁코멘트 100
랭 100
펀 100
▁제임스 100
▁suite 100
▁jump 100
Un 100
▁와이어 100
▁Gateway 100
▁BE 100
▁medium 100
▁공유할 100
▁대부분은 100
aged 100
▁Dis 100
▁Pla 100
▁threats 100
▁경기장 100
▁tribe 100
ago 100
▁HDD 100
▁곡 100
1:20 100
▁근처의 100
▁lie 100
MX 100
▁모형 100
▁manufacturers 100
▁BBC 100
지게 100
맥 100
덕 100
050 100
screen 100
▁op 100
쳤 100
▁cu 100
350 100
루스 100
▁VivaTube 100
▁Yellow 100
▁interior 100
▁horny 100
▁WITH 100
▁혜택 100
▁Doctor 100
▁objective 100
▁향해 100
▁셰 100
▁학위를 100
fully 100
cket 100
▁recognized 100
▁speaking 100
쳤다 100
▁ski 100
any 100
▁Galerie 100
▁착 100
▁손님을 100
▁오류를 100
▁자랑 100
▁explain 100
202 100
▁책을 100
자들 100
▁hate 100
▁je 100
▁Through 100
― 100
▁Lenovo 100
▁핑크 100
이로다 100
▁Sensor 100
▁냉각 100
▁fellow 100
▁라이더 100
▁shut 100
▁07:1 100
▁bio 100
▁나타내는 100
▁회의실 100
▁accessible 100
▁functional 100
▁교정 100
▁Hel 100
ania 100
▁properly 100
Data 100
▁Rosa 100
ssy 100
▁Editor 100
atory 100
▁발표했다 100
▁카사 100
▁컴퓨터의 100
교육 100
▁CP 100
sel 100
▁이탈리아어 100
mond 100
▁마운트 100
▁분실 100
▁era 100
▁hide 100
rest 100
▁목적을 100
▁상황을 100
으리라 100
▁happens 100
▁Youth 100
사와 100
Mar 100
▁기구 100
▁고기 100
laundry 100
▁Dance 100
▁160 100
▁Eco 100
▁형태의 100
▁제외 100
▁decide 100
▁serves 100
ego 100
▁Mass 100
▁Care 100
him 100
▁주스 100
▁생각을 100
▁번제 100
▁categories 100
▁prostitute 100
▁Warsaw 100
▁inheritance 100
▁재단 100
▁조이기 100
▁컵 100
▁massive 100
▁formatting 100
▁vary 100
CF 100
▁러 100
▁자본 100
▁궤 100
학생 100
▁Beer 100
▁비용이 100
▁레이어 100
ij 100
▁dating 100
▁Process 100
▁뒤로 100
bian 100
▁항공기 100
▁seal 100
▁ran 100
▁Eu 100
including 100
개를 100
▁Ring 100
▁토지 100
▁다니 100
▁잡고 100
야마 100
▁Lan 100
▁sole 100
▁Cape 100
▁권력 100
▁손님께서는 100
▁Evernote 100
▁accordance 100
▁Rohm 100
▁existence 100
▁inform 100
▁금액 100
▁운행됩니다 100
▁HFS 100
fuck 100
▁1,000 100
하나님 100
▁다윗의 100
▁Nations 100
Com 100
ache 100
▁액세스를 100
▁아우 100
▁서비스가 100
▁LS 100
rak 100
았습니다 100
▁connector 100
▁섬기 100
▁ensur 100
▁stated 100
▁않아 100
원의 100
Hotel 100
▁ones 100
type 100
보드 100
대학 100
2:21 100
▁비행기 100
sburg 100
▁기다리 100
▁Based 100
▁범위를 100
▁호텔과 100
UP 100
▁container 100
▁Sai 100
▁Compatible 100
▁Extreme 100
▁Houston 100
▁부드러운 100
▁컨테이너 100
1:00 100
▁교황 100
▁Beauty 100
▁darkness 100
▁계속해서 100
▁replace 100
▁멕시코편 100
▁sync 100
MF 100
▁Shu 100
▁nude 100
▁임무 100
▁현재의 100
거늘 100
▁Lady 100
▁vessels 100
MOS 100
▁관광지 100
▁youth 100
해보세요 100
▁effectively 100
▁발생합니다 100
151 100
▁Ste 100
▁Match 100
▁Taxi 100
▁minute 100
▁teachers 100
▁이익 100
▁매장 100
▁indoor 100
"( 100
▁페이 100
▁Leon 100
▁pin 100
▁Audi 100
였던 100
uan 100
til 100
▁어디에 100
pping 100
▁Roll 100
▁coupon 100
Mbps 100
▁cinema 100
▁bareback 100
▁Cambridge 100
▁보인다 100
▁탑재 100
▁추녀 100
▁향후 100
▁Kam 100
▁복구를 100
dong 100
▁Text 100
▁guard 100
감을 100
▁걸어 100
▁Has 100
▁제외하고 100
▁목표는 100
세계 100
▁빨 100
▁union 100
▁Bio 100
▁들면 100
▁xxx 100
▁감상 100
▁records 100
▁DS 100
▁expression 100
▁가상화 100
▁입고 100
▁catch 100
mos 100
von 100
▁마이 100
▁최소한 100
rib 100
▁시작하기 100
ntial 100
scope 100
▁주도 100
082 100
시오 100
뇨 100
▁domestic 100
▁Gospel 100
▁encounter 100
▁fundamental 100
▁wrath 100
▁아카이브 100
▁신선한 100
▁얘기 100
▁핸들 100
▁Things 100
▁navigation 100
▁affordable 100
▁사업을 100
hes 100
ike 100
▁강철 100
▁암호를 100
▁라이프 100
▁sake 100
tus 100
IV 100
cli 100
1:14 100
erg 100
▁(20 100
bank 100
▁Follow 100
▁원치 100
하매 100
▁windows 100
▁vehicles 100
ste 100
▁flag 100
▁Portal 100
512 100
teen 100
aro 100
145 100
받는 100
▁Gas 100
▁Band 100
▁논의 100
▁practical 100
▁strategic 100
▁cuisine 100
▁festival 100
▁macOS 100
▁뮌헨 100
▁titjob 100
▁Cro 100
GS 100
▁leadership 100
gr 100
▁체결 100
▁근방 100
▁점령 100
▁Filter 100
▁capable 100
▁intended 100
▁알려주 100
nit 100
▁majority 100
▁NH 100
▁광야 100
▁Student 100
317 100
▁않으 100
▁30% 100
▁그분의 100
▁Fri 100
▁index 100
▁가슴으로 100
ses 100
▁Rec 100
▁바르 100
▁광학 100
▁mod 100
▁te 100
ending 100
▁#1 100
▁relative 100
▁CDN 100
gro 100
▁waiting 100
▁등으로 100
▁Luc 100
pho 100
▁가능하게 100
타이 100
▁neighbor 100
▁Blood 100
▁Elizabeth 100
▁Government 100
▁Hôtel 100
▁Similar 100
▁intellectual 100
▁yourselves 100
▁고등학교 100
▁탑승 100
▁FIFA 100
▁휴대폰 100
▁representative 100
▁요청을 100
▁Os 100
▁말하노라 100
갑니다 100
▁Chiang 100
▁sick 100
▁specify 100
▁위반 100
KA 100
▁거두 100
지요 100
드라 100
▁Paper 100
yard 100
▁전류 100
2:4 100
▁후보 100
Qu 100
▁조치 100
▁내어 100
▁칩 100
어져 100
▁하늘에서 100
▁나오는 100
▁140 100
▁온전 100
3:14 100
▁obtained 100
▁Glen 100
▁칭 100
▁Yet 100
NY 100
▁integrate 100
되도록 100
▁consists 100
click 100
▁하시니 100
CG 100
LVC 100
SU 100
간의 100
▁그것에 100
060 100
▁001 100
▁seeing 100
쓰 100
▁화면에서 100
ı 100
▁HotShame 100
▁jizzbunker 100
▁늙은 100
▁믿지 100
▁Sierra 100
▁Capital 100
▁Marketing 100
▁aid 100
▁Automatic 100
▁산책 100
▁Punta 100
▁freedom 100
끼 100
▁조상 100
▁파이프 100
▁모음 100
▁deployment 100
084 100
▁아사 100
▁정보의 100
▁지연 100
▁confirm 100
▁영구 100
▁walls 100
▁크기의 100
▁def 100
▁동영상을 100
▁communications 100
gang 100
▁SDK 100
▁showed 100
▁데모 100
▁시내에서 100
▁Supported 100
product 100
▁속도로 100
▁continuous 100
cci 100
▁Ride 100
▁Thy 100
cin 100
했다고 100
▁fonts 100
▁Expedia 100
▁diamond 100
▁empty 100
▁빼앗 100
딘 100
시켰다 100
첩 100
▁세비야 100
▁breath 100
▁Northern 100
▁보스턴 100
▁로스 100
-03 100
▁Koh 100
550 100
▁rare 100
▁stones 100
▁kit 100
이기도 100
▁성공적인 100
size 100
uf 100
▁가고 100
듯이 100
▁장신 100
phi 100
▁1945 100
▁AB 100
▁듣지 100
▁보장합니다 100
hof 100
▁bars 100
▁UI 100
▁Hell 100
퍼스 100
▁sal 100
▁계약을 100
▁브리지 100
rain 100
▁희 100
▁미만 100
2013 100
정부 100
▁Dark 100
tas 100
▁encourage 100
Up 100
▁1930 100
▁바보 100
▁둘러 100
▁때가 100
▁삼성 100
3:15 100
▁adding 100
▁hospital 100
▁tours 100
▁competitive 100
▁identity 100
▁크로아티아 100
▁휴지통 100
▁간소화 100
▁vast 100
▁footjob 100
▁Jewish 100
▁정기적으로 100
▁Eastern 100
9:00 100
▁portable 100
▁의학 100
▁임명 100
하십니까 100
▁suck 100
AW 100
▁blessing 100
낸 100
▁여행자 100
▁제품과 100
▁파라 100
▁집으로 100
장은 100
PWR 100
▁호환성 100
됐 100
11-13 100
▁다음에 100
▁Bella 100
▁주목 100
펠 100
View 100
kar 100
▁논리 100
▁먹는 100
▁spec 100
▁converted 100
▁부하 100
▁Build 100
▁메모 100
틸 100
▁(4) 100
▁occasion 100
▁Informatica 100
▁advice 100
▁crossdresser 100
▁destruction 100
▁leisure 100
▁sensitive 100
▁studied 100
▁yellow 100
▁픽업 100
▁가난한 100
▁아빠 100
rip 100
▁친구와 100
▁수십 100
▁PIN 100
▁거절 100
▁Ji 100
년에는 100
▁instruments 100
▁reaction 100
▁귀하에게 100
원을 100
▁예수님께서 100
갔 100
셔서 100
▁0,2 100
▁Perfect 100
issa 100
▁인물 100
▁3:1 100
▁사용에 100
cri 100
▁벗 100
▁투명 100
▁Jean 100
▁고무 100
▁Cala 100
▁containing 100
램 100
리의 100
▁본사 100
etta 100
▁가치가 100
▁conditioning 100
rush 100
수가 100
▁Benjamin 100
▁Hampton 100
▁Rectifier 100
▁entrance 100
▁냉장고 100
▁스톡홀름 100
▁Rotary 100
€¦ 100
▁밴드 100
▁Chu 100
▁mistake 100
▁precious 100
▁FREE 100
▁wealth 100
▁소피아 100
▁주세요 100
▁무덤 100
▁MT 100
▁Cisco 100
▁욕 100
▁detection 100
▁알았 100
▁controlled 100
▁1994 100
▁작업에 100
▁carrier 100
▁경우가 100
▁wire 100
tric 100
▁ir 100
▁angels 100
▁05:08 100
soft 100
awa 100
105 100
▁Kha 100
▁milfs 100
▁아이콘을 100
▁루프 100
▁그레이 100
▁dual 100
mag 100
▁sets 100
100, 100
▁beside 100
▁HS 100
▁plug 100
▁크리 100
플라 100
▁기원 100
▁상세한 100
▁보도 100
시다 100
2:00 100
168 100
▁stations 100
▁resulting 100
OM 100
▁Such 100
▁팀은 100
▁양의 100
▁만듭니다 100
▁captain 100
▁Bathroom 100
▁Verona 100
So 100
하노니 100
▁귀사 100
▁바퀴 100
▁SunPorno 100
▁Clear 100
▁지낼 100
▁배열 100
▁wheel 100
▁조립 100
▁Sw 100
▁읽어 100
ement 100
▁170 100
▁실행하고 100
▁후에는 100
tia 100
▁이르는 100
Time 100
▁링 100
▁Images 100
4:14 100
▁2007- 100
▁칸 100
DRG 100
▁캔 100
에게는 100
▁의류 100
bot 100
▁임시 100
▁Christians 100
PORT 100
gor 100
위한 100
럭 100
▁Nippon 100
▁UEFA 100
톨 100
Po 100
▁expertise 100
▁alarm 100
▁설치할 100
▁빛을 100
life 100
/11 100
▁Fish 100
혔 100
▁손님들을 100
▁Know 100
장의 100
별로 100
▁부팅 100
▁helping 100
▁정밀 100
▁exhibition 100
▁단추 100
▁있어요 100
▁confirmation 100
▁플랫폼을 100
비치 100
▁연대 100
▁Pas 100
한다고 100
7:5 100
▁복제 100
▁하매 100
▁유지하는 100
모든 100
▁광고를 100
▁건강한 100
머니 100
gene 100
dio 100
▁Wan 100
▁Kur 100
▁SkyTeam 100
▁TripAdvisor 100
▁즐거움 100
▁geometry 100
▁안식일 100
vol 100
▁fishing 100
▁아이템 100
▁헌신 100
▁carbon 100
▁CAN 100
1:18 100
▁주위 100
▁스테이 100
▁여러분을 100
900 100
▁Chart 100
▁아키텍처 100
이니이다 100
▁기술의 100
▁교육을 100
oper 100
▁Race 100
▁주지 100
▁Pic 100
0:18 100
▁Trust 100
▁churches 100
▁situations 100
▁1200 100
▁지내 100
▁되면 100
▁이삭 100
▁보안을 100
-14 100
away 100
▁언어로 100
▁더보기 100
File 100
▁영원 100
캐 100
▁만한 100
▁하거나 100
▁define 100
▁끝나 100
▁PD 100
▁덴마크 100
emocratic 100
astic 100
▁중의 100
▁Tap 100
!!! 100
▁규모의 100
rch 100
▁engineers 100
튜 100
▁artificial 100
▁ocean 100
▁Fluke 100
▁Granny 100
▁division 100
▁장막 100
틱 100
프로 100
▁enjoyed 100
▁07:50 100
▁lady 100
▁효율성 100
▁professionals 100
▁만군 100
▁때로는 100
▁자비 100
each 100
▁각종 100
wire 100
▁공간이 100
ila 100
1.1 100
▁programme 100
▁시장에 100
▁결정을 100
▁EUR 100
▁그릇 100
▁destinations 100
▁apart 100
But 100
▁제일 100
▁editing 100
▁doors 100
6.1 100
▁앙 100
▁Fan 100
media 100
▁바라보 100
▁Range 100
tina 100
▁ab 100
▁learned 100
넷 100
rew 100
▁onsite 100
.6) 100
▁1920 100
▁최근에 100
aging 100
▁Sir 100
▁contemporary 100
▁hybrid 100
▁unwanted 100
à 100
▁디즈니 100
▁stances 100
▁telephone 100
▁occurred 100
4.9 100
▁Apply 100
▁프로젝트에 100
▁벗어나 100
▁백성에게 100
▁모래 100
▁지출 100
direct 100
▁JMP 100
▁Touch 100
▁offline 100
SK 100
▁factor 100
▁차이 100
▁stable 100
▁topic 100
7.3 100
CX 100
▁span 100
▁interaction 100
ddle 100
▁06:12 100
▁이제는 100
106 100
▁인디 100
▁pink 100
▁화면에 100
ural 100
▁whi 100
▁repaired 100
▁Give 100
fold 100
▁티켓을 100
atu 100
▁하다 100
GHz 100
▁clock 100
▁Girls 100
▁manifest 100
▁Cancun 100
▁Figure 100
▁Imperial 100
▁Jeremiah 100
▁worry 100
▁유레일 100
▁repeat 100
▁desert 100
▁분쟁 100
▁railway 100
▁없으며 100
▁섬유 100
10- 100
▁distributed 100
▁소수 100
883 100
▁진노 100
▁날이 100
▁Cell 100
▁handling 100
▁이른 100
ett 100
user 100
▁밀도 100
▁교회의 100
XL 100
▁COM 100
▁선포 100
5:12 100
▁간단 100
▁각기 100
109 100
girl 100
따 100
▁constant 100
뢰 100
▁Ross 100
▁상황에 100
▁charged 100
▁물어 100
스가 100
▁이동합니다 100
▁비엔나 100
▁PowerShell 100
▁responsibility 100
▁낳았 100
▁잉글랜드 100
걷 100
▁고화질 100
▁Course 100
▁탐험 100
▁Turbo 100
▁Kiev 100
▁stuff 100
▁세련된 100
▁지점에 100
킬 100
▁언 100
▁125 100
iness 100
ech 100
▁overcome 100
▁Seven 100
려는 100
▁Dor 100
▁Yang 100
▁05:09 100
▁Jim 100
▁Bike 100
4:15 100
-60 100
▁도시에서 100
▁떠 100
▁수있습니다 100
card 100
▁성숙 100
▁아스 100
▁아니하였 100
yang 100
eur 100
▁refund 100
먹 100
▁루트 100
sso 100
▁입력합니다 100
▁ultimate 100
시장 100
▁Gui 100
▁엠 100
겔 100
▁들을 100
▁restored 100
▁depends 100
▁잃어버린 100
▁텍사스 100
▁호스팅 100
▁크롬 100
▁Creek 100
▁먼 100
▁재앙 100
하시나요 100
▁그대 100
▁공급자 100
▁요새 100
▁GPU 100
▁Hy 100
함에 100
▁acid 100
단계 100
nal 100
▁갖는 100
▁TVS 100
▁carefully 100
▁매매 100
hui 100
▁들고 100
boy 100
orn 100
▁팜 100
▁별도의 100
▁XML 100
▁delay 100
UNTR 100
esh 100
▁필요하다 100
▁끄 100
▁뿔 100
지며 100
▁시절 100
인은 100
▁임금 100
▁대답하지 100
3:18 100
▁chip 100
▁Pis 100
▁하나님과 100
▁TX 100
▁가져오 100
▁한계 100
xxx 100
▁액 100
aught 100
혹 100
2.1 100
▁이용한 100
▁기술적 100
▁Hal 100
▁Eden 100
▁Canadian 100
▁Hyatt 100
▁Properties 100
▁administration 100
▁philosophy 100
▁슬로베니아 100
▁튜브 100
-13-1250 100
▁glad 100
▁누릅니다 100
▁Friday 100
1313- 100
▁trail 100
▁optical 100
▁shipping 100
▁비교하였습니다 100
▁뜻을 100
▁Polish 100
▁농구 100
▁자극 100
▁조약 100
웨 100
▁오염 100
▁하시니라 100
▁혈 100
▁조건을 100
ón 100
▁Disk 100
▁Pier 100
▁등에 100
▁산업용 100
▁stranger 100
▁꺼 100
bia 100
▁수가 100
TED 100
▁Liber 100
▁전부 100
짓 100
▁받기 100
pper 100
▁cream 100
▁Jack 100
▁모니터 100
마리 100
▁Accommodation 100
▁audience 100
▁stories 100
▁아저씨 100
▁여섯 100
▁sought 100
▁객체 100
▁스카이팀 100
▁Less 100
Ba 100
▁Racing 100
▁Geneva 100
▁개혁 100
▁NOT 100
▁HI 100
▁편안하게 100
▁fans 100
▁Baby 100
▁prove 100
▁포기 100
▁손에서 100
▁구강 100
2:20 100
▁Finally 100
▁들어가서 100
▁확인합니다 100
▁서버에 100
▁strengthen 100
lands 100
▁녹 100
071 100
▁kiss 100
▁govern 100
anti 100
▁자료를 100
256 100
2:29 100
▁Kon 100
▁Meat 100
eller 100
로비 100
▁regulations 100
▁층이 100
▁체인 100
과학 100
하나요 100
▁장소들 100
lk 100
쾌 100
▁윌리엄 100
렐 100
▁흡수 100
▁AutoForm 100
▁defense 100
▁Commission 100
▁것이고 100
▁동맹 100
▁habit 100
▁맞춤형 100
▁Med 100
▁LG 100
ces 100
▁배출 100
▁Write 100
nam 100
마르 100
gl 100
▁때에는 100
▁고객은 100
▁printer 100
▁preached 100
08- 100
▁유산 100
▁열조 100
▁20:2 100
▁시온 100
▁Nov 100
었던 100
158 100
▁굽 100
▁Bou 100
▁피에 100
▁affected 100
▁잊지 100
▁멀 100
▁affiliate 100
3.3 100
▁악인 100
▁모세에게 100
▁PU 100
RH 100
자들과 100
▁용도 100
rica 100
▁Bulgaria 100
▁Reference 100
▁Wyndham 100
▁bodies 100
▁powder 100
▁믿고 100
▁animation 100
▁Brooklyn 100
OO 100
▁sexual 100
▁prefer 100
▁Applications 100
▁쳐서 100
▁euro 100
▁신규 100
▁저에게 100
▁1989 100
▁Pay 100
나이까 100
▁installing 100
▁시작하는 100
▁부상 100
학적 100
▁visited 100
▁털 100
▁통치 100
▁wallpaper 100
6:10 100
▁저의 100
▁가시 100
▁전면 100
▁correspond 100
▁성과 100
AK 100
▁Chile 100
▁SSL 100
▁집행 100
▁충분 100
gno 100
▁256 100
▁코르 100
▁Shan 100
▁Table 100
데스 100
offering 100
▁Extra 100
ologist 100
혜 100
▁songs 100
포스 100
▁Galeri 100
▁universal 100
▁골짜기 100
▁Smith 100
▁로타리 100
▁Aero 100
▁이용자 100
▁누락 100
▁옳 100
FM 100
▁Circle 100
하느냐 100
▁로열 100
▁보석 100
▁답변을 100
▁보호를 100
▁설정합니다 100
isa 100
hn 100
062 100
▁previously 100
▁Chain 100
▁기본적인 100
▁ensures 100
▁05:06 100
▁여기에서 100
eight 100
▁갔다 100
▁Porno 100
▁자들을 100
SG 100
롭 100
좌 100
▁접근할 100
cular 100
▁Did 100
▁preferences 100
rg 100
rno 100
▁휴 100
▁단계에서 100
▁해결할 100
2001 100
▁heavens 100
▁thick 100
▁congregation 100
▁유월절 100
▁일어난 100
▁density 100
▁램프 100
€¢ 100
▁inspection 100
▁승객 100
▁Password 100
▁Brighton 100
1.5 100
▁보내는 100
▁grant 100
▁recognize 100
▁마세요 100
▁요단 100
▁modify 100
▁et 100
▁365 100
▁Think 100
odo 100
cio 100
▁(15 100
▁노력을 100
▁인치 100
▁업데이트를 100
▁도움 100
Mac 100
믹 100
당한 100
Su 100
▁벽지 100
▁SV 100
ink 100
rou 100
고래 100
Next 100
stream 100
word 100
dict 100
▁이유가 100
▁intelligence 100
▁스크립트 100
▁크로스드레스 100
▁가나안 100
▁Protect 100
▁혈액 100
▁Peace 100
kel 100
▁Monday 100
점이 100
▁연기 100
▁retail 100
▁되리라 100
▁Upper 100
▁Vel 100
▁Stick 100
만의 100
▁하십시오 100
▁Pot 100
▁오전 100
1001 100
▁Ker 100
▁ADC 100
▁heads 100
스턴 100
▁영토 100
▁복잡 100
▁세기 100
▁펠 100
▁possession 100
▁Expo 100
▁linked 100
3:13 100
▁connecting 100
eta 100
▁05:05 100
tone 100
▁CT 100
▁Sel 100
jan 100
▁raw 100
1:25 100
▁IoT 100
etto 100
▁91 100
▁의자 100
▁특정한 100
▁Cast 100
▁BD 100
촉 100
▁premium 100
▁romantic 100
▁실리콘 100
▁프랑크푸르트 100
▁forecast 100
▁FARO 100
▁해결책 100
▁계층 100
▁Serial 100
▁즐기 100
▁새틴 100
▁vital 100
▁해줍니다 100
군은 100
▁Mira 100
OTP 100
401 100
▁사이버 100
▁비스타 100
▁centers 100
▁reform 100
▁마리오 100
▁수입 100
▁대답을 100
▁다음은 100
▁페르 100
▁12, 100
▁Der 100
▁Cent 100
▁Tao 100
▁활용하여 100
205 100
▁공통 100
▁UPS 100
level 100
▁Ay 100
▁나라를 100
▁경험이 100
▁formula 100
UC 100
sum 100
부르크 100
▁Lang 100
▁하소서 100
▁evolution 100
1:26 100
▁존재하는 100
064 100
1:17 100
▁True 100
▁약간의 100
▁Catholic 100
▁thirty 100
▁세라믹 100
▁prompt 100
▁Credit 100
▁modified 100
▁Hebrew 100
▁기둥 100
vision 100
eau 100
▁Sara 100
▁듯 100
▁GIF 100
▁추정 100
▁되었고 100
▁야간 100
▁분석을 100
▁비롯한 100
gs 100
▁generated 100
▁tracking 100
▁실버 100
▁잠시 100
▁영감을 100
▁예수님은 100
▁practices 100
▁스틱 100
lou 100
▁물건 100
▁랩 100
2:07 100
ground 100
▁아동 100
▁(16 100
ency 100
▁대학의 100
0:06 100
▁형식으로 100
▁enjoys 100
-13 100
▁직원들 100
둔 100
▁하시겠습니까 100
내에 100
▁설명합니다 100
밴 100
▁Analysis 100
▁statistics 100
▁일으키 100
▁알아보십시오 100
▁팝업 100
에게로 100
▁Juice 100
HE 100
▁요구사항 100
▁Carrer 100
▁장비를 100
edge 100
▁bond 100
▁Kal 100
▁집합 100
▁허브 100
▁탐 100
▁suffer 100
▁Canal 100
▁arrived 100
▁Barco 100
▁clouds 100
▁declared 100
▁5.5 100
App 100
▁다가 100
++ 100
▁Put 100
BF 100
▁(14 100
▁레인 100
pol 100
FL 100
▁talking 100
▁lovely 100
▁IRC 100
▁간에 100
▁물고기 100
▁schedule 100
▁streaming 100
tie 100
▁합성 100
▁보일 100
John 100
▁효율성을 100
▁Need 100
▁내려가 100
▁Amplifier 100
▁Slovenia 100
▁바르샤바 100
▁Alliance 100
▁스토어 100
1:01 100
▁grain 100
▁오피스 100
▁Anne 100
▁SK 100
2017 100
▁alert 100
▁연료 100
iso 100
▁gear 100
바르 100
▁결과에 100
▁물이 100
▁말하고 100
자들을 100
corn 100
리이다 100
▁라스 100
▁인자 100
▁유형을 100
▁몬 100
늘 100
ccu 100
▁되기 100
갔다 100
▁Pol 100
▁과일 100
▁흐 100
▁Users 100
▁주여 100
▁hoteller 100
ander 100
▁갔 100
rich 100
▁Cart 100
▁정부가 100
pal 100
▁린 100
ido 100
service 100
▁우상 100
▁orbit 100
▁Hungarian 100
▁succeed 100
▁네트워킹 100
▁스테인리스 100
▁예레미야 100
▁Foreign 100
▁Isaac 100
▁다국어 100
▁Zurich 100
▁↑ 100
▁broadcast 100
▁grew 100
▁바위 100
▁Cad 100
rom 100
▁홍 100
1:16 100
인증된 100
ASX 100
▁continues 100
▁characteristics 100
▁특성을 100
▁Deep 100
▁유용 100
▁조언 100
밖에 100
▁식사를 100
▁사랑을 100
got 100
▁기호 100
watch 100
-90 100
▁personality 100
▁emo 100
FX 100
▁SG 100
phy 100
▁탑 100
2:23 100
▁achieved 100
pad 100
post 100
▁Laser 100
▁Hotell 100
▁들이 100
▁밭 100
▁적절 100
▁SU 100
▁전역 100
-50 100
love 100
▁트레 100
onia 100
from 100
▁argument 100
▁마이그레이션 100
▁Amazing 100
▁일요일 100
▁WIFI 100
▁vector 100
▁thread 100
▁ownership 100
▁Iceland 100
▁Nature 100
▁겸 100
▁Wallpapers 100
▁1976 100
▁연관 100
▁wave 100
▁br 100
▁XM 100
My 100
▁이비스 100
▁Ai 100
▁부분에 100
▁기술이 100
▁DO 100
▁러시아의 100
▁Xin 100
▁Wil 100
▁(6 100
▁ahead 100
▁Toy 100
▁들은 100
▁Circuits 100
▁ka 100
EI 100
AU 100
▁painting 100
vie 100
▁BO 100
▁세력 100
git 100
mai 100
▁성공을 100
▁130 100
Or 100
▁lighting 100
▁Production 100
▁통지 100
▁alive 100
HT 100
▁포함합니다 100
▁05:3 100
즘 100
켈 100
▁tables 100
▁Temperature 100
▁exciting 100
▁executive 100
▁드래그 100
▁붙여 100
▁mechanism 100
▁첨단 100
▁feedback 100
▁메트로 100
▁극복 100
▁attractive 100
▁Champ 100
▁분야에 100
▁Bah 100
▁drag 100
▁편안하고 100
/12 100
▁직장 100
▁creates 100
▁Lima 100
중에 100
이기 100
냈다 100
것이 100
▁단순한 100
야드 100
▁윌 100
▁Provide 100
▁제약 100
▁Though 100
▁수동으로 100
heim 100
▁둘러보 100
▁자매 100
▁consumers 100
▁delight 100
▁듣는 100
▁틴 100
없 100
▁GT 100
▁전화를 100
▁프라 100
lation 100
▁사항에 100
▁birds 100
▁512 100
었더라 100
▁craft 100
▁옵션이 100
501 100
▁UV 100
롯 100
▁보호하기 100
▁제공하여 100
▁certification 100
▁스타디움 100
▁오랫동안 100
▁하이브리드 100
▁puzzle 100
▁체크아웃 100
▁듀얼 100
shire 100
▁ends 100
▁석유 100
▁키트 100
▁implementation 100
▁Trail 100
▁결과로 100
▁행하는 100
▁멀지 100
▁입자 100
▁citizens 100
개인 100
▁이끌 100
▁reader 100
뷰 100
▁10.0 100
▁840 100
▁scenes 100
▁expert 100
▁Spi 100
내는 100
▁PT 100
lang 100
LAN 100
ked 100
▁Soft 100
▁exact 100
polis 100
▁폭스 100
거니와 100
▁없다는 100
쥐 100
▁야훼 100
NZ 100
뮤 100
▁facility 100
▁Alexander 100
▁Television 100
▁국립공원 100
▁Ticket 100
▁obey 100
▁backpackers 100
▁질환 100
▁탄생 100
▁게임에서 100
▁Leica 100
(2) 100
▁미친 100
▁crop 100
▁Among 100
▁시대에 100
▁금발의 100
▁제공한다 100
▁모션 100
▁유도 100
shore 100
140 100
▁elected 100
▁아직이 100
▁방향으로 100
▁significantly 100
ily 100
▁optimize 100
▁뉴욕에서 100
인들은 100
▁캐시 100
▁tested 100
EU 100
▁프랑스의 100
▁복을 100
▁flower 100
▁권세 100
▁Sleep 100
▁돌리 100
▁Mun 100
하기에 100
▁영역에 100
▁compete 100
▁주민 100
▁Cay 100
▁Zion 100
▁생기 100
cens 100
▁elders 100
▁Leopard 100
▁Oxford 100
▁carbide 100
▁샌디에이고 100
▁카운티 100
▁Colombia 100
▁리스팅 100
▁buffer 100
▁Simulation 100
▁Element 100
3:3 100
▁Operating 100
▁warning 100
▁작업이 100
▁ended 100
bach 100
▁선출 100
▁안정적인 100
heng 100
▁reasonable 100
▁Document 100
▁Tal 100
▁HDMI 100
▁faithful 100
lev 100
▁분노 100
▁구체 100
하셨 100
▁생각하는 100
FD 100
▁알아보 100
173 100
▁브라 100
▁Thos 100
▁Amp 100
▁랜 100
▁linear 100
IX 100
▁suit 100
LR 100
▁consumer 100
-17 100
▁깨 100
▁정지 100
▁「 100
어진 100
AND 100
pine 100
▁개장 100
1:22 100
DH 100
▁말한 100
▁HK 100
shoot 100
융 100
▁흥미 100
ᆞ 100
▁semiconductor 100
▁겨드랑이 100
▁두려움 100
▁읽을 100
▁physics 100
▁금요일 100
▁visible 100
▁Munich 100
▁southern 100
▁dialog 100
▁마켓 100
▁바트 100
chin 100
224 100
▁discussion 100
▁millions 100
▁turning 100
6:20 100
▁Abu 100
imp 100
▁Grande 100
pub 100
▁교회에 100
▁북부 100
NF 100
▁장소에서 100
▁tend 100
pit 100
▁Tele 100
axd 100
▁Stream 100
▁Georgia 100
▁Rental 100
었을 100
MH 100
▁다음을 100
1:30 100
▁forced 100
▁Jun 100
▁thank 100
tam 100
illo 100
stein 100
▁메리 100
먼트 100
쉽 100
▁무엇인가 100
▁Secret 100
hall 100
± 100
▁Bucharest 100
▁Published 100
▁decrease 100
▁spandex 100
▁세르비아 100
▁제네바 100
▁rescue 100
▁Spider 100
세이 100
▁interactive 100
▁정확히 100
▁폭포 100
▁Bit 100
7:3 100
▁단독 100
▁방수 100
유럽 100
▁방문하면 100
▁납 100
▁login 100
▁보니 100
dri 100
220 100
▁건물에서 100
▁혹 100
340 100
▁시각 100
▁attended 100
▁비전 100
Line 100
들어 100
tage 100
▁follows 100
학자 100
기업 100
▁Additional 100
TZ 100
▁듀 100
▁어디에서 100
hold 100
엄마 100
inter 100
▁Antalya 100
▁crowd 100
▁아이슬란드 100
▁카바이드 100
렘 100
▁Surface 100
▁pixels 100
▁partnership 100
▁용접 100
▁실험실 100
▁설비 100
0.00 100
▁01:0 100
▁lots 100
▁typically 100
보다는 100
▁Lux 100
GH 100
▁sponsor 100
▁calling 100
▁인민 100
▁heating 100
stat 100
▁conveniently 100
0:08 100
▁depth 100
▁TDA 100
▁브라우저에서 100
▁서식 100
보이 100
west 100
▁permanent 100
▁guys 100
▁streets 100
▁편리 100
▁뜨 100
▁Method 100
▁SurveyMonkey 100
▁contrast 100
▁symptoms 100
▁비지니스 100
▁최선을 100
▁cancellation 100
▁Richard 100
▁Threesome 100
▁아내교환 100
▁boost 100
▁bomb 100
▁스타일을 100
▁unknown 100
▁농업 100
▁궁금 100
▁몬테 100
▁토론토 100
▁Malaysia 100
▁절연 100
Link 100
RB 100
▁추진 100
21, 100
such 100
rb 100
▁Piano 100
케이 100
▁Nam 100
▁commands 100
▁동적 100
▁GA 100
▁proof 100
▁^ 100
▁동의합니다 100
▁외국인 100
▁1988 100
etic 100
▁그들과 100
ume 100
431 100
▁들어오 100
▁reveal 100
▁하단 100
5:14 100
▁컴 100
▁advantages 100
7:1 100
▁setup 100
aste 100
▁Plant 100
▁하리니 100
arm 100
▁Fine 100
-06 100
큰 100
▁길로 100
▁요금은 100
▁Edinburgh 100
▁resurrection 100
▁시애틀 100
▁트랜스 100
▁deletion 100
▁(12 100
子 100
▁tongue 100
▁Interface 100
▁cried 100
▁Prime 100
where 100
▁Transfer 100
▁배울 100
▁Preview 100
▁Dia 100
▁Et 100
컨대 100
▁downloaded 100
▁Winter 100
▁열어 100
▁suppliers 100
▁본질 100
▁틀 100
▁Flower 100
oul 100
▁header 100
▁sending 100
▁원리 100
▁Lot 100
9:10 100
자인 100
▁signals 100
▁Rev 100
eek 100
inn 100
SST 100
▁지역은 100
달라고 100
▁Kir 100
▁contained 100
▁23:5 100
▁DP 100
▁pour 100
▁Awards 100
스페 100
▁couldn 100
▁자와 100
금을 100
카드 100
▁Dom 100
▁mention 100
▁인증서 100
▁Iron 100
▁복음을 100
조차 100
0:29 100
▁페인트 100
▁Improve 100
▁애완동물 100
▁주파수 100
▁Tennis 100
부에 100
▁마침내 100
lb 100
▁Pod 100
▁aircraft 100
▁관측 100
▁창출 100
▁말하되 100
▁영국의 100
▁레저 100
▁권한이 100
웠 100
▁increasingly 100
5:20 100
▁DNA 100
▁안전하고 100
▁Apartamento 100
edit 100
▁Classical 100
▁(17 100
▁거들 100
▁ill 100
▁knows 100
How 100
▁하위 100
▁가속 100
▁9.2 100
▁향상된 100
PH 100
▁ko 100
▁크고 100
▁declare 100
▁Made 100
home 100
▁rapid 100
▁fingering 100
사이드 100
SON 100
넥 100
▁corporation 100
▁sufficient 100
▁뭔가 100
▁어두운 100
▁evaluate 100
▁상관없이 100
▁일찍 100
1:28 100
▁Friend 100
▁국경 100
▁차례 100
▁Kat 100
WA 100
▁자랑합니다 100
tier 100
▁살펴 100
▁regard 100
▁demands 100
▁버그 100
▁GOD 100
센트 100
▁Lind 100
373 100
080 100
▁shoot 100
▁Cel 100
Bar 100
metric 100
▁아침에 100
다음 100
▁전국 100
▁Om 100
stop 100
▁프랑 100
▁1:4 100
rec 100
▁Nik 100
▁letters 100
emi 100
▁삭제할 100
▁독자 100
뛰 100
▁Testament 100
▁Vancouver 100
▁impossible 100
▁촉진 100
▁캠퍼스 100
▁RTD 100
▁calibration 100
▁언론 100
▁metres 100
▁Pressure 100
▁8.9 100
▁프로세스가 100
▁가장자리 100
-45 100
▁focused 100
지기 100
▁Broad 100
▁가격으로 100
스탄 100
pher 100
▁06:09 100
zel 100
▁frequency 100
▁begins 100
▁천문학 100
titude 100
▁Wet 100
▁Sleeps 100
eira 100
▁말해 100
▁입을 100
화물 100
▁소요 100
▁말로 100
▁mat 100
▁Diodes 100
▁기술과 100
hou 100
▁떨 100
▁Cut 100
▁Rent 100
▁Marine 100
riv 100
that 100
▁Hav 100
▁Tab 100
▁Circuit 100
50- 100
aven 100
▁measurements 100
▁세계적인 100
▁realize 100
▁설명서 100
▁logical 100
▁못했다 100
▁ears 100
시면 100
▁당신과 100
성은 100
븐 100
▁Contemporary 100
▁opposite 100
▁recognition 100
▁초콜릿 100
▁모른다 100
▁palace 100
▁LTD 100
▁entering 100
我 100
▁Again 100
▁dutch 100
왔습니다 100
▁packages 100
▁Rad 100
▁예수님의 100
둘 100
▁Harris 100
전에 100
▁Seville 100
▁지구에 100
함께 100
Hi 100
▁Hairy 100
▁구사 100
▁센터에 100
▁빌드 100
▁품질의 100
▁별도 100
nate 100
▁9.3 100
▁hill 100
char 100
▁실행할 100
필드 100
▁나사 100
개가 100
▁Gam 100
하였도다 100
▁인용 100
▁newspapers 100
▁alter 100
▁8.7 100
▁현장에서 100
▁죄인 100
치게 100
▁13, 100
▁예수님을 100
▁RSS 100
scan 100
▁피해 100
▁그로 100
▁위기 100
▁issued 100
▁친절 100
▁요구를 100
poli 100
립니다 100
깃 100
▁Swimming 100
▁iniquity 100
▁speech 100
▁translator 100
▁에디션 100
▁Photonics 100
▁Henry 100
▁폐쇄 100
하기위한 100
▁찬양 100
▁preferred 100
▁feast 100
▁fiber 100
PRO 100
맞 100
▁평안 100
▁Latina 100
piece 100
Web 100
▁크기를 100
▁cancel 100
VX 100
▁14, 100
1:29 100
▁얼음 100
State 100
▁침해 100
power 100
▁마약 100
▁Wu 100
2000 100
▁$3 100
▁수직 100
▁Reg 100
▁accelerate 100
▁Pictures 100
▁Loading 100
▁arise 100
▁Fit 100
▁Historic 100
▁facilitate 100
case 100
▁테스트를 100
▁Ry 100
▁assume 100
▁Dick 100
izer 100
▁flowers 100
▁Base 100
▁십자가 100
일부터 100
▁다르 100
bet 100
OUT 100
stan 100
ION 100
▁이상이 100
▁strict 100
▁손실을 100
▁도구입니다 100
usa 100
▁국제공항 100
▁Chubby 100
▁PinkRod 100
▁dictionary 100
▁province 100
▁이르렀 100
▁콜롬비아 100
▁Federal 100
▁disaster 100
▁슬롯 100
휴 100
▁roof 100
▁애완 100
▁Pump 100
▁꽤 100
빛 100
▁Princess 100
▁담당자 100
▁lens 100
▁Nova 100
▁willing 100
▁나열 100
▁Burn 100
▁킬 100
▁공동체 100
▁수를 100
▁필요하지 100
▁ATM 100
4:21 100
▁Ann 100
▁scenarios 100
개발 100
▁replaced 100
▁설 100
▁#2 100
▁없으 100
▁beat 100
bling 100
▁제단 100
▁educational 100
체의 100
테크 100
게임 100
▁불리는 100
▁PR 100
4:29 100
▁Fl 100
hl 100
렸습니다 100
0:12 100
▁21, 100
6713 100
▁forum 100
▁busy 100
산업 100
rod 100
ifies 100
▁Albufeira 100
▁Belgium 100
▁Committee 100
▁Suunto 100
▁celebrate 100
▁computing 100
▁fifty 100
▁potatoes 100
▁배낭객 100
▁withdraw 100
gotten 100
▁처녀 100
▁자사 100
▁thin 100
▁스트림 100
ITEK 100
▁대륙 100
▁Flu 100
▁Aqua 100
▁■ 100
▁얻게 100
▁예루살렘에 100
▁바와 100
▁자리를 100
▁사막 100
nar 100
▁Transistors 100
▁벨트 100
▁옛 100
▁시점 100
▁알파 100
lena 100
▁operated 100
▁pets 100
▁사무 100
▁assets 100
108 100
6:12 100
TU 100
En 100
▁phones 100
▁회장 100
십니다 100
▁말며 100
리안 100
▁9.1 100
▁종합 100
posit 100
처리 100
지니라 100
▁addresses 100
▁1940 100
▁grave 100
제로 100
▁나타나는 100
▁HE 100
▁plane 100
▁designs 100
▁trusted 100
▁줄일 100
▁drug 100
▁죽었 100
▁structures 100
▁Radisson 100
▁Trinity 100
▁definition 100
▁negative 100
▁fabric 100
▁truck 100
▁belief 100
▁apostles 100
▁Hanoi 100
▁Contrad 100
▁게다가 100
▁proud 100
▁04:25 100
▁plain 100
톱 100
▁cake 100
▁다시는 100
▁MAX 100
▁mold 100
▁탄소 100
▁Medi 100
▁Linear 100
▁comply 100
host 100
hur 100
▁어려움 100
▁얻고 100
▁Rey 100
▁knowing 100
▁흉 100
▁마리나 100
▁아래로 100
▁ke 100
▁Steps 100
▁단순 100
AJ 100
ups 100
used 100
bes 100
▁음식을 100
▁performing 100
▁셋 100
▁Qui 100
▁자식 100
듯 100
▁선택하는 100
All 100
▁topics 100
▁도움으로 100
▁1500 100
▁섹시 100
비스 100
tens 100
▁Nar 100
iling 100
▁침대와 100
▁이점 100
▁Fal 100
▁시체 100
▁sizes 100
▁센터에서 100
▁commandments 100
FR 100
glia 100
▁bearing 100
춘 100
▁Culture 100
▁Supreme 100
▁association 100
▁mathematician 100
▁뭄바이 100
▁베냐민 100
듬 100
▁mirror 100
・ 100
▁Nurse 100
▁권능 100
▁radiation 100
▁관광객 100
oh 100
▁membership 100
▁remaining 100
▁지도자 100
▁Mission 100
▁Dal 100
▁수익 100
aj 100
했는지 100
▁Muang 100
▁Creator 100
▁HBM 100
▁게이트 100
▁Sciences 100
VO 100
0:15 100
▁Mile 100
▁Andrew 100
6:15 100
count 100
Read 100
▁Backpackers 100
▁끼 100
▁meal 100
▁income 100
▁Official 100
bad 100
▁Volume 100
db 100
▁inner 100
되므로 100
▁기록을 100
258 100
▁Provider 100
▁horse 100
▁prop 100
▁attributes 100
▁실수 100
▁configure 100
▁Lost 100
WC 100
▁연결하는 100
▁Croatia 100
▁기분 100
▁세상에서 100
▁내내 100
▁일본무삭제 100
html 100
▁방정식 100
1⁄4 100
▁Urantia 100
▁buried 100
▁부과 100
▁Duplex 100
▁serving 100
▁capability 100
▁utilize 100
▁flock 100
것입니다 100
▁workflow 100
▁공격을 100
웰 100
핵 100
▁배달 100
▁시스템으로 100
▁됨 100
▁processed 100
▁동반 100
▁loop 100
▁로마의 100
▁scans 100
▁bat 100
▁후손 100
▁relatively 100
▁transition 100
▁Designer 100
▁Matthew 100
아나 100
▁곤 100
DBR 100
▁친구들 100
▁이동할 100
▁사이드 100
030, 100
▁가능성을 100
▁preaching 100
▁자녀들 100
▁tire 100
master 100
▁gap 100
▁3.2 100
▁찾 100
▁ratio 100
[1] 100
까지의 100
▁IR 100
plan 100
(7/ 100
yne 100
▁기어 100
made 100
▁가을 100
▁지상 100
▁supplier 100
▁에게 100
50,000 100
trac 100
real 100
▁아니하는 100
▁Interracial 100
▁choosing 100
▁expensive 100
▁medicine 100
▁ourselves 100
▁Analytics 100
▁높아 100
▁vacation 100
▁죽을 100
▁submitted 100
▁Jackson 100
▁릴 100
isi 100
마사지 100
▁estate 100
▁Kra 100
1:40 100
gie 100
▁GDP 100
운동 100
▁평면 100
isation 100
XXX 100
2:32 100
태그 100
▁speciality 100
▁matches 100
하다고 100
▁Kil 100
달러 100
▁harm 100
▁TMP 100
▁departed 100
▁seventh 100
▁Had 100
TN 100
▁정확도 100
▁decisions 100
▁이사회 100
▁성형 100
▁lounge 100
ended 100
rupt 100
▁reigned 100
4:17 100
▁이끌어 100
▁leg 100
3:21 100
▁활성 100
▁asset 100
▁상위 100
▁세계를 100
anta 100
▁빵 100
▁Fucked 100
▁operational 100
▁조치를 100
▁AF 100
▁lick 100
▁Paint 100
▁Season 100
itu 100
4:11 100
쇄 100
▁lifted 100
2.0 100
▁Baptist 100
▁Giovanni 100
▁Introduction 100
▁PayPal 100
▁sightseeing 100
▁무거운 100
▁밑에 100
삽 100
▁Kyoto 100
▁Monitor 100
▁soldiers 100
▁느낄 100
▁terror 100
map 100
▁screw 100
▁winner 100
▁앱이 100
▁지옥 100
-40 100
▁여겨 100
▁파티션을 100
▁diverse 100
▁Johnson 100
▁techniques 100
AGE 100
▁역사적 100
▁견고한 100
sey 100
max 100
061 100
▁accommodat 100
▁마라 100
지니 100
▁백인 100
▁oral 100
▁박물관에 100
ching 100
UE 100
4:13 100
▁charm 100
▁organ 100
▁이기 100
3:1 100
▁부부 100
검 100
▁NV 100
▁Ep 100
▁멜 100
▁유방 100
리나 100
▁정도로 100
▁principle 100
▁Friends 100
▁지역을 100
▁Comment 100
USB 100
▁Frequency 100
▁familiar 100
▁plenty 100
▁옮겨 100
▁shift 100
▁칸쿤 100
▁Major 100
▁Complex 100
▁Midtown 100
▁Kuala 100
morrow 100
같이 100
▁Pearl 100
▁Broadway 100
▁fluid 100
▁applies 100
▁Monster 100
▁뒷 100
굴 100
▁keeping 100
▁칠레 100
▁연구에 100
▁Hin 100
▁갈라 100
▁주께 100
▁시각화 100
1:27 100
▁사회주의 100
▁verse 100
▁browsers 100
ape 100
▁피로 100
르트 100
▁기능과 100
▁명시되 100
▁견해 100
▁16- 100
▁suffering 100
how 100
▁것이니 100
▁재고 100
▁concepts 100
▁interact 100
었으니 100
▁Later 100
▁fulfill 100
ARD 100
▁Mak 100
▁observe 100
look 100
▁갖추 100
▁ABS 100
▁여자의 100
zia 100
지오 100
1:08 100
▁LL 100
▁Corporate 100
▁Cultural 100
▁Mercure 100
▁YepTube 100
▁eventually 100
▁inaccessible 100
▁receiving 100
▁satisfied 100
▁기쁘게 100
▁바닷가 100
▁heritage 100
▁Coupon 100
▁behalf 100
▁Sometimes 100
▁BZX 100
▁Jersey 100
▁abroad 100
▁첨부 100
▁rubber 100
▁충성 100
▁arch 100
죄 100
▁종족 100
▁managing 100
▁재미있는 100
▁민간 100
▁의견을 100
▁부담 100
▁Instead 100
▁대신에 100
▁cent 100
▁Unless 100
▁Socialist 100
▁해양 100
▁Tours 100
▁Object 100
▁포커 100
▁tro 100
▁자손에게 100
▁그것들 100
▁수준을 100
▁(9 100
▁BTB 100
2009 100
시설 100
▁캡 100
▁Ever 100
▁하버 100
▁Week 100
kk 100
▁Bol 100
▁라운드 100
▁필요성 100
▁Shift 100
▁bur 100
▁06:02 100
▁regional 100
▁covers 100
-35 100
▁increases 100
▁기능에 100
▁하나요 100
▁Stop 100
▁산소 100
▁전망을 100
▁1050 100
smann 100
▁측면에서 100
▁Transistor 100
▁operator 100
yama 100
▁creatures 100
▁typical 100
inal 100
▁commit 100
▁성령의 100
cum 100
킷 100
NN 100
▁Flow 100
▁distinguish 100
▁robust 100
▁아라비아 100
▁Hidden 100
▁프리미어 100
▁Canaan 100
▁정부의 100
-13-15- 100
124 100
▁자유롭게 100
▁quote 100
▁Rod 100
▁든 100
▁인증을 100
▁Moab 100
▁unclean 100
▁워크 100
▁surrounded 100
EG 100
▁3000 100
Recover 100
▁도울 100
miss 100
코스 100
▁성별 100
▁한다고 100
▁Does 100
yr 100
▁1900 100
▁Sn 100
▁작품을 100
▁중심에서 100
▁한다는 100
130 100
▁마이크 100
7.4 100
▁질량 100
quit 100
▁Ali 100
▁measured 100
aving 100
2019 100
▁reduc 100
▁8.5 100
▁agreed 100
▁aspects 100
▁유효한 100
▁나라의 100
▁beaches 100
▁이루어지 100
은즉 100
▁sil 100
▁결과는 100
ifying 100
고기와 100
가있는 100
▁airline 100
헨 100
▁사로잡 100
괄 100
▁Finnish 100
▁possibility 100
▁쉐라톤 100
▁Columbia 100
▁sermon 100
▁Abi 100
▁남아프리카 100
내가 100
▁Mansion 100
▁레이싱 100
▁여학생 100
▁revolutionary 100
▁stability 100
▁approved 100
▁ELECTRONICS 100
▁엔드 100
▁Pension 100
▁warranty 100
▁rapidly 100
stru 100
▁연간 100
▁disabled 100
▁당사에 100
▁되며 100
1:05 100
market 100
▁Arabic 100
▁trend 100
9:13 100
▁Brook 100
rank 100
▁합의 100
▁gu 100
take 100
rator 100
▁땅이 100
▁편안함을 100
▁에너지를 100
ANG 100
레이트 100
▁성적 100
▁UL 100
▁supporting 100
pped 100
었지만 100
aver 100
▁combines 100
▁introduce 100
▁arrive 100
Port 100
/5 100
123 100
그런즉 100
도시 100
TX 100
raz 100
▁이때 100
shop 100
흘 100
훈 100
MICROELECTRONICS 100
▁Despite 100
▁agencies 100
▁sequence 100
▁믿을 100
▁소규모 100
▁찜질방 100
▁Integrated 100
▁cluster 100
▁변호사 100
▁무언가 100
▁근접 100
▁지붕 100
▁northern 100
▁사이클 100
▁Phoenix 100
▁커널 100
bourg 100
▁fighting 100
▁sides 100
해야하는 100
▁짜 100
▁peak 100
헬 100
128 100
▁재무 100
▁(5) 100
그라 100
▁conf 100
▁미워 100
▁나가서 100
asse 100
▁Hor 100
장에 100
▁휠 100
▁preach 100
더라도 100
▁이들의 100
▁Victor 100
▁DH 100
▁이해할 100
ension 100
▁Barn 100
▁런던의 100
인들이 100
▁피트 100
dian 100
ride 100
▁limitation 100
▁severe 100
▁가능하다 100
레인 100
itis 100
▁encryption 100
▁말레이시아 100
▁캐릭터 100
▁하얏트 100
▁취리히 100
▁optimal 100
▁언덕 100
▁Aparthotel 100
▁환상적인 100
▁Nathan 100
▁Az 100
▁transferred 100
▁감각 100
▁타일 100
▁성취 100
arrow 100
▁소망 100
▁엄격한 100
▁두께 100
▁중동 100
▁attached 100
▁귀신 100
▁Planet 100
▁그리스도께서 100
▁Meta 100
▁채용 100
MENT 100
now 100
0:21 100
▁Stand 100
▁Surf 100
▁Allow 100
▁XD 100
▁은하 100
▁다운로드하여 100
▁겁니다 100
▁이용하는 100
▁동부 100
▁helpful 100
이신 100
▁Stan 100
4:5 100
▁무대 100
▁반지 100
▁Corn 100
▁metro 100
▁beings 100
▁commonly 100
126 100
▁Olive 100
▁WE 100
렬 100
▁이래 100
▁관해 100
퍼드 100
▁기회가 100
▁Sheet 100
▁보았다 100
gam 100
1:23 100
▁Compressor 100
▁DDoS 100
▁Intelligent 100
▁cameltoe 100
▁victory 100
▁크루즈 100
-5325 100
▁Wolfram 100
gil 100
▁디스코 100
▁새끼 100
▁제사 100
▁dining 100
▁bind 100
▁지하철역 100
▁주셔서 100
몽 100
6.5 100
▁타이어 100
1.2 100
▁다운로드하고 100
exp 100
▁선호하는 100
▁claims 100
▁동물원 100
사회 100
▁홍수 100
mis 100
3:23 100
▁specifications 100
▁faces 100
▁역학 100
▁기록된 100
▁게임은 100
▁솔로 100
▁주변에 100
▁상태에서 100
▁프로젝트의 100
▁디자인을 100
▁slot 100
▁Bold 100
▁grade 100
lah 100
zzi 100
촌 100
road 100
▁Effect 100
▁Arrival 100
▁Dresden 100
▁Ephraim 100
▁academic 100
▁certified 100
▁preparation 100
▁chamber 100
▁yield 100
▁bonus 100
▁빨간 100
▁doggy 100
▁수정할 100
▁AT 100
FN 100
▁Ibis 100
▁결론 100
▁Maison 100
▁Ask 100
▁예외 100
▁헤더 100
▁거쳐 100
▁farting 100
▁commitment 100
▁강사 100
▁22, 100
▁dimension 100
▁Tin 100
▁hang 100
▁19, 100
시스 100
▁boasts 100
▁customized 100
yi 100
▁최초로 100
▁organized 100
iza 100
pack 100
년이 100
▁구하다 100
▁죄악 100
레나 100
IGHT 100
▁Pai 100
그래 100
▁불어 100
burn 100
▁Final 100
0:40 100
▁EA 100
▁폭력 100
▁TPD 100
▁가격은 100
skiy 100
▁Campo 100
▁publication 100
392 100
▁파운드 100
▁hosting 100
Gil 100
▁Sm 100
▁인력 100
▁ADM 100
6:00 100
HER 100
▁만에 100
main 100
138 100
▁der 100
▁relations 100
▁먼지 100
▁procedures 100
▁und 100
▁branch 100
1024 100
stitut 100
aph 100
첼 100
▁honour 100
▁magazine 100
▁밝혀 100
▁읽으 100
▁AXIS 100
▁Civil 100
▁Montreal 100
▁flood 100
▁다니엘 100
▁즐겨 100
▁Frame 100
GbE 100
년의 100
▁Oriental 100
▁decoration 100
▁객실은 100
▁회중 100
▁AL 100
▁agents 100
▁retro 100
파크 100
▁Huge 100
만으로 100
▁designer 100
번호 100
nation 100
inder 100
방법 100
하러 100
▁다음의 100
▁graph 100
▁25% 100
▁ISL 100
▁살았 100
▁사단 100
십시요 100
▁Pink 100
▁중요하다 100
▁수학적 100
▁jobs 100
▁downloading 100
법을 100
▁blond 100
3:26 100
▁패드 100
▁본문 100
▁저렴 100
▁성교 100
▁Fra 100
oxy 100
121 100
Ga 100
▁cave 100
round 100
되었던 100
빗 100
▁Categories 100
▁Horizon 100
▁acquisition 100
▁completion 100
▁equivalent 100
▁trigger 100
▁풋잡 100
▁extent 100
▁더러운 100
▁Speak 100
▁catfight 100
▁Metropolitan 100
▁트윗 100
▁CON 100
▁푸른 100
▁다스리 100
▁합리적인 100
▁Organization 100
hir 100
▁inspired 100
▁세례 100
▁트레일 100
▁perish 100
벽 100
▁Meet 100
which 100
▁녹화 100
▁booty 100
▁괴 100
▁기업이 100
▁Levi 100
▁Tun 100
111 100
▁Fox 100
장에서 100
▁시리아 100
▁고난 100
▁06:13 100
▁리모델링이 100
▁파일과 100
간에 100
▁미래에 100
▁자들 100
coding 100
▁책상 100
▁유전 100
▁Noah 100
112 100
▁학교에서 100
▁로즈 100
▁선생 100
▁유한 100
▁stands 100
▁tracks 100
▁명확 100
라이트 100
▁fund 100
kg 100
▁계수 100
tang 100
▁exceptional 100
▁artists 100
▁Sao 100
▁Kun 100
▁중심부에 100
▁대안 100
▁시스템과 100
▁인접 100
▁운명 100
2% 100
▁레일 100
▁degrees 100
ipp 100
▁marked 100
▁너희와 100
▁220 100
▁러시아인 100
▁Leo 100
posed 100
ú 100
▁Glasgow 100
▁enabling 100
▁seamless 100
▁vibrant 100
▁발렌시아 100
▁프레젠테이션 100
▁Abstract 100
▁Ebony 100
▁violence 100
▁survive 100
▁agency 100
▁신용카드 100
▁Example 100
▁ultra 100
0:35 100
DGVR 100
▁split 100
▁Register 100
▁hat 100
▁neck 100
▁Thi 100
▁크림 100
▁NPN 100
▁trick 100
▁curse 100
▁행동을 100
▁Vacation 100
ugg 100
0:20 100
▁능력이 100
▁유통 100
▁legs 100
클럽 100
케이블 100
▁부대 100
▁patterns 100
▁Listen 100
Drive 100
▁volumes 100
▁Meeting 100
▁위키 100
PER 100
LU 100
▁곁에 100
tec 100
▁minor 100
조건 100
mov 100
▁analog 100
▁Milano 100
▁진실로 100
▁숙박했습니다 100
▁성소 100
▁modes 100
fla 100
레이션 100
fort 100
▁Galleri 100
tum 100
▁household 100
▁정확성 100
▁스테 100
▁CAR 100
▁수백만 100
▁용기 100
▁fled 100
▁Stu 100
디오 100
▁viewing 100
)" 100
▁Vent 100
5:29 100
▁Safari 100
▁initiative 100
▁substance 100
▁vicinity 100
▁붉은 100
▁아날로그 100
▁Challenge 100
▁확산 100
▁베로나 100
▁appeal 100
▁masturbating 100
▁축하 100
▁Egyptian 100
▁dev 100
▁4.2 100
▁섞 100
▁하여금 100
▁Berg 100
032 100
▁lamb 100
▁hunt 100
▁Body 100
2:03 100
▁자본주의 100
▁사상 100
▁coach 100
▁Ost 100
▁STK 100
▁목적은 100
이라면 100
074 100
▁Down 100
install 100
▁Salt 100
▁principles 100
라우 100
생활 100
hole 100
▁115 100
▁Bern 100
하겠습니다 100
나라 100
▁계명 100
▁잡지 100
web 100
▁백업을 100
▁Dur 100
evolutionary 100
▁390 100
▁Hay 100
▁Processing 100
▁02:1 100
ngle 100
acy 100
digit 100
▁노아 100
▁geo 100
▁TPE 100
예를 100
▁크로스 100
8:13 100
스틴 100
lac 100
났 100
KO 100
lyn 100
▁entirely 100
8:18 100
▁롱 100
▁Posts 100
lap 100
▁owners 100
▁눈이 100
해야한다 100
▁Nor 100
▁Manufacturing 100
▁housekeeping 100
▁매니저 100
▁사마리아 100
▁스판덱스 100
▁Novotel 100
▁Apache 100
▁양을 100
▁Fight 100
▁Mosque 100
▁헤이 100
▁남겨 100
▁Minister 100
6.2 100
▁부착 100
▁Thr 100
▁Package 100
▁조지아 100
▁제물 100
▁examine 100
▁hooker 100
▁Marie 100
▁구속 100
Hz 100
▁소통 100
▁0,3 100
▁Mine 100
▁clothing 100
TFG 100
OK 100
▁학사 100
▁창에서 100
▁5* 100
▁하더라 100
▁주제에 100
▁Tips 100
▁Hostal 100
▁요구에 100
▁권위 100
zio 100
▁법원 100
▁움 100
▁forty 100
▁지하 100
▁str 100
▁Want 100
jun 100
▁이방인 100
▁자금 100
1.3 100
옵션을 100
eni 100
▁ALL 100
▁RC 100
▁hack 100
▁bringing 100
bound 100
hab 100
▁pitch 100
brook 100
▁translate 100
이었더라 100
▁precise 100
▁tribes 100
▁유지하기 100
▁instant 100
ROM 100
▁목록에 100
▁테이블에 100
주고 100
▁전체를 100
▁Valle 100
▁징 100
▁Alternative 100
▁Battery 100
▁Edmonton 100
▁Excellent 100
▁refuge 100
▁비활성화 100
딕 100
ridge 100
▁cubits 100
▁아가씨 100
▁토리노 100
▁블루투스 100
▁흔들 100
▁midget 100
▁proposed 100
▁스트레스 100
lene 100
▁Norway 100
▁트리플 100
▁가끔 100
▁walked 100
▁존경 100
▁authentication 100
▁회개 100
▁싶다면 100
▁optional 100
▁8.3 100
▁관점 100
▁묶 100
shing 100
▁구경 100
▁탁 100
▁치수 100
▁선택하여 100
▁수학자 100
you 100
▁사울이 100
▁백성들 100
dorf 100
▁대량 100
▁examples 100
▁여정 100
▁pit 100
▁shadow 100
었는데 100
▁106 100
▁유선 100
▁전설 100
▁헌 100
▁Fla 100
0:23 100
DWR 100
▁포함하고 100
▁편지 100
▁1917 100
▁Marc 100
▁printed 100
ija 100
▁Vila 100
▁WI 100
▁비즈니스를 100
0:37 100
▁활동에 100
▁Region 100
tiva 100
▁Syn 100
ario 100
▁제자 100
▁treasure 100
▁twice 100
셈 100
▁appreciate 100
▁휴스턴 100
▁웨딩 100
자로서 100
▁bare 100
▁viewed 100
▁Manila 100
▁herself 100
▁물체 100
▁instruction 100
▁중년 100
▁reverse 100
▁Pr 100
▁wooden 100
▁유엔 100
▁Nai 100
▁소속 100
▁지급 100
▁Mir 100
▁Dragon 100
▁지구의 100
▁circumstances 100
smoking 100
▁ratings 100
▁중국인 100
▁turns 100
refundable 100
▁Deleted 100
▁구조를 100
▁cometh 100
▁전략적 100
7:13 100
▁이외에 100
▁waves 100
▁Exam 100
▁궤도 100
▁referred 100
▁시대의 100
므 100
▁열대 100
AST 100
▁Bund 100
6% 100
▁냉 100
▁BF 100
▁quarter 100
▁2,000 100
▁UNI 100
▁나도 100
▁Syria 100
▁결함 100
uka 100
▁목표로 100
ovo 100
▁런던에서 100
분야 100
▁없다고 100
▁newly 100
▁Pics 100
스테이 100
▁acts 100
▁Bear 100
0:36 100
▁swedish 100
▁temporary 100
▁긍휼 100
▁에피소드 100
▁인테리어 100
▁Monument 100
▁푸에르토 100
lift 100
▁빌리지 100
▁가르쳐 100
▁4.5 100
▁latter 100
리이까 100
▁05:15 100
▁moral 100
▁Designed 100
▁Agent 100
▁만날 100
▁거울 100
▁INCA 100
▁캠프 100
wang 100
이있는 100
▁Blanc 100
▁입력하십시오 100
▁Luis 100
eva 100
리타 100
▁devil 100
▁OM 100
▁여유 100
tag 100
▁lights 100
데이터 100
mut 100
▁bug 100
▁1100 100
rang 100
▁networking 100
▁Bob 100
▁VIP 100
▁Yi 100
▁eva 100
▁아니한 100
하더라도 100
stay 100
chang 100
▁dial 100
▁Eye 100
▁번역자 100
▁기부 100
▁originally 100
▁ports 100
gri 100
0:28 100
코어 100
▁법을 100
▁depart 100
연구 100
450 100
▁부탁 100
tori 100
plication 100
▁사용해야 100
ERS 100
▁4.4 100
▁ip 100
▁성분 100
▁Administration 100
▁despite 100
▁Lumpur 100
▁Shield 100
▁Fusion 100
▁Ultimate 100
▁Tit 100
▁Optical 100
▁것들을 100
▁예물 100
▁surgery 100
▁Liberty 100
▁거리입니다 100
▁Restore 100
▁spake 100
▁마음의 100
▁믿음을 100
▁Lor 100
▁글을 100
▁Common 100
worth 100
▁영역을 100
▁가로 100
▁SB 100
▁Got 100
▁organize 100
▁adapter 100
▁신비 100
▁비난 100
BJ 100
lton 100
▁버전은 100
▁하늘의 100
▁coating 100
▁데이트 100
▁06:11 100
▁도어 100
▁institutions 100
▁ni 100
▁오토 100
▁말에 100
7% 100
7:10 100
46- 100
▁manufacture 100
아시아 100
▁Disco 100
▁fur 100
7:16 100
하여야 100
▁해당하는 100
achi 100
▁immediate 100
▁표적 100
▁Genesis 100
▁Yan 100
▁써 100
Pad 100
▁NI 100
▁AU 100
▁Jer 100
▁chose 100
소녀 100
게이 100
▁Pavilion 100
▁Taylor 100
▁트립어드바이저 100
▁plague 100
▁뮤직 100
▁인스턴스 100
▁finance 100
-1521- 100
▁transmission 100
▁리버풀 100
▁stroke 100
▁argue 100
▁아이팟 100
▁gaming 100
▁hyper 100
▁Mathematical 100
▁Division 100
▁Iraq 100
▁Rap 100
▁모임 100
▁방문객 100
▁이행 100
▁지능 100
▁Sunny 100
▁모압 100
▁skill 100
enza 100
bay 100
▁lab 100
sub 100
▁교차 100
▁돌려 100
▁CNC 100
▁fake 100
byte 100
elo 100
간다 100
▁Six 100
▁빛이 100
▁베푸 100
및 100
▁정말로 100
미술관 100
▁Forex 100
170 100
▁지성 100
있게 100
▁소프트웨어가 100
▁Fur 100
▁cumshots 100
PY 100
▁doth 100
▁Mos 100
▁Browse 100
▁ADP 100
▁lion 100
님께 100
▁관리하는 100
▁drill 100
▁Suppliers 100
php 100
▁모두를 100
▁defeat 100
▁수립 100
▁Bird 100
Pre 100
▁Offer 100
ashi 100
▁취할 100
▁authentic 100
enberg 100
▁UA 100
▁Jonathan 100
▁Laguna 100
▁communities 100
▁칵테일 100
▁플로리다 100
▁Index 100
▁oppress 100
▁Vector 100
▁Semicon 100
▁내구성 100
▁crown 100
▁Compact 100
▁rely 100
▁Trend 100
▁즐기며 100
1.0 100
▁직경 100
▁없었습니다 100
▁연인 100
0° 100
mill 100
▁차를 100
▁Ferry 100
커스 100
▁나로 100
lib 100
▁mostly 100
▁07:57 100
▁NSC 100
▁Ny 100
▁23, 100
1:21 100
그램 100
▁Teacher 100
스타킹 100
▁Lago 100
▁각도 100
▁5:00 100
▁지위 100
▁발명 100
..." 100
8% 100
▁strange 100
▁Vas 100
▁06:16 100
▁취하여 100
mile 100
KR 100
berry 100
▁책임자 100
▁15:00 100
▁souls 100
ssel 100
▁trends 100
할지니라 100
WS 100
XF 100
▁이루어 100
▁reject 100
▁kar 100
▁Lead 100
gation 100
지원 100
5:17 100
되게 100
▁포르 100
▁den 100
레이터 100
NP 100
▁therein 100
6:17 100
nica 100
▁Norwegian 100
▁automotive 100
▁introduction 100
▁perspective 100
▁testimony 100
▁렌더링 100
▁스코틀랜드 100
▁tournament 100
:4.0.30319.342 100
▁Scripture 100
▁세미나 100
▁iPhoto 100
▁terminate 100
▁Nihon 100
▁optimization 100
ben 100
Art 100
▁보좌 100
▁permit 100
▁slightly 100
▁\ 100
▁05:11 100
attice 100
▁상업용 100
ELL 100
▁sectors 100
▁권리가 100
▁하나님이여 100
▁poll 100
Nd 100
▁CL 100
▁제품이 100
▁온수 100
▁papers 100
▁gifts 100
▁통합된 100
팩 100
컴 100
▁힘이 100
alle 100
해진 100
▁regularly 100
▁IDE 100
▁owned 100
▁suffered 100
했기 100
▁Rights 100
▁참으로 100
▁미리보기 100
▁한국의 100
trol 100
거야 100
▁명성 100
▁Frank 100
▁일련의 100
sville 100
▁(13 100
▁해결하기 100
bell 100
▁conducted 100
hong 100
▁자동차를 100
pole 100
▁기계적 100
▁positions 100
wich 100
▁보호하는 100
▁absolute 100
▁holder 100
▁Lamb 100
▁relationships 100
▁일관 100
▁뛰어 100
▁Five 100
▁careful 100
▁플랜 100
▁아래에서 100
셜 100
▁Philadelphia 100
▁Salzburg 100
▁confidence 100
▁돕는 100
▁여배우 100
▁노동계급 100
▁자습서 100
▁느껴 100
▁강아지 100
▁BOOK 100
▁익숙 100
▁Quinta 100
▁의해서 100
스텔 100
▁카이 100
▁용이 100
▁떨어지 100
▁메뉴를 100
▁frequently 100
▁clips 100
▁바알 100
▁페루 100
▁청년 100
▁Sanyo 100
▁SMB 100
▁Triple 100
▁가라 100
▁미술 100
203 100
▁카메라를 100
aking 100
척 100
▁번개 100
▁웨 100
▁reporting 100
▁Jing 100
▁TH 100
앤 100
▁(8 100
▁haven 100
▁유량 100
▁말씀에 100
▁던지 100
▁mental 100
▁Tang 100
학과 100
▁mixed 100
▁shell 100
▁필요에 100
▁백성의 100
▁oldest 100
lab 100
▁형식의 100
▁contribute 100
▁exhibit 100
▁arose 100
▁중앙에 100
치고 100
▁발음 100
maker 100
upp 100
HP 100
▁browse 100
2:09 100
▁vice 100
인치 100
imo 100
하라고 100
▁도서 100
uer 100
▁Brussels 100
▁Guatemala 100
▁Transceiver 100
▁harvest 100
▁virgin 100
▁않지만 100
▁proportion 100
▁마무리 100
▁잃어 100
▁슬라이드 100
▁Collins 100
▁connectivity 100
▁Lifesize 100
▁피아노 100
▁reduction 100
▁황금 100
▁포괄적인 100
▁Jiang 100
rgent 100
▁HTC 100
▁공작 100
▁기하학 100
▁Eve 100
▁베이스 100
▁도시를 100
▁16, 100
▁Cool 100
-22 100
432 100
▁Imp 100
▁AVX 100
▁thoughts 100
헌 100
▁매개 100
그룹 100
▁Tir 100
▁사도들 100
▁존재하지 100
sten 100
▁coll 100
▁추가로 100
되면서 100
▁Grove 100
▁아시 100
▁Historical 100
마일 100
▁관계자 100
HV 100
▁치료를 100
esta 100
ige 100
▁hu 100
▁103 100
▁sucks 100
olly 100
-05- 100
eto 100
▁Rating 100
▁마음으로 100
▁좋다 100
▁cart 100
▁Conditions 100
▁riders 100
▁Pine 100
lica 100
돼 100
▁resist 100
balancing 100
▁BeFuck 100
▁Chelsea 100
▁극대화 100
3:00 100
▁prosper 100
▁월요일 100
▁베어링 100
▁Italic 100
▁침례 100
▁열쇠 100
▁regardless 100
▁spray 100
▁산맥 100
▁Sunset 100
▁한정 100
▁Panama 100
zar 100
▁Early 100
2:37 100
▁숨기기 100
▁장사 100
▁Installation 100
▁거민 100
▁requirement 100
▁검사를 100
▁존중 100
▁constantly 100
hard 100
▁서류 100
VAC 100
▁Elite 100
▁장소에 100
▁리드 100
희 100
▁대신하여 100
기능 100
show 100
▁혀 100
performance 100
▁일하는 100
▁보여주기 100
▁captured 100
INT 100
▁Siri 100
▁yes 100
uld 100
▁Rest 100
8:10 100
Vi 100
▁Wei 100
▁손해 100
▁Gau 100
▁것이라는 100
▁리마 100
▁trace 100
▁ya 100
▁먹이 100
▁주석 100
▁하나도 100
uki 100
▁이후로 100
▁Slut 100
▁Zo 100
▁이익을 100
▁reset 100
티스 100
▁interpret 100
▁서부 100
곱 100
8:15 100
▁숙소입니다 100
▁메디 100
INE 100
쉐 100
▁Empflix 100
▁Microcontroller 100
▁senior 100
▁돌이켜 100
▁싶지 100
쁘 100
▁chapter 100
▁규례 100
▁segment 100
▁이르노니 100
▁struck 100
▁Superior 100
▁컨트리 100
오르 100
▁crime 100
▁유닛 100
▁loving 100
▁다릅니다 100
▁arms 100
▁Cozy 100
803 100
▁걸릴 100
▁방귀 100
▁05:17 100
▁Virus 100
▁cookie 100
mbi 100
▁클릭하면 100
gat 100
▁문명 100
겠느냐 100
4:57 100
▁선택하면 100
▁여자가 100
▁Crown 100
▁조심 100
cheng 100
▁assigned 100
▁Sher 100
▁가열 100
▁ruler 100
피아 100
▁1968 100
▁경로를 100
▁108 100
▁파이어 100
▁유니 100
mount 100
▁사용이 100
▁Heat 100
▁KB 100
▁mad 100
▁IQ 100
▁Cher 100
▁Jet 100
▁부가 100
어도 100
8:14 100
▁아니하시 100
lung 100
▁Learning 100
▁곳은 100
▁routes 100
▁spending 100
▁syn 100
USE 100
▁rear 100
▁인도하여 100
mid 100
1:32 100
였고 100
▁chick 100
▁Vac 100
break 100
켓 100
오는 100
▁Was 100
▁Ven 100
DNS 100
로마 100
▁25, 100
▁해도 100
▁Zhu 100
▁선사 100
▁villa 100
▁Panasonic 100
▁Yosemite 100
▁perhaps 100
▁turkish 100
▁도끼자국 100
▁맨해튼 100
▁brief 100
▁diameter 100
▁pursue 100
▁Coral 100
▁PLET 100
▁Remember 100
atta 100
6:22 100
▁planned 100
▁Gift 100
다니 100
▁체육관 100
▁발송 100
▁통증 100
▁Wifi 100
▁disable 100
▁flu 100
이있다 100
▁1984 100
▁왕립 100
▁decades 100
8:12 100
▁성도들 100
OU 100
▁offices 100
▁Events 100
▁adopted 100
▁측 100
enne 100
▁semi 100
▁해군 100
▁06:08 100
▁Playing 100
▁개발을 100
건의 100
힘 100
▁DOC 100
7:17 100
note 100
▁bitch 100
▁explained 100
▁leaves 100
버트 100
▁클레 100
▁동성애 100
ALL 100
▁게임에 100
GU 100
▁우려 100
▁PH 100
2:49 100
▁Guard 100
▁향한 100
▁생명의 100
▁samples 100
▁Jay 100
▁6:00 100
▁그래 100
▁demon 100
▁심각 100
▁게임이다 100
▁qua 100
▁예수께 100
▁Guy 100
▁pumps 100
▁고지 100
▁ft 100
š 100
▁Dynamic 100
▁WNBR 100
▁그렇다면 100
▁bicycle 100
▁wives 100
▁타이틀 100
일까지 100
5:21 100
onne 100
aud 100
해도 100
charge 100
▁branches 100
-02 100
▁Flex 100
Sa 100
▁쉴 100
▁THB 100
▁urge 100
ffer 100
▁Session 100
▁concerned 100
lp 100
▁Multiple 100
▁formal 100
▁완료되면 100
▁demonstrate 100
▁천장 100
rating 100
▁lest 100
▁PP 100
5:11 100
▁생각해 100
World 100
▁소모 100
▁고통을 100
▁enhanced 100
▁Corner 100
San 100
▁Zone 100
▁Environment 100
하리로다 100
▁lessons 100
054 100
▁pleased 100
▁먹다 100
▁구비 100
▁주시 100
▁스토리 100
config 100
210 100
▁belt 100
▁generations 100
▁risks 100
▁photograph 100
보십시오 100
▁holds 100
ICE 100
물이 100
▁Artist 100
▁golden 100
이었던 100
KI 100
▁Mis 100
졌고 100
NOPB 100
č 100
▁Prospekt 100
▁Saturday 100
▁fought 100
▁reputation 100
▁troops 100
▁할로윈 100
▁pillar 100
▁정류장 100
▁무제한 100
▁Requirements 100
▁KM 100
▁가용성 100
▁shock 100
▁dangerous 100
▁Gene 100
▁730 100
▁Met 100
▁혼란 100
▁실외 100
▁연령 100
▁프로브 100
▁도박 100
▁예정입니다 100
▁공포 100
6:13 100
gni 100
?” 100
▁Horse 100
jack 100
TY 100
▁카르 100
▁Raj 100
ometer 100
눈 100
▁PCI 100
빨 100
하시며 100
▁준다 100
bility 100
▁분이 100
▁장치가 100
▁의인 100
kay 100
▁abuse 100
▁전반 100
▁스피 100
ifier 100
bah 100
▁ascend 100
7:15 100
▁maintained 100
▁두루 100
▁고객과 100
▁GO 100
active 100
lik 100
▁Talk 100
▁가속화 100
ulu 100
▁독점 100
plus 100
▁방지하기 100
▁maker 100
0:26 100
9% 100
▁Championship 100
▁Duomo 100
▁Mexican 100
▁sanctuary 100
▁territory 100
▁끊어 100
▁즐거워 100
▁Answer 100
▁일어날 100
▁Leather 100
▁역량 100
▁Reservation 100
▁doggystyle 100
느뇨 100
▁attain 100
▁교훈 100
▁expir 100
▁commission 100
▁slain 100
▁증언 100
▁virtualization 100
▁포르노스타 100
▁소득 100
▁은퇴 100
▁Siam 100
▁administrator 100
▁만료 100
▁교토 100
▁passion 100
▁sec 100
▁도움이됩니다 100
이었고 100
081 100
▁근원 100
▁프로그램입니다 100
erie 100
▁★ 100
▁fulfilled 100
▁노동자들 100
꾸 100
ucci 100
▁1150 100
▁adjustment 100
▁Jen 100
build 100
활동 100
rab 100
들에서 100
raw 100
▁이십 100
이므로 100
-07 100
MHz 100
디스 100
▁오리 100
▁06:57 100
▁전략을 100
하나니 100
푸르 100
▁HR 100
년대에 100
▁나아 100
혁명 100
EK 100
▁Pun 100
▁Pick 100
▁dive 100
9:27 100
▁gun 100
▁Pia 100
▁소니 100
cate 100
▁pal 100
▁throw 100
▁제사장들 100
▁날개 100
▁쇠 100
7:12 100
▁Dhabi 100
▁Embassy 100
▁Luxembourg 100
▁NetScaler 100
▁indicator 100
▁월드컵 100
▁disclose 100
▁Assyria 100
▁aside 100
▁Cairo 100
▁renew 100
▁Omron 100
▁Minute 100
▁흠 100
▁Jump 100
▁Label 100
▁소송 100
▁Delivery 100
▁제이 100
▁해킹 100
▁infected 100
▁이스라엘이 100
▁salt 100
테이션 100
▁황제 100
▁invited 100
▁처럼 100
6:16 100
biz 100
▁1985 100
▁속성을 100
▁차별 100
gmail 100
▁IO 100
train 100
oso 100
▁팔라 100
▁사실은 100
▁만들었다 100
▁파일로 100
동영상 100
▁participants 100
related 100
▁couples 100
▁경쟁력 100
umi 100
▁이동하는 100
▁modeling 100
USD 100
semi 100
▁Pope 100
JPY 100
▁다윗에게 100
▁render 100
cad 100
▁gene 100
-70 100
0.3 100
▁미래를 100
hot 100
▁Gall 100
로써 100
▁아리 100
▁주립 100
▁Listing 100
-21 100
퀴 100
▁Cle 100
▁피드 100
20604 100
▁Lincoln 100
▁SPECIFICATIONS 100
▁Santiago 100
▁cooperation 100
▁expense 100
▁가까우며 100
▁뉴저지 100
▁쉽습니다 100
▁편방미터 100
▁튜터 100
-1320- 100
▁cyber 100
▁mourn 100
▁giant 100
▁racing 100
▁숙녀 100
▁일본레즈비언 100
▁exc 100
▁이들이 100
▁롯 100
▁케이크 100
▁Whatever 100
▁fold 100
박스 100
▁Hear 100
UA 100
▁추상 100
▁justice 100
▁Coco 100
▁relation 100
▁아람 100
▁Cabin 100
▁년간 100
▁복용 100
▁machinery 100
3:9 100
TL 100
▁05:57 100
▁기온은 100
▁Notes 100
MY 100
▁이란 100
역에서 100
▁correctly 100
▁일러 100
< 100
▁사용하도록 100
▁550 100
▁도우 100
▁observed 100
▁적게 100
eno 100
▁行 100
▁proven 100
lina 100
▁어디서 100
▁있는다 100
5.0 100
▁생성합니다 100
ador 100
▁105 100
▁achievement 100
2:38 100
코드 100
▁Hello 100
▁수확 100
▁Pha 100
▁lists 100
otto 100
픈 100
game 100
▁순수 100
write 100
▁Atlantic 100
▁calculation 100
▁fifth 100
▁지중해 100
▁텔아비브 100
봤 100
▁routing 100
▁ETAS 100
▁tiny 100
▁그녀를 100
▁minimal 100
▁Cost 100
5:22 100
▁재능 100
▁partitions 100
▁타인에게 100
▁저널 100
▁Flight 100
▁Section 100
▁정규 100
▁Export 100
▁거친 100
▁화재 100
El 100
▁mere 100
▁쓰는 100
▁일광욕 100
▁동생 100
▁Materials 100
▁정기 100
▁Additionally 100
▁야구 100
CAD 100
한지라 100
▁번째로 100
▁nail 100
상품 100
▁잠재적 100
▁engineer 100
▁travelling 100
▁페이지가 100
▁상기 100
▁Shoes 100
▁formation 100
▁이민자 100
▁덕 100
▁Ant 100
1:02 100
▁페어 100
▁treated 100
▁Fall 100
▁bless 100
▁Button 100
ema 100
QC 100
umber 100
▁Gare 100
▁stages 100
▁누군가 100
▁6.0 100
8:16 100
alia 100
▁asking 100
tian 100
▁멘 100
▁ban 100
▁Item 100
주기 100
▁Que 100
드립니다 100
▁Colon 100
▁Fil 100
▁matters 100
▁신고 100
1963 100
▁옵션은 100
cott 100
▁meant 100
▁perfectly 100
jiang 100
▁펼쳐 100
▁Female 100
▁acknowledge 100
▁headquarters 100
▁improving 100
▁satisfy 100
▁shield 100
▁understood 100
▁붕괴 100
RONICS 100
▁urban 100
▁Basketball 100
▁헬멧 100
▁Lounge 100
▁Madison 100
▁sharp 100
▁Translation 100
▁Normal 100
▁찢 100
▁Voltage 100
▁Polymer 100
▁Fin 100
▁Virginia 100
▁loose 100
▁loud 100
▁익 100
▁Automation 100
▁너가 100
▁태도 100
Now 100
roll 100
▁전반적인 100
▁못하리라 100
▁모아 100
▁다양성 100
-05 100
▁유압 100
▁116 100
▁Kata 100
SFC 100
일반 100
▁공식적으로 100
▁creature 100
▁surfaces 100
rma 100
tea 100
▁fallen 100
▁악마 100
▁Terra 100
▁유전자 100
▁여러분에게 100
▁네트워크에 100
▁Regis 100
▁commandment 100
▁없으면 100
▁튀 100
▁원시 100
▁재즈 100
hun 100
▁ut 100
▁00:5 100
uv 100
▁프로그램에서 100
GT 100
system 100
4:20 100
▁대학원 100
▁expanded 100
▁Wave 100
▁이상을 100
▁아나 100
dium 100
▁반사 100
▁질문을 100
▁totally 100
▁변환기 100
타임 100
▁조화 100
▁유럽의 100
시대 100
ITY 100
▁TRI 100
▁부다페스트에서 100
▁winning 100
▁Collect 100
▁속죄 100
▁십자가에 100
8:17 100
▁projector 100
▁Cams 100
▁bones 100
▁중에는 100
œ 100
▁Accessories 100
▁Communist 100
▁External 100
▁SolidWorks 100
▁Treatment 100
▁immigration 100
▁seduction 100
▁캘린더 100
▁통찰력 100
▁ceiling 100
▁width 100
▁cease 100
▁← 100
132 100
▁Import 100
▁copies 100
▁크라운 100
▁wound 100
▁Cinema 100
▁framework 100
shirt 100
▁pride 100
▁sugar 100
▁영접 100
▁철저 100
▁Joab 100
▁관계없이 100
▁Snap 100
▁제공업체 100
add 100
▁Pil 100
rav 100
8:23 100
▁열리는 100
▁102 100
▁것인지 100
▁Ward 100
▁기지 100
▁불편 100
하였는데 100
까지도 100
▁1969 100
▁recovering 100
▁crystal 100
▁기재 100
6.4 100
axis 100
▁선택하세요 100
▁원인이 100
▁원형 100
▁거리를 100
▁efficiently 100
3:24 100
▁배우고 100
▁페이지로 100
▁상황이 100
▁홀로 100
▁Original 100
노니 100
▁묵 100
▁성장을 100
▁closely 100
들로부터 100
▁Isaiah 100
▁마감 100
하소서 100
▁NB 100
▁blo 100
▁Af 100
▁cook 100
사진 100
▁NEW 100
3:25 100
connect 100
▁differences 100
▁Newton 100
alized 100
▁Counter 100
▁Fantasy 100
▁Pharisees 100
▁Renesas 100
▁Ukrainian 100
▁boutique 100
▁strategies 100
▁스테인레스 100
▁dinner 100
▁Animal 100
▁Sorry 100
▁Leonardo 100
▁목숨 100
/09/ 100
▁honey 100
▁Chapter 100
▁́ 100
▁gates 100
▁stopped 100
▁Invest 100
▁simultaneously 100
▁생애 100
▁여왕 100
▁organic 100
▁electricity 100
▁Draw 100
▁할까요 100
▁compressed 100
▁필수적인 100
▁책임이 100
▁Oscillator 100
▁시험을 100
▁lit 100
▁자랑하는 100
▁요리를 100
기기 100
▁Bride 100
▁예수님 100
▁smoke 100
▁선형 100
path 100
▁Haz 100
▁해방 100
2:05 100
▁Syrian 100
▁산에 100
▁Fuse 100
shot 100
0:33 100
프랑스 100
arra 100
▁버전으로 100
▁GSI 100
5:5 100
▁03:01 100
▁학회 100
▁콘도 100
▁마법 100
▁weigh 100
▁문제의 100
▁결과가 100
HR 100
▁탐지 100
CZ 100
▁7.1 100
0:16 100
-08 100
ower 100
▁중심으로 100
▁여가 100
▁Leave 100
▁광대 100
▁Load 100
▁delivering 100
8:00 100
▁란 100
▁카드의 100
▁Rub 100
▁아니하면 100
omy 100
▁엑스 100
▁이용이 100
▁Listings 100
▁선지자들 100
▁로비 100
▁기법 100
졸 100
▁Condensed 100
▁Manasseh 100
▁Stainless 100
▁producing 100
▁발코니 100
▁키예프 100
▁nudity 100
▁crisis 100
▁토요일 100
一 100
▁부사장 100
▁협상 100
▁emerge 100
▁크리스탈 100
▁subscribe 100
▁authorities 100
▁바쁜 100
▁zero 100
▁Michel 100
face 100
▁관할 100
▁Lenin 100
▁Medium 100
▁masturbate 100
▁이사야 100
▁부패 100
▁창립 100
▁accidentally 100
▁sail 100
1:50 100
PWRG 100
▁stack 100
tine 100
▁외관 100
▁자로 100
▁기울 100
▁동기 100
▁수양 100
▁등등 100
▁vendor 100
kawa 100
▁Walt 100
There 100
▁Phil 100
▁쳐 100
▁IWC 100
NH 100
▁얻었 100
▁Verde 100
▁Hold 100
logger 100
▁흰 100
▁업체는 100
text 100
▁갓 100
▁Bull 100
▁싼 100
▁Brun 100
랩 100
Linux 100
known 100
mouth 100
agan 100
▁드리는 100
▁MY 100
▁scientists 100
▁열려 100
▁Mou 100
▁가격에 100
정도 100
▁saints 100
▁노래를 100
▁Turin 100
▁노력하고 100
▁cooling 100
▁강력 100
▁먹지 100
프라 100
프레 100
▁Solo 100
▁4.3 100
▁Grad 100
▁상자에 100
RR 100
▁中 100
주세요 100
▁하나에 100
▁믿음으로 100
뚱 100
▁크라쿠프 100
▁Galilee 100
▁Message 100
▁compatibility 100
▁federal 100
▁surveillance 100
▁많아 100
▁05:13 100
▁브레이크 100
▁Britain 100
▁MTB 100
▁Seiko 100
1:1 100
▁protest 100
▁동굴 100
2.3 100
007 100
▁파도 100
▁replacement 100
▁islands 100
▁interpretation 100
▁아버지께서 100
1:09 100
▁신성한 100
iu 100
▁방에 100
▁온천 100
▁북미 100
▁선두 100
▁1972 100
▁심사 100
▁transformation 100
▁119 100
▁행하여 100
▁설치하십시오 100
▁Europa 100
job 100
▁차이점 100
▁RGB 100
▁producer 100
▁가르침 100
▁학생들이 100
▁magnetic 100
TW 100
▁confirmed 100
▁경기를 100
▁Gun 100
▁KO 100
▁passengers 100
▁공주 100
▁3:2 100
은행 100
▁피렌체의 100
rig 100
▁기사를 100
▁strongly 100
▁skip 100
5:15 100
▁시작한 100
kou 100
4:23 100
▁Alto 100
naya 100
▁가동 100
▁이곳에서 100
▁생각하고 100
Net 100
▁Pont 100
▁flee 100
▁전문가들 100
▁Male 100
▁미드 100
▁Aquarium 100
▁emergency 100
▁fantastic 100
▁intuitive 100
▁revenue 100
▁sophisticated 100
▁에브라임 100
마태복음 100
맘 100
▁Latvia 100
▁supplied 100
▁gagging 100
▁cattle 100
▁Smoke 100
▁defect 100
▁다이얼 100
▁충만 100
▁remind 100
▁살아남 100
▁driven 100
▁트렌드 100
▁합류 100
▁Ranch 100
▁제공된 100
▁analdin 100
▁부품을 100
▁매출 100
▁개념을 100
▁complexity 100
▁라는 100
▁알람 100
ONE 100
방향 100
-800 100
▁Rei 100
▁texture 100
▁hero 100
▁weekend 100
▁빙하 100
2:40 100
▁Shore 100
▁확인하세요 100
iden 100
▁shame 100
▁scanner 100
▁attitude 100
▁Cache 100
dry 100
▁parent 100
▁Shim 100
▁버리고 100
▁describe 100
▁잭 100
르노 100
▁normally 100
▁improvement 100
~1 100
▁regime 100
로서의 100
▁질문이 100
▁방을 100
▁개방 100
▁그럼 100
only 100
7:18 100
lop 100
▁Dock 100
▁burned 100
2:36 100
6:1 100
함이니라 100
▁bone 100
▁가져오기 100
▁Dist 100
406 100
When 100
Sp 100
캐스트 100
▁팀이 100
▁accomplish 100
웠다 100
wide 100
▁누리 100
▁exception 100
▁모두에게 100
cious 100
아내 100
▁refuse 100
▁diseases 100
▁castle 100
겠고 100
▁유치 100
▁respective 100
▁Coll 100
▁AccorHotels 100
▁Century 100
▁Defense 100
▁JPEG 100
▁ceramic 100
▁criteria 100
▁stylish 100
▁머무르 100
▁멈추 100
▁엎드러 100
▁자물쇠 100
0803606 100
▁Cosplay 100
▁Clark 100
▁polish 100
ogen 100
▁Vision 100
▁Museo 100
▁Temp 100
▁유익 100
▁정착 100
▁Bush 100
▁있거나 100
▁전시회 100
▁layers 100
▁FR 100
▁sounds 100
▁포스트 100
color 100
▁pig 100
▁Title 100
▁설치를 100
▁RFID 100
▁operators 100
▁verify 100
▁적용되는 100
음이라 100
1:45 100
▁wherever 100
▁Kas 100
▁입구 100
▁못했습니다 100
▁기기를 100
118 100
GBP 100
▁NC 100
▁제한된 100
031 100
아웃 100
group 100
더러 100
▁8:00 100
▁represented 100
4:27 100
5:30 100
▁meter 100
▁신호를 100
▁Path 100
▁gained 100
itter 100
rene 100
ether 100
▁tan 100
닌 100
▁Hiros 100
erson 100
▁Parc 100
▁YOU 100
9:18 100
3% 100
▁traveling 100
▁covering 100
▁Working 100
▁Parliament 100
▁candidate 100
▁discrete 100
▁illegal 100
▁parallel 100
▁stunning 100
▁므낫세 100
▁확률 100
▁Palazzo 100
▁자쿠지 100
▁12:17 100
▁steam 100
▁Pizza 100
▁featured 100
stead 100
▁compar 100
▁Tourism 100
▁SDHC 100
▁DIY 100
▁minimize 100
070 100
▁방출 100
▁subway 100
▁Tourist 100
티아 100
vari 100
Integr 100
▁아니할 100
2:7 100
bun 100
▁끌 100
ADL 100
▁이점을 100
▁Icon 100
2:10 100
▁Styles 100
▁Rat 100
▁younger 100
▁선수들 100
▁하이퍼 100
▁10:05 100
▁Allen 100
▁Leg 100
▁수량 100
Car 100
fest 100
▁implemented 100
Studio 100
Delete 100
▁마법사 100
▁과정은 100
함은 100
▁시각적 100
▁각자 100
▁Hack 100
▁모으 100
▁때문이 100
▁서면 100
났다 100
▁클릭한 100
▁slide 100
UV 100
▁Lanka 100
nex 100
▁큐 100
▁사항이 100
odge 100
▁Inside 100
▁vol 100
▁훌륭 100
으려 100
▁말하여 100
ivo 100
▁invite 100
▁Sud 100
▁속도가 100
620 100
XP 100
▁걸리는 100
▁Graphics 100
▁중심지 100
▁pee 100
똑 100
▁Mediterranean 100
▁gallery 100
▁obligation 100
▁보괄실 100
▁어드벤처 100
▁치앙마이 100
▁클러스터 100
▁Transcend 100
▁throat 100
▁방사선 100
神 100
▁chariot 100
▁무엇인지 100
▁순환 100
▁losing 100
▁Webcam 100
▁Resid 100
▁combine 100
1:33 100
▁NAND 100
▁Money 100
▁노드 100
주년 100
▁시위 100
▁Truck 100
▁Clare 100
▁Cornell 100
▁고향 100
▁감동 100
▁choices 100
▁재질 100
▁사실이 100
▁영혼을 100
▁밥 100
▁buying 100
▁장로들 100
▁않아도 100
▁ERP 100
▁시료 100
▁바디 100
국가 100
▁NEC 100
▁ships 100
▁granted 100
▁outer 100
▁시리즈는 100
납 100
▁이벤트를 100
fill 100
-47 100
▁므 100
Road 100
▁Say 100
▁볼륨을 100
▁fu 100
kka 100
imi 100
▁구입할 100
▁추가하기 100
▁귀를 100
▁.[ 100
EW 100
▁algorithms 100
888 100
▁resolve 100
▁locate 100
▁improvements 100
▁주었다 100
▁Plain 100
되지만 100
▁tip 100
7:00 100
Play 100
▁danger 100
▁fails 100
ā 100
▁Certificate 100
▁Platinum 100
▁disappear 100
▁trumpet 100
▁식민지 100
▁아티스트 100
▁알레르기 100
▁좇아 100
▁태어난 100
▁습관 100
▁Miss 100
▁seminar 100
▁imaging 100
▁narrow 100
▁환승 100
▁거짓말 100
▁Naked 100
ingham 100
▁Prize 100
▁맛있는 100
▁boys 100
▁견고 100
tersil 100
lice 100
▁Ghost 100
▁요구하는 100
▁뭐 100
▁솔루션입니다 100
▁Retro 100
drew 100
▁버려 100
▁refine 100
▁Carl 100
▁Comm 100
기간 100
▁wage 100
▁FTP 100
▁campus 100
▁listing 100
▁치고 100
려니와 100
▁작전 100
▁clubs 100
▁7.0 100
▁mA 100
▁bird 100
▁두번째 100
▁설명을 100
▁깨끗한 100
ré 100
▁Partners 100
LAS 100
▁소프트웨어와 100
3.0 100
541 100
▁tells 100
▁hid 100
▁dryer 100
▁20:5 100
▁크라 100
농 100
세대 100
▁Covers 100
▁모드에서 100
▁04:55 100
Sec 100
▁flying 100
▁tag 100
▁Est 100
9:14 100
▁통일 100
라노 100
▁Iran 100
▁얻어 100
▁허리 100
키아 100
RST 100
▁filters 100
▁거래를 100
▁Option 100
▁acquire 100
tour 100
었으나 100
▁사용한다 100
▁부분은 100
▁mono 100
SAS 100
▁사명 100
zip 100
hara 100
claim 100
0:38 100
▁작동하는 100
▁engines 100
엽 100
▁Infrastructure 100
▁Innovation 100
▁Professor 100
▁Shinjuku 100
▁continent 100
▁embedded 100
▁malicious 100
▁satisfaction 100
▁싶었 100
▁대단히 100
▁Factory 100
-1520- 100
▁Generator 100
▁12:27 100
▁헨리 100
ASE 100
▁android 100
▁burden 100
▁Database 100
▁개인적인 100
▁Ok 100
▁유지하고 100
▁회색 100
▁모스크 100
▁다운로드할 100
▁Riad 100
▁identified 100
▁05:14 100
▁처음부터 100
ista 100
mple 100
▁suddenly 100
▁들어갈 100
▁나귀 100
▁그날 100
세기에 100
▁viruses 100
브리 100
▁샤워실 100
▁linen 100
▁Wacom 100
▁도중 100
▁algorithm 100
án 100
▁누구나 100
870 100
▁Lau 100
▁시작하고 100
▁rejected 100
▁discovery 100
하다는 100
▁애드 100
▁Buck 100
▁임상 100
▁Kiss 100
▁specialist 100
▁lips 100
▁Olympics 100
▁소리가 100
world 100
▁성과를 100
▁생활을 100
▁사모 100
yon 100
▁한국인 100
0:45 100
몬트 100
DU 100
▁1941 100
▁collector 100
anga 100
▁speeds 100
3:29 100
gui 100
협회 100
▁tomb 100
cable 100
이라도 100
▁얻지 100
▁억 100
▁describes 100
▁위험한 100
▁Whit 100
▁Git 100
▁Die 100
▁Deco 100
▁하느님의 100
▁CV 100
▁산화 100
wen 100
▁깨어 100
▁Taka 100
▁Halloween 100
▁Nevertheless 100
▁criminal 100
▁가깝습니다 100
킴 100
▁영역에서 100
▁Album 100
▁Quarter 100
▁Rochester 100
▁타이베이 100
▁TEMI 100
▁knee 100
▁Denmark 100
▁guidelines 100
▁brake 100
▁Homemade 100
▁확인해보세요 100
▁sinned 100
▁음반 100
▁marks 100
▁10,000 100
▁몫 100
▁긍정적인 100
▁아크 100
▁요청하신 100
▁게재 100
▁난방 100
▁수도원 100
▁문서는 100
▁정복 100
▁일어나는 100
igo 100
▁licenses 100
5:27 100
▁드라이브가 100
▁Regional 100
▁refused 100
▁Portable 100
▁저장합니다 100
▁attribute 100
axial 100
▁부산 100
-13-155- 100
▁오늘의 100
▁기기에 100
▁이전의 100
▁예제 100
▁움직이 100
▁제공하지 100
▁띠 100
▁Casting 100
▁probe 100
▁4:2 100
▁Corfu 100
4:25 100
006 100
▁추천할 100
▁작동합니다 100
▁지우 100
LINE 100
▁temperatures 100
iri 100
▁Vice 100
▁GE 100
▁해서 100
▁Controls 100
230 100
동물 100
▁wearing 100
▁것이나 100
▁planets 100
▁accommodate 100
▁bore 100
wear 100
▁sections 100
▁associate 100
▁하시며 100
▁Oscillators 100
▁기술에 100
▁ordered 100
▁Beau 100
▁ABC 100
▁Virgin 100
▁품질과 100
▁Continue 100
▁Niagara 100
▁incredible 100
▁primarily 100
▁supplement 100
▁supplies 100
▁tissue 100
▁universities 100
▁튜토리얼 100
퓨 100
▁housing 100
▁피트니스 100
▁이라크 100
오니 100
▁돼지 100
▁빨간색 100
▁추측 100
▁Azure 100
8:36 100
▁sustainable 100
▁Rolex 100
▁지닌 100
▁환난 100
▁Jazz 100
▁Break 100
▁lifestyle 100
하였나이다 100
▁인접해 100
aire 100
▁입술 100
▁1,0 100
0:09 100
▁hy 100
▁안락 100
▁fastest 100
fall 100
▁수송 100
▁죄의 100
▁분포 100
ggio 100
▁Copy 100
▁실행하는 100
▁기능으로 100
▁melt 100
▁그레이트 100
▁whenever 100
▁Wy 100
1% 100
▁Romantic 100
▁jpg 100
▁요법 100
▁07:02 100
▁의미를 100
PU 100
▁개정 100
▁선택권 100
stick 100
▁BI 100
라운드 100
Games 100
-100 100
라이드 100
▁국가에 100
그리고 100
5:31 100
▁필요할 100
▁보자 100
▁땅으로 100
far 100
▁나라에서 100
lish 100
렉스 100
▁이혼 100
▁거하는 100
design 100
channel 100
▁passing 100
center 100
사오니 100
▁films 100
▁engage 100
▁von 100
timate 100
▁코일 100
▁경향이 100
▁preserve 100
▁DJ 100
595 100
tention 100
zan 100
▁내부에 100
901 100
▁Atlanta 100
▁Federation 100
▁Helsinki 100
▁Littelfuse 100
▁Penthouse 100
▁Strategy 100
▁absorb 100
▁부쿠레슈티 100
▁아침식사 100
▁앗수르 100
▁액티비티 100
▁Wheel 100
▁판매가격 100
▁논쟁 100
▁restrictions 100
▁Canyon 100
▁Future 100
▁사냥 100
▁차세대 100
▁패배 100
▁appointment 100
▁하였더라 100
▁관람 100
▁Debian 100
▁백색 100
▁톤 100
▁brush 100
▁Roger 100
▁초래 100
▁적립 100
▁Spin 100
▁자치 100
▁selecting 100
IDE 100
▁꿀 100
▁por 100
rina 100
▁타기 100
anza 100
▁사탄 100
▁Legal 100
▁기다리고 100
▁상을 100
Mark 100
9:20 100
▁처리된 100
9:30 100
▁친절한 100
7.5 100
▁Enable 100
▁Lime 100
▁베타 100
264 100
▁맞이 100
▁포함한다 100
▁leak 100
▁작동하지 100
▁기준을 100
▁경우에만 100
▁루이 100
▁realized 100
▁Cove 100
▁Geo 100
▁일체 100
▁초점 100
▁drinking 100
3:27 100
▁Porta 100
▁2:3 100
▁제공자 100
해서는 100
122 100
▁banks 100
▁복원하는 100
▁과학자 100
▁히브리 100
▁Por 100
▁selling 100
게이트 100
혁 100
▁Jew 100
▁즐기는 100
▁시기에 100
▁쇼핑몰 100
▁Hau 100
ional 100
aja 100
▁볼트 100
▁유연성 100
리온 100
lux 100
▁하나이다 100
2:15 100
▁Updated 100
ñ 100
witcasting 100
▁aluminum 100
▁examination 100
▁많습니다 100
▁스캐닝 100
▁유란시아 100
▁afternoon 100
▁generator 100
▁멀티미디어 100
▁프라이 100
▁multilingual 100
▁residence 100
▁prize 100
▁이외의 100
DY 100
▁hurt 100
▁Nuvid 100
▁브라운 100
▁공헌 100
▁빛나는 100
▁것인가 100
▁holes 100
1:03 100
mbre 100
▁duty 100
▁Alma 100
바라 100
▁1983 100
▁영생 100
3.1 100
9:21 100
▁09:59 100
▁Lido 100
384 100
▁개발에 100
▁partial 100
▁sinners 100
▁머리에 100
▁만약에 100
장으로 100
▁Polar 100
▁고품질의 100
타르 100
▁해당되는 100
▁낫 100
▁Cab 100
▁로그인하여 100
3.5 100
0:10 100
9:12 100
▁SAN 100
하셨다 100
▁guaranteed 100
▁엘리사 100
System 100
홍 100
DVD 100
control 100
weight 100
▁Demo 100
▁것들이 100
▁Jones 100
▁기업들 100
Old 100
▁CSS 100
▁Swa 100
▁NASA 100
dition 100
741 100
gress 100
▁advise 100
▁클로 100
2008 100
▁유기 100
▁패치 100
▁10:12 100
▁톱 100
섭 100
흡 100
6:31 100
▁저장하는 100
팟 100
▁Calendar 100
넌 100
▁CORPORATION 100
▁TOEFL 100
▁crucial 100
▁몬트리올 100
▁열심히 100
▁Heavy 100
▁awesome 100
長 100
▁tranny 100
▁맞춰 100
data 100
▁Flexible 100
▁discharge 100
▁파라미터 100
▁blade 100
▁알아보세요 100
▁반도체 100
▁Estonia 100
▁Domain 100
▁보내고 100
▁UFC 100
▁빠져 100
version 100
▁정상적인 100
versa 100
▁Knight 100
▁tough 100
▁오기 100
글리 100
▁Flights 100
AUD 100
1:49 100
ility 100
▁명시된 100
▁끝까지 100
1:35 100
메일 100
holder 100
▁configured 100
▁Vin 100
▁SR 100
step 100
▁slowly 100
CV 100
7:25 100
▁broke 100
▁형사 100
▁표시되는 100
▁optimized 100
대회 100
▁reserved 100
▁비판 100
▁화면을 100
▁분석기 100
▁worthy 100
▁자들은 100
▁artist 100
스틱 100
doc 100
하나이다 100
▁Hip 100
540 100
▁loan 100
▁Mono 100
£ 100
function 100
▁insights 100
▁관리하고 100
▁securely 100
▁Alex 100
▁Carlos 100
▁고안 100
force 100
▁가능하며 100
▁112 100
▁조성 100
ime 100
-1250 100
6:21 100
MAN 100
▁행위를 100
2:06 100
▁듣 100
▁western 100
▁본부 100
▁officers 100
ffi 100
▁에코 100
▁Nr 100
▁Chris 100
▁Eric 100
▁알라 100
륨 100
ör 100
1.4 100
▁Brightcove 100
▁Brisbane 100
▁NVIDIA 100
▁XXXKinky 100
▁강우량 100
▁상세내용 100
▁키워드 100
▁oxygen 100
▁blank 100
▁convey 100
▁vertical 100
▁bundle 100
▁alliance 100
▁neighborhood 100
▁laboratory 100
▁expectations 100
▁Partition 100
▁섹스캠 100
▁무엇보다 100
▁Sharing 100
▁Fill 100
▁Escape 100
▁overlook 100
▁Terme 100
▁priority 100
▁재배 100
▁spare 100
▁끊임없이 100
사업 100
했으나 100
▁테러 100
▁보게 100
▁있으나 100
▁용품 100
▁Sister 100
▁discussed 100
▁tub 100
▁점프 100
▁Without 100
▁공사 100
▁내용이 100
▁Maid 100
▁1986 100
▁예보 100
▁재활용 100
▁speakers 100
▁1250 100
네요 100
▁Ponte 100
▁5000 100
▁tv 100
uzz 100
▁고온 100
▁화상 100
▁사용하려면 100
▁피어 100
▁논 100
▁10:11 100
9:15 100
▁burning 100
EZ 100
플리 100
▁MSN 100
▁6:1 100
객실 100
▁stops 100
▁9.6 100
하더라 100
▁nets 100
▁달력 100
▁1300 100
-23 100
052 100
▁villages 100
▁Connector 100
▁attempts 100
닷 100
▁Distribution 100
▁Profoto 100
▁doctrine 100
▁라트비아 100
▁상호작용 100
▁Bbw 100
▁포토샵 100
▁Oasis 100
▁brown 100
conscious 100
▁사용된 100
▁감옥 100
▁사무엘 100
▁침투 100
Bedroom 100
▁Trash 100
▁편리하게 100
1:07 100
▁채워 100
▁prime 100
▁05:12 100
▁bold 100
2:54 100
oku 100
▁Reform 100
▁Mul 100
▁taxes 100
▁estimated 100
하였더니 100
▁Payment 100
▁acquired 100
공공 100
SZ 100
▁Scar 100
▁일어나서 100
▁Oct 100
6:28 100
5:10 100
▁살인 100
▁proved 100
란드 100
chel 100
▁부분이 100
fish 100
▁Window 100
▁정직 100
▁05:55 100
보지 100
▁걸리 100
▁상태에 100
470 100
▁contributions 100
▁5% 100
▁Fund 100
▁charges 100
▁악기 100
▁살리 100
▁하였습니다 100
.7) 100
▁표준시 100
Check 100
▁완화 100
▁Prim 100
0:30 100
6:24 100
다시 100
▁여러분들 100
▁미소 100
▁Phra 100
▁밖 100
conf 100
▁말씀하신 100
▁explains 100
▁Officer 100
▁상태가 100
하였으므로 100
▁123 100
▁관심사 100
▁킹스 100
칙 100
옹 100
integrat 100
▁싶으 100
letronics 100
▁Instagram 100
▁Morocco 100
▁Together 100
▁Wednesday 100
▁dwelt 100
▁impressive 100
▁룩셈부르크 100
▁밝혔다 100
놈 100
빔 100
▁부적절 100
▁spoil 100
▁Construction 100
▁shaft 100
▁발휘 100
▁포켓 100
034 100
▁유체 100
▁포로 100
▁유럽에서 100
▁요금을 100
▁1974 100
▁restart 100
hil 100
▁powered 100
▁cord 100
▁Workers 100
▁과정에 100
▁1981 100
▁officer 100
▁조종 100
▁곡선 100
9:16 100
▁워치 100
azione 100
▁회사에 100
▁사제 100
▁representation 100
2:33 100
▁brass 100
▁Protected 100
▁저장하기 100
▁시작했습니다 100
▁아들은 100
▁0:10 100
▁그리스어 100
▁corresponding 100
▁american 100
nak 100
몸 100
defined 100
▁면제 100
공항 100
▁Hart 100
▁이상한 100
▁자들에게 100
▁mmf 100
스트라 100
▁색상을 100
▁무한 100
▁Gang 100
change 100
7:20 100
▁웰 100
팡 100
▁개발하고 100
되었지만 100
▁royal 100
AID 100
▁Episode 100
▁bandwidth 100
▁bought 100
▁concrete 100
▁integral 100
▁믿었 100
▁스펙트럼 100
▁알부페이라 100
▁에이전트 100
▁옮기 100
▁최후 100
▁캐주얼 100
▁갱신 100
하옵소서 100
▁nudist 100
▁스티커 100
▁YAMA 100
▁메서드 100
▁하노이 100
▁썼다 100
▁Always 100
▁dispute 100
▁TRUMPF 100
▁최저가격 100
BZ 100
▁flour 100
▁Zhong 100
▁포털 100
▁차단기 100
▁playback 100
▁Child 100
▁라마 100
▁workshop 100
▁coverage 100
▁difficulties 100
7:24 100
▁Person 100
▁기업을 100
할지어다 100
▁shine 100
▁Saudi 100
▁Layer 100
▁좀비 100
포르 100
750 100
▁exposed 100
▁보관함 100
▁1973 100
▁쿠바 100
▁피할 100
▁회사를 100
▁permanently 100
▁Engineer 100
▁strap 100
주의자 100
251 100
▁Seasons 100
▁Ramada 100
TTL 100
▁watches 100
▁sad 100
▁코스트 100
▁Lovely 100
live 100
짜 100
▁Following 100
▁Hair 100
hm 100
플레이 100
▁wallpapers 100
▁Works 100
▁towns 100
▁meetings 100
으라 100
▁intent 100
들아 100
8:26 100
친구 100
video 100
▁450 100
▁SY 100
▁말은 100
▁Phu 100
Book 100
▁developer 100
4:8 100
(19 100
SION 100
▁Wire 100
▁adults 100
링크 100
윗 100
▁basket 100
▁Macintosh 100
▁globe 100
▁vRealize 100
▁싫어 100
▁파란색 100
▁Mirror 100
▁Ridge 100
▁Senior 100
▁kernel 100
jia 100
▁유지보수 100
▁흥분 100
▁serial 100
▁Military 100
▁worse 100
▁지휘 100
▁스피커 100
▁포르토 100
▁compression 100
▁authorized 100
wacha 100
▁Townhouse 100
▁쫓아내 100
▁증거를 100
▁unlock 100
▁dishes 100
▁Ground 100
▁부근 100
logy 100
▁QTS 100
▁펴 100
되었다고 100
▁분말 100
▁Quay 100
오며 100
▁Opti 100
▁Bonus 100
Comp 100
▁화가 100
▁1944 100
▁벤치 100
▁초당 100
▁고장 100
▁paste 100
겠다 100
▁설치되어 100
▁유행 100
▁족 100
▁권고 100
여행 100
▁wired 100
▁Upon 100
5:00 100
▁Meri 100
▁promised 100
▁06:24 100
after 100
212 100
▁http 100
위로 100
▁자연의 100
▁늘어 100
▁폼 100
68- 100
▁Bir 100
script 100
▁Chal 100
▁14:00 100
▁530 100
콩 100
▁회심 100
4:30 100
fair 100
9.00 100
301 100
▁Zu 100
▁수행합니다 100
▁adopt 100
▁자리에 100
물질 100
▁Penn 100
▁환불되 100
▁positioned 100
▁열매 100
▁하나인 100
▁모델로 100
▁Dry 100
▁pH 100
▁파트 100
▁diet 100
640 100
pixel 100
▁예술가 100
▁Elijah 100
▁Infineon 100
▁consequence 100
▁furniture 100
▁obvious 100
▁마닐라 100
▁메커니즘 100
▁밝기 100
▁펌웨어 100
펙 100
▁PornXS 100
▁Saigon 100
▁Rachel 100
▁THIS 100
▁Focus 100
▁Brother 100
▁Secretary 100
▁Dollar 100
▁fault 100
▁Passover 100
▁HOME 100
▁everywhere 100
▁없지만 100
▁출생 100
zon 100
▁PNP 100
▁간단하게 100
▁엘리야 100
▁specialized 100
▁plot 100
3:33 100
▁부친 100
▁거품 100
▁적용할 100
▁시몬 100
중인 100
되었거나 100
▁Charming 100
▁differential 100
vest 100
▁passes 100
▁아버지가 100
▁스카 100
uli 100
Cam 100
zone 100
▁메일을 100
유형 100
▁전극 100
▁Sort 100
▁개조 100
shima 100
▁크기가 100
▁critic 100
▁109 100
▁지나가 100
▁해결하는 100
SEK 100
Jalan 100
turn 100
▁참가자 100
cliff 100
▁Convert 100
RIS 100
▁남자의 100
▁역에서 100
▁CAM 100
파티 100
▁박사는 100
rose 100
끄 100
▁(6) 100
ril 100
input 100
▁사물 100
▁물건을 100
tica 100
데일 100
▁bull 100
촬 100
▁Francis 100
just 100
템 100
▁inherit 100
▁advertise 100
▁Giu 100
샷 100
wikipedia 100
▁AIMTEC 100
▁Hamilton 100
▁Insurance 100
▁Quartz 100
▁Sabbath 100
▁Success 100
▁Zambian 100
▁browsing 100
▁chocolate 100
▁episode 100
▁phrase 100
▁마운틴 100
▁버지니아 100
▁알바니아 100
▁이더넷 100
▁violation 100
▁스프레이 100
▁Integration 100
▁helmet 100
▁흘러 100
▁캠브리지 100
▁누르십시오 100
Carlton 100
▁Samaria 100
▁labour 100
▁마땅 100
▁breach 100
▁야채 100
▁설문 100
▁composition 100
▁Gulf 100
▁Tho 100
▁uninstall 100
솔루 100
▁가르치는 100
▁목사 100
▁05:16 100
▁벤더 100
▁체포 100
▁Loop 100
▁80% 100
TTR 100
▁지극 100
▁처음에 100
▁sentence 100
▁Notice 100
5:26 100
▁Portland 100
되었는지 100
▁Cave 100
pli 100
▁Carmen 100
▁보냈다 100
▁점차 100
▁종교적 100
guard 100
월드 100
▁보호합니다 100
하거든 100
▁Scott 100
▁사항은 100
▁intention 100
▁열방 100
▁라파 100
▁capitalist 100
▁아이를 100
▁Arc 100
▁10:02 100
▁EOS 100
▁반대로 100
▁처리할 100
었어요 100
▁trademark 100
650 100
▁Connection 100
▁높이고 100
▁보건 100
▁1982 100
kins 100
ARK 100
▁드는 100
▁해변에서 100
켄 100
1:36 100
부르 100
▁observ 100
YN 100
▁중세 100
jon 100
▁safely 100
7.0 100
▁잇 100
▁maintaining 100
▁발레 100
▁마주 100
▁사람으로 100
5:16 100
▁아바 100
Inter 100
흔 100
코프 100
1117 100
▁챔피언 100
▁apparent 100
▁balcony 100
▁Thursday 100
▁guidance 100
▁나타날 100
▁웅장 100
밧 100
▁inspiration 100
▁raising 100
▁organisation 100
▁healthcare 100
▁이주 100
▁리더십 100
▁gotporn 100
▁evaluation 100
▁alpha 100
▁visualization 100
▁Virtualization 100
▁있느냐 100
▁로버트 100
▁grey 100
▁베니스 100
6:9 100
▁underground 100
▁있었는데 100
▁Monica 100
HZ 100
▁왕궁 100
▁comprises 100
▁motel 100
▁아레나 100
▁residents 100
▁세일 100
▁Wind 100
▁갖게 100
▁애플리케이션에 100
▁함이라 100
▁15% 100
▁drugs 100
▁스테이트 100
기까지 100
▁올려 100
▁영양 100
평가 100
▁백신 100
▁1942 100
▁표준을 100
ilesize 100
LVTH 100
▁ANY 100
▁피자 100
▁indicate 100
▁$4 100
하도다 100
▁오션 100
▁1953 100
▁애니 100
▁칼리지 100
fine 100
▁이해하고 100
IES 100
▁거실 100
하리이다 100
▁Vib 100
▁POS 100
▁(9) 100
▁기독교인 100
전자 100
▁elect 100
▁ICE 100
▁mounted 100
▁피드백 100
▁떠났 100
▁팀을 100
333 100
CHF 100
블리 100
▁10:04 100
▁카타 100
8:22 100
좋 100
▁closer 100
너희 100
▁aspect 100
▁이름과 100
▁그룹에 100
비디오 100
▁화물 100
▁Rain 100
▁Within 100
▁Students 100
▁21:5 100
AIN 100
▁designers 100
▁자바 100
7:11 100
▁끈 100
▁distinct 100
cell 100
azz 100
바시 100
▁회사가 100
▁처리하는 100
▁concerts 100
▁franc 100
▁repent 100
▁Agriturismo 100
▁Compilation 100
▁Mathematics 100
▁Mozilla 100
▁definitely 100
▁renowned 100
▁spectacular 100
▁welcoming 100
▁브뤼셀 100
▁알렉산더 100
▁쿠알라룸푸르 100
▁트로츠키 100
랏 100
▁규격 100
▁Charlotte 100
▁며칠 100
▁만드세요 100
▁eastern 100
▁144 100
▁enrich 100
▁Stephen 100
▁메이커 100
▁flame 100
▁그림자 100
▁punishment 100
▁서핑 100
▁나팔 100
▁최상 100
▁연설 100
▁지원하고 100
▁중대한 100
▁exit 100
▁passage 100
▁Handle 100
▁윤리 100
▁들여 100
▁가족이 100
169 100
▁좋음 100
▁미국인 100
▁Arabia 100
▁고리 100
▁Sep 100
6.6 100
▁자손과 100
SLC 100
▁포르투갈어 100
2:35 100
▁실로 100
▁소개합니다 100
▁attraction 100
하든 100
▁지형 100
▁예루살렘에서 100
▁기상 100
▁인권 100
빠 100
alla 100
360 100
▁cho 100
▁공지 100
당신은 100
▁과부 100
180 100
▁tram 100
▁발사 100
▁차이가 100
ghe 100
▁노르 100
▁명시 100
야만 100
▁Ner 100
스럽게 100
▁했던 100
▁규칙을 100
▁graduate 100
▁의하면 100
5:23 100
ã 100
▁Luna 100
▁하는데 100
▁Copacabana 100
▁Puzzle 100
▁SanDisk 100
▁Satellite 100
▁Tuesday 100
▁explanation 100
▁대역폭 100
▁climb 100
▁Emperor 100
▁comparison 100
▁empower 100
▁queen 100
▁베풀 100
▁출입 100
▁iMac 100
▁suggested 100
▁Fiber 100
▁Movement 100
▁말이니라 100
▁Wide 100
▁Brazilian 100
▁지키는 100
▁Reply 100
▁Daily 100
▁드림 100
West 100
▁긴장 100
▁신분 100
▁문장 100
▁박물관에서 100
▁손상을 100
▁Indonesian 100
▁insight 100
▁천사들 100
▁Cooking 100
▁boss 100
lite 100
▁1933 100
▁conventional 100
▁후반 100
▁데이터와 100
터스 100
▁장르 100
▁64- 100
BIT 100
▁하자 100
▁보장하기 100
pay 100
▁Petro 100
▁필사자 100
어스 100
사용자 100
▁Pala 100
▁금식 100
6:23 100
▁relaxing 100
▁지수 100
▁eco 100
▁이해하는 100
플렉 100
▁남기 100
▁consume 100
66- 100
\' 100
▁물러 100
▁과도 100
▁음악과 100
▁대화를 100
mph 100
▁execute 100
gawa 100
0:49 100
비용 100
▁기반을 100
숭 100
▁differ 100
보호 100
댄 100
▁substantial 100
▁Assembly 100
▁Cambodia 100
▁Journal 100
▁Muslim 100
▁Vodka 100
▁gravity 100
▁길르앗 100
▁슬라이더 100
▁Ministry 100
▁소중한 100
▁흔히 100
▁Dallas 100
▁Kazan 100
▁marine 100
▁습도 100
▁Sab 100
▁계측 100
▁Fitness 100
▁Sector 100
▁Danish 100
▁Adrian 100
▁Chief 100
8:21 100
▁searching 100
▁alien 100
▁Tau 100
▁산악 100
▁cafe 100
▁socket 100
Mastercard 100
▁Insight 100
▁마스크 100
▁관절 100
▁연결이 100
▁Math 100
▁롤러 100
▁Palma 100
소리 100
▁발급 100
▁HDporn 100
▁1987 100
▁미션 100
See 100
▁받아들이 100
▁교회는 100
▁간단하고 100
▁소금 100
▁Specifications 100
▁1939 100
▁Cause 100
6:11 100
▁유발 100
▁너희로 100
▁양성 100
▁10:03 100
fast 100
▁비유 100
▁그리하여 100
▁켄 100
PST 100
아노 100
chain 100
▁informed 100
▁기업으로 100
▁정확 100
▁미세 100
▁대행 100
▁포토 100
mad 100
lag 100
▁부어 100
▁생각이 100
▁사용하십시오 100
▁1918 100
▁주말 100
▁Grant 100
▁950 100
▁이방 100
▁카드가 100
9:24 100
이어야 100
▁Unity 100
701 100
328 100
1:4 100
▁수준에서 100
▁명하여 100
▁수석 100
451 100
uang 100
1:38 100
▁단계는 100
▁forgive 100
▁전략에 100
▁Joomla 100
▁Citizen 100
▁Extension 100
▁Logitech 100
▁galleries 100
▁내보내기 100
▁놓고 100
▁쾌적한 100
썬 100
▁causing 100
▁운영체제 100
▁Fedora 100
▁Concert 100
▁컴파일 100
▁structural 100
▁아버지는 100
▁incident 100
▁말씀하시되 100
▁레코드 100
▁디스크를 100
▁없느니라 100
▁Anime 100
▁recreational 100
▁찾습니다 100
▁Perform 100
▁dominate 100
▁프란 100
▁GoPro 100
▁smile 100
dder 100
▁경배 100
▁보드카 100
▁마귀 100
▁어렵 100
▁writer 100
▁coal 100
▁consumed 100
▁공유하는 100
▁지표 100
▁logic 100
▁Rob 100
▁Boat 100
Bedrooms 100
9:17 100
▁알아야 100
▁공예 100
▁refers 100
▁scheduled 100
osis 100
hit 100
▁meals 100
▁원하지 100
▁mall 100
▁서브 100
Base 100
▁추가합니다 100
경기 100
▁학생들은 100
▁jewel 100
▁맛보 100
▁$5 100
▁Kel 100
440 100
▁생물학 100
Star 100
▁employee 100
▁9.5 100
1:37 100
▁consideration 100
485 100
▁Lao 100
lg 100
other 100
아일랜드 100
맛 100
▁boil 100
▁Along 100
rite 100
▁보호할 100
▁앉으 100
▁customize 100
▁administrators 100
는지라 100
▁최초 100
▁당사자 100
▁분해 100
▁audit 100
▁neighbour 100
적이며 100
▁Ancient 100
▁Preparation 100
▁identification 100
▁않거나 100
▁최첨단 100
덩 100
▁refresh 100
▁visibility 100
▁Roselle 100
▁Cook 100
▁Wolf 100
▁던져 100
▁넘치는 100
▁말씀하시기를 100
▁캠핑 100
▁bin 100
▁disorder 100
▁ruin 100
▁대용량 100
▁하이킹 100
▁Homestay 100
▁실질적 100
▁continually 100
▁양쪽 100
▁debt 100
Cancellation 100
▁grid 100
▁기간에 100
▁미칠 100
6.8 100
▁면에서 100
나스 100
▁Aunt 100
▁아니지만 100
▁absolutely 100
▁putting 100
▁당국 100
기계 100
▁찾지 100
▁grown 100
▁인격 100
과정 100
6:30 100
▁죽이고 100
▁최적화된 100
▁고등 100
▁activate 100
▁균형을 100
agne 100
lier 100
하겠다 100
▁계정이 100
▁위치하여 100
otel 100
▁톰 100
셨나이다 100
ggle 100
▁4.7 100
▁실체 100
▁confess 100
▁indicates 100
▁관점에서 100
▁Pure 100
▁수평 100
anne 100
5.1 100
emia 100
▁로맨틱 100
딜 100
멀 100
포인트 100
▁따로 100
▁작업은 100
▁취약 100
▁Lower 100
▁9.4 100
▁equations 100
▁Burg 100
▁자유를 100
헤드 100
▁길에 100
7:21 100
▁Baal 100
▁오라 100
▁Pir 100
▁사르 100
290 100
▁Climate 100
▁Currency 100
▁Dubilier 100
▁Ubuntu 100
▁murder 100
▁실린더 100
▁컴팩트 100
▁파키스탄 100
▁Fetish 100
▁Increase 100
▁꼭대기 100
▁welding 100
▁beloved 100
▁Besides 100
▁스케일 100
▁어둠 100
▁12:01 100
▁pilot 100
▁떠날 100
▁개입 100
▁사이클링 100
clusion 100
▁확인하는 100
▁Uninstall 100
▁Trading 100
▁Carlo 100
▁요압 100
▁무엇인가요 100
▁손목 100
eff 100
▁lightning 100
▁9.7 100
▁줄이고 100
called 100
▁성도 100
borough 100
machi 100
16245 100
▁Tank 100
▁닭 100
▁자문 100
하겠 100
One 100
tex 100
롭고 100
▁3.6 100
▁경건 100
gaysex 100
▁EFT 100
▁모험을 100
▁rice 100
▁불량 100
▁researchers 100
▁만든다 100
▁따르는 100
▁여행하기 100
lub 100
2:08 100
▁Poli 100
pcs 100
▁1956 100
▁ROM 100
high 100
5.6 100
5:25 100
▁Revelation 100
▁가족을 100
▁7:00 100
▁》 100
▁Edwards 100
내기 100
115 100
▁의미한다 100
▁trademarks 100
▁happening 100
7:23 100
▁fruits 100
8:20 100
▁studying 100
ardo 100
번째로 100
▁사용된다 100
폴리스 100
built 100
▁믿음의 100
▁업무를 100
heat 100
▁redeem 100
dine 100
▁당한 100
▁pad 100
4:00 100
▁깨달 100
▁구매자 100
▁패키지를 100
▁Sole 100
▁2020 100
▁면적 100
▁1.00 100
▁나라에 100
핸 100
▁Continental 100
▁Cycling 100
▁Dubrovnik 100
▁abomination 100
▁execution 100
▁supposed 100
▁tunnel 100
▁unlimited 100
▁깔따구 100
▁높여 100
▁데이비드 100
▁싶으신가요 100
▁박람회 100
▁Chamber 100
▁maximize 100
▁Heights 100
▁화요일 100
▁isolated 100
▁Apollo 100
▁charging 100
▁spacious 100
▁compound 100
▁12:30 100
셨고 100
▁트래블 100
▁Granada 100
fix 100
▁검출 100
▁birthday 100
▁healed 100
▁Ctrl 100
▁rising 100
▁배낭 100
▁판독 100
▁평생 100
▁wickedness 100
▁필터링 100
▁Magnet 100
7:30 100
▁민감한 100
▁TN 100
▁Parallels 100
cover 100
▁찰스 100
fusion 100
▁설치하는 100
▁분위기를 100
4,000 100
-150 100
▁금형 100
▁아니었다 100
▁에덴 100
▁erased 100
▁compressor 100
They 100
▁유연성을 100
▁engaged 100
▁(0) 100
▁05:40 100
HAR 100
rome 100
▁연계 100
stock 100
3:36 100
▁1965 100
oko 100
▁증인 100
▁02:20 100
▁체제에서 100
iche 100
Dong 100
▁제국주의 100
para 100
▁theater 100
▁익명 100
▁(8) 100
▁만물 100
9:23 100
▁같고 100
▁승리를 100
▁horses 100
▁Valve 100
▁falling 100
▁prince 100
▁1,3 100
▁MX 100
▁기적 100
haz 100
nne 100
▁merge 100
천만 100
▁수집하는 100
▁electrode 100
▁앱은 100
▁Volt 100
▁Rentals 100
▁너로 100
▁과정이 100
0:48 100
▁미러 100
▁4:1 100
▁storm 100
▁converter 100
▁정밀도 100
탁 100
▁MV 100
corp 100
rine 100
uku 100
▁선물을 100
▁Dorm 100
핫 100
▁사이트는 100
▁Sid 100
Work 100
166 100
▁이동하여 100
▁PPS 100
ezer 100
▁보물 100
가지고 100
▁직원이 100
▁personally 100
시킨 100
iba 100
▁Karl 100
▁architect 100
▁이슬람 100
숫 100
슐 100
▁Asakusa 100
▁Lorenzo 100
▁Wharf 100
▁bubble 100
▁crazy 100
▁legitimate 100
▁냄새 100
▁밴쿠버 100
▁Wonder 100
▁cruise 100
▁drugged 100
▁monument 100
요한복음 100
▁Pulse 100
▁vineyard 100
他 100
▁Salvador 100
▁modular 100
▁JavaScript 100
▁hills 100
▁Important 100
▁보호정책 100
▁redtube 100
003 100
▁Toolbar 100
▁Stats 100
▁wrap 100
▁Commons 100
▁유아 100
▁사무소 100
0:58 100
▁Riverside 100
▁username 100
▁Unique 100
▁illustration 100
▁보완 100
공원 100
3:31 100
▁서클 100
▁복이 100
75.0 100
▁약속을 100
▁군중 100
▁assistant 100
▁육신 100
▁Tala 100
ZE 100
▁overview 100
▁대항 100
CES 100
▁요청에 100
▁operates 100
▁1971 100
▁manufactured 100
▁타는 100
▁줄여 100
2.2 100
▁토크 100
▁대상체 100
lai 100
▁governor 100
▁소음 100
▁지어 100
▁Turk 100
▁goth 100
260 100
574 100
▁폴더에 100
공학 100
▁상태입니다 100
▁아버지와 100
136 100
아래 100
▁연락을 100
▁bitter 100
▁ONE 100
▁안전성 100
▁Sonic 100
▁입력하여 100
▁입학 100
▁젠 100
9:38 100
레즈비언 100
▁이해를 100
괴 100
Australia 100
▁성경을 100
proof 100
▁플러그 100
▁Cover 100
▁Bass 100
VPN 100
1:54 100
▁기기에서 100
▁맵 100
1:06 100
▁하시는 100
5:24 100
중국 100
획 100
573 100
▁10:14 100
▁Pakistan 100
▁concierge 100
▁everlasting 100
▁integrity 100
▁prestigious 100
▁volunteer 100
▁mankind 100
▁sorrow 100
▁갈릴리 100
images 100
▁ethnic 100
▁쿼리 100
▁Barbara 100
▁플레잉 100
▁버렸 100
▁Himself 100
▁숙련 100
▁shaved 100
▁devour 100
해보 100
EVAL 100
▁PV 100
▁암몬 100
▁문자열 100
▁죽어 100
cion 100
▁계절 100
▁initiate 100
▁진출 100
▁회계 100
▁Extended 100
▁Drag 100
▁surge 100
▁죽였 100
▁Christianity 100
▁불리 100
▁건지 100
feld 100
0:50 100
▁Shell 100
▁Wales 100
▁예수님이 100
뉴스 100
▁도와주 100
▁sphere 100
▁scar 100
▁05:25 100
▁하셨다 100
▁소파 100
▁파트너십 100
▁저장됩니다 100
▁저지 100
▁운영하는 100
▁Drivers 100
▁거리에서 100
▁건축물 100
▁colleagues 100
eiro 100
▁공인 100
▁일시 100
▁조정할 100
▁SAS 100
▁교회에서 100
▁만드 100
빅 100
▁demanding 100
Input 100
▁설명하는 100
스케 100
▁안으로 100
▁모르는 100
▁요청할 100
sphere 100
▁Bring 100
▁미치 100
▁의원 100
▁yea 100
▁Tax 100
시매 100
패드 100
▁Dome 100
▁Vacuum 100
▁baggage 100
▁investigation 100
▁잘츠부르크 100
틈 100
▁Trotsky 100
▁ministry 100
▁casual 100
▁venture 100
▁silicon 100
▁모서리 100
▁angry 100
▁SHOP 100
▁pocket 100
▁random 100
▁야훼께서 100
▁Various 100
▁친구가 100
▁Battlefield 100
▁전화번호 100
▁다음으로 100
▁Suzhou 100
▁운반 100
▁힘든 100
pdf 100
itary 100
▁kick 100
▁Arrow 100
▁Bao 100
▁왕복 100
▁닿 100
lake 100
▁CNY 100
▁선박 100
▁classical 100
▁continuously 100
▁재건 100
▁applying 100
▁동산 100
/69 100
▁간구 100
▁1080 100
▁MER 100
▁뱀 100
▁+1 100
▁나와서 100
▁Mitt 100
Can 100
▁Rep 100
▁Jia 100
▁numbered 100
▁프로젝트는 100
했어요 100
▁사전에 100
▁charming 100
▁bowl 100
▁사방 100
▁Ras 100
▁도구가 100
▁동전 100
care 100
▁Herod 100
▁hum 100
▁곰 100
▁officially 100
Gb 100
▁Pur 100
님에게 100
▁Rab 100
▁눈물 100
▁Petit 100
▁벨라 100
▁Reader 100
▁문학 100
▁지원할 100
▁Links 100
specific 100
| 100
스프링스 100
▁보아 100
PWRE 100
차원 100
▁짧 100
환경 100
▁Highland 100
9001 100
▁estimate 100
▁lesson 100
▁Members 100
▁영향력 100
▁공유하고 100
9:28 100
▁Ceramic 100
▁Hybrid 100
▁Stylish 100
▁Wishlist 100
▁approval 100
▁challenging 100
▁ordinary 100
▁synagogue 100
▁가톨릭 100
▁스페이스 100
▁토너먼트 100
▁파노라마 100
▁Shadow 100
▁dancing 100
▁정교한 100
▁gauge 100
▁infinite 100
▁고속도로 100
▁촉수 100
▁대다수 100
▁셋째 100
▁Lucky 100
옵니다 100
▁어깨 100
▁호흡 100
▁따르십시오 100
▁스레드 100
▁Trump 100
▁hearken 100
▁sunset 100
▁posting 100
▁있을까요 100
▁영구적으로 100
▁스탠드 100
▁저장하고 100
gated 100
▁70% 100
▁wheels 100
▁구체적인 100
▁진술 100
▁Atlas 100
▁마틴 100
▁Baker 100
▁toolbar 100
납니다 100
▁assessment 100
▁40% 100
▁체중 100
▁Browser 100
▁반란 100
LEX 100
▁소설 100
uous 100
▁항해 100
7.1 100
▁문서에 100
▁forming 100
▁나아와 100
▁주며 100
8:25 100
작업 100
1-2 100
▁Tyco 100
▁bid 100
▁3.4 100
▁deck 100
▁Papa 100
bud 100
▁부분의 100
▁꿈을 100
▁호스 100
▁Electrical 100
7:22 100
▁SIM 100
▁장군 100
▁너무나 100
▁qualified 100
▁protecting 100
▁freely 100
▁pp 100
God 100
▁cloth 100
▁선택된 100
▁건물에 100
▁Diode 100
▁Bernard 100
▁10:30 100
URE 100
▁00:3 100
▁재해 100
1.8 100
▁먹으 100
▁보정 100
▁피하기 100
투르 100
▁코치 100
넘 100
▁방문해 100
옷 100
Matthew 100
시니라 100
▁TW 100
▁restrict 100
선택 100
▁만났 100
223 100
obby 100
2.8 100
▁soil 100
릭스 100
▁Questions 100
멍 100
▁금액을 100
qi 100
▁모자 100
▁장애물 100
▁Deploy 100
▁Response 100
▁accompani 100
▁delicious 100
▁purchasing 100
▁recipient 100
▁가벼운 100
▁높일 100
▁다채로운 100
▁올바르게 100
▁카운터 100
▁커다란 100
▁필라델피아 100
깅 100
웬 100
쯤 100
▁요나단 100
▁Consumer 100
▁Salesforce 100
▁decline 100
▁imagine 100
▁롤렉스 100
▁variation 100
▁설득 100
▁ashamed 100
▁xxxdan 100
▁마이클 100
▁licensed 100
tten 100
▁cunt 100
▁환율 100
▁whatsoever 100
▁있습 100
▁침입 100
▁MORE 100
▁하였 100
▁녹차 100
▁프린트 100
▁Indie 100
▁화석 100
▁분자 100
137 100
▁좋을까 100
305 100
▁복지 100
▁Grace 100
▁Lite 100
▁Ammon 100
세포 100
▁있겠 100
▁로그인하거나 100
▁airlines 100
▁해주 100
▁꼬리 100
▁반도 100
▁법정 100
239 100
▁다소 100
▁발매 100
5:50 100
▁케이프 100
▁1979 100
▁가축 100
▁직물 100
▁치즈 100
▁1936 100
ALE 100
▁beam 100
_07 100
▁중요성 100
▁Kang 100
▁0,0 100
▁lust 100
Card 100
▁EIC 100
▁나누어 100
por 100
9:26 100
▁passenger 100
▁용량을 100
▁institution 100
▁이루어져 100
004 100
▁이메일로 100
▁Gad 100
▁deny 100
door 100
▁4.6 100
▁rub 100
PLE 100
▁인조 100
▁내려다 100
▁방전 100
▁비용으로 100
▁expressed 100
밥 100
feat 100
▁Cookies 100
▁루이스 100
▁좋았 100
amba 100
즌 100
얀 100
▁기울이 100
▁rulers 100
▁사람도 100
ï 100
▁Honolulu 100
▁Messenger 100
▁Orleans 100
▁VISHAY 100
▁fantasy 100
▁independence 100
▁migration 100
▁retired 100
▁갤럭시 100
▁괜찮 100
▁강수량 100
ALVCH 100
▁염소 100
▁barrier 100
▁전형적인 100
▁지진 100
在 100
▁Cumshot 100
▁travellers 100
▁intense 100
▁modification 100
▁그럼에도 100
▁incense 100
▁활약 100
▁Shoot 100
▁liability 100
▁prospect 100
▁생긴 100
▁Ueno 100
sight 100
▁끝난 100
▁Borgo 100
▁맞습니다 100
▁Cyber 100
▁SMBJ 100
▁Poll 100
▁funds 100
▁Receiver 100
▁incorporate 100
▁피터 100
▁Removal 100
▁arrangement 100
▁Mae 100
▁구원받 100
▁배너 100
▁Tong 100
슬러 100
▁Around 100
▁운전자 100
▁pub 100
uti 100
▁1964 100
▁주소가 100
▁650 100
4:28 100
▁가득한 100
▁Never 100
▁메르 100
토록 100
▁IPv 100
▁세운 100
▁기업은 100
▁탐사 100
tico 100
▁separately 100
Conf 100
▁제어할 100
▁성기 100
셨으니 100
▁1919 100
6,000 100
▁친구들과 100
▁Barra 100
▁Mike 100
▁Logic 100
▁FX 100
테스 100
▁Corte 100
5.3 100
▁Yuan 100
▁수준에 100
▁쿠키는 100
▁비교적 100
▁유틸리티를 100
eman 100
▁maybe 100
▁Rich 100
▁무장 100
INS 100
▁10:09 100
▁물자 100
▁용사 100
▁채우 100
▁Detail 100
▁리모델링 100
7.6 100
▁Jam 100
▁참여할 100
mino 100
▁낸 100
▁과학적 100
즐 100
베스 100
kha 100
찾 100
하길 100
채널 100
profit 100
273 100
▁가시성 100
7:28 100
▁수요일 100
cycle 100
▁회원들 100
▁particles 100
▁Sak 100
017, 100
▁vegetables 100
침실 100
▁imperial 100
▁Deliver 100
뱅 100
GW 100
▁들리 100
▁리프 100
▁Kill 100
첨 100
▁났 100
Between 100
▁Adapter 100
▁Container 100
▁Dominican 100
▁Magazine 100
▁Puppy 100
▁Studies 100
▁diagnostic 100
▁empire 100
▁encrypted 100
▁hydraulic 100
▁statutes 100
▁victim 100
▁인클로저 100
▁일으킬 100
▁최선의 100
▁캄보디아 100
▁히스기야 100
▁Antigua 100
▁restoration 100
▁놓았 100
▁덧붙 100
▁Simply 100
▁exposure 100
大 100
▁lunch 100
▁Creampie 100
▁deleting 100
▁Shuttle 100
▁PQ 100
▁Pattern 100
▁Novella 100
▁verification 100
117 100
▁프로그램으로 100
▁11:59 100
▁Seminar 100
▁계곡 100
▁facing 100
dress 100
▁폭탄 100
▁Voice 100
▁Past 100
▁부흥 100
▁fool 100
▁헌법 100
▁출연 100
Let 100
▁passport 100
▁Chinatown 100
▁일기 100
▁문의하십시오 100
▁요셉이 100
▁출구 100
▁발달 100
▁novel 100
Don 100
had 100
▁잠재적인 100
▁부르는 100
▁회원님 100
▁덮어 100
▁Absolut 100
▁latin 100
레아 100
▁FOI 100
▁cooking 100
▁걸음 100
▁construct 100
▁Llan 100
▁0,4 100
ppi 100
▁광산 100
받지 100
▁enjoying 100
▁없기 100
▁열매를 100
▁주소로 100
▁지정합니다 100
Our 100
▁양자 100
▁Risk 100
/16 100
▁Joe 100
▁일종 100
▁강하게 100
5:8 100
▁separated 100
▁Row 100
▁관해서 100
▁눈으로 100
bai 100
rough 100
부분 100
▁kid 100
iate 100
▁들려 100
▁어려움을 100
꼬 100
▁founder 100
English 100
generation 100
등록 100
▁accus 100
crypt 100
▁attacked 100
bang 100
▁긍정적 100
리하면 100
▁소유권 100
▁notifications 100
▁Shemale 100
윙 100
▁Luke 100
▁exploit 100
▁Cyprus 100
▁DIODE 100
▁Fountain 100
▁Presentation 100
▁WinRAR 100
▁centuries 100
▁concentration 100
▁principal 100
▁prominent 100
▁규빗 100
▁슬로바키아 100
▁우분투 100
▁컨설팅 100
▁프로젝터 100
▁Gartner 100
▁Practice 100
▁portrait 100
벼 100
▁prevail 100
▁Naples 100
上 100
▁플랫 100
▁Certified 100
▁Furthermore 100
▁Packaging 100
▁MPEG 100
▁Desert 100
lain 100
▁빨강 100
UI 100
▁품목 100
▁gender 100
▁Progress 100
▁prayed 100
▁놋 100
▁ASTM 100
▁Idea 100
▁wings 100
▁assembled 100
▁못합니다 100
▁Sad 100
▁unlike 100
▁개별적으로 100
▁드라이어 100
▁기밀 100
▁Harbor 100
▁창세기 100
▁잃었 100
▁육군 100
▁경제학 100
▁학부 100
하십니다 100
▁Bomb 100
▁자막 100
▁친히 100
9:25 100
▁뷰티 100
▁군인 100
▁04:30 100
▁Bright 100
▁coordinate 100
시킨다 100
4% 100
▁05:45 100
zzo 100
6:25 100
PWG 100
▁INC 100
8:29 100
추가 100
▁mesh 100
▁Fishing 100
▁publicly 100
▁효과가 100
▁개시 100
BU 100
▁포드 100
riot 100
▁존스 100
▁transaction 100
▁점심 100
▁표시할 100
0.2 100
grade 100
▁Brit 100
▁본체 100
▁자금을 100
▁vine 100
self 100
▁아키텍처를 100
Trans 100
acre 100
With 100
▁specification 100
▁종사 100
-3.3 100
8:28 100
▁hence 100
겠습니까 100
▁따뜻 100
정책 100
▁하되 100
▁불만 100
▁야곱이 100
▁만들었 100
▁Joy 100
▁공유하기 100
▁luck 100
▁하사 100
▁Trader 100
륜 100
9:11 100
쿼 100
▁Douglas 100
▁Jumeirah 100
▁Promotion 100
▁administrative 100
▁conclude 100
▁humidity 100
▁immigrants 100
▁newsletter 100
▁스리랑카 100
▁얇은 100
▁trespass 100
▁코스타리카 100
▁일환으로 100
▁whale 100
▁Vatican 100
▁공산주의 100
원활한 100
▁칸느 100
▁재설정 100
▁걸립니다 100
▁Legend 100
▁Background 100
▁어디가 100
▁Cloth 100
▁Ferries 100
칩니다 100
▁신성 100
▁판매업체 100
▁Morning 100
▁체류 100
▁간단히 100
XYZ 100
▁Este 100
▁보관실 100
▁Egyptians 100
uga 100
source 100
▁부합 100
드릴 100
▁본래 100
▁유료 100
NZD 100
▁근심 100
▁이력 100
▁시작하세요 100
▁Spot 100
▁react 100
단체 100
▁DDR 100
3:32 100
▁eaten 100
▁Tell 100
▁lib 100
/06/ 100
▁구성하는 100
였으며 100
▁Bow 100
▁difficulty 100
▁transactions 100
3:35 100
▁정식 100
▁Gem 100
▁7.5 100
▁HU 100
▁Tuber 100
▁명시적 100
▁contribution 100
▁군대를 100
▁채널을 100
▁07:55 100
끼리 100
6:38 100
▁정권 100
▁표시되지 100
▁Hunt 100
▁받아야 100
셰 100
▁nest 100
ILL 100
Master 100
▁distribute 100
▁epi 100
9.8 100
course 100
open 100
▁Communications 100
▁Alta 100
▁시공 100
4:9 100
셉 100
116 100
핍 100
ž 100
▁Appliance 100
▁eligible 100
▁내셔널 100
▁perceive 100
▁섹터 100
▁protein 100
▁Shrine 100
▁Economy 100
▁Rawai 100
▁Bicycle 100
9:06 100
▁Spacious 100
Gbps 100
▁duration 100
▁뜻이 100
▁combat 100
▁Transportation 100
뱅크 100
▁Cream 100
▁strain 100
▁복종 100
▁redirect 100
▁DHL 100
▁HCF 100
Rail 100
활용할 100
[2] 100
▁편안 100
▁매직 100
▁누르고 100
▁선별 100
▁scattered 100
▁instantly 100
▁로렌 100
▁문화적 100
▁drawn 100
▁편안함 100
▁3.9 100
▁$10 100
▁아이스 100
5-3 100
▁1978 100
▁유저 100
▁Grey 100
-600 100
경제 100
▁Rai 100
9.9 100
▁Pel 100
2:57 100
▁대해서도 100
▁건축을 100
브리지 100
▁못한다 100
▁손이 100
4:40 100
▁Vine 100
▁밀어 100
▁Nun 100
▁이브 100
▁개발한 100
▁newspaper 100
0:25 100
사용 100
▁펄 100
4.1 100
▁접시 100
▁마시는 100
▁listening 100
▁없다면 100
▁중력 100
▁jerk 100
▁사용되고 100
scape 100
▁heavenly 100
자동차 100
▁뉘 100
▁Eng 100
▁Camping 100
▁Born 100
found 100
모델 100
▁messengers 100
▁frequent 100
2007 100
▁Pref 100
▁비상 100
▁Corinthians 100
▁Depending 100
▁Gentiles 100
▁Measurement 100
▁pharmaceutical 100
▁transparent 100
▁대시보드 100
▁적포도주 100
▁천천히 100
▁Easily 100
▁committee 100
▁miracle 100
▁태어나 100
所 100
▁도와줍니다 100
▁12:13 100
▁헤드셋 100
▁Internal 100
▁Darwin 100
▁confidential 100
▁japan 100
▁Pietro 100
▁터널 100
▁불꽃 100
▁Avoid 100
▁비롯하여 100
▁Police 100
▁가짜 100
▁Better 100
▁척추 100
▁공급망 100
▁SMD 100
▁relaxation 100
▁Huang 100
▁위생 100
8:30 100
▁everyday 100
▁삭제하는 100
▁족장 100
▁순수한 100
OME 100
제거 100
▁대출 100
▁LAB 100
오리 100
ibu 100
quin 100
▁05:56 100
하면서도 100
▁7.4 100
▁Doll 100
▁레스토랑에서 100
fal 100
left 100
▁Flag 100
▁photographer 100
▁bigger 100
▁scenario 100
END 100
▁피해를 100
슬리 100
▁Hook 100
kon 100
▁바리새인 100
▁NJ 100
nico 100
wheel 100
effective 100
▁stronger 100
▁보호하고 100
▁요소가 100
4:35 100
▁10:15 100
방송 100
헛 100
▁뒤를 100
▁12:10 100
▁static 100
▁들어가는 100
▁pm 100
▁개장한 100
▁아이가 100
¡ 100
▁Antwerp 100
▁Copenhagen 100
▁EEPROM 100
▁Thunderbolt 100
▁Timothy 100
▁captivity 100
▁enormous 100
▁gambling 100
▁obstacle 100
[...]
