, 100
. 100
▁the 100
▁of 100
s 100
▁в 100
▁and 100
▁и 100
▁ 100
▁to 100
▁in 100
- 100
▁a 100
а 100
е 100
▁с 100
▁на 100
: 100
▁is 100
▁for 100
▁( 100
▁по 100
▁that 100
и 100
ы 100
) 100
▁не 100
м 100
▁with 100
; 100
▁The 100
▁on 100
ing 100
▁- 100
▁для 100
▁что 100
х 100
у 100
ed 100
й 100
▁be 100
▁В 100
о 100
▁as 100
▁by 100
ом 100
ов 100
▁was 100
▁are 100
▁к 100
▁« 100
▁" 100
▁из 100
' 100
ой 100
▁it 100
▁from 100
d 100
▁от 100
▁за 100
/ 100
▁о 100
▁you 100
▁not 100
▁как 100
▁at 100
▁– 100
▁or 100
▁will 100
▁1 100
я 100
▁have 100
▁an 100
’ 100
▁this 100
ая 100
▁I 100
e 100
t 100
▁In 100
▁а 100
▁или 100
ого 100
ly 100
" 100
▁which 100
er 100
▁has 100
» 100
▁2 100
ных 100
ми 100
▁года 100
▁A 100
y 100
ные 100
? 100
▁у 100
▁can 100
▁all 100
го 100
▁his 100
▁до 100
▁their 100
▁его 100
▁при 100
▁he 100
▁вы 100
ной 100
▁your 100
a 100
▁3 100
▁также 100
▁С 100
▁its 100
▁это 100
ся 100
ный 100
ки 100
▁“ 100
al 100
ые 100
ых 100
▁ago 100
▁& 100
ый 100
▁were 100
ами 100
ка 100
▁чтобы 100
▁назад 100
! 100
с 100
▁also 100
▁one 100
▁but 100
ного 100
ие 100
). 100
▁more 100
n 100
ю 100
▁— 100
▁they 100
но 100
▁их 100
▁он 100
▁но 100
ия 100
ий 100
in 100
▁other 100
... 100
▁had 100
gt 100
▁4 100
т 100
ет 100
▁которые 100
▁we 100
▁то 100
▁been 100
в 100
д 100
▁S 100
▁под 100
▁It 100
), 100
m 100
▁who 100
ная 100
▁со 100
c 100
на 100
es 100
▁году 100
▁все 100
▁И 100
S 100
▁5 100
▁время 100
▁time 100
ую 100
C 100
л 100
▁был 100
▁про 100
o 100
▁up 100
ли 100
▁years 100
ах 100
i 100
▁/ 100
▁На 100
▁about 100
▁более 100
b 100
▁будет 100
ии 100
н 100
▁new 100
▁our 100
▁во 100
▁того 100
ть 100
▁there 100
▁would 100
ое 100
2 100
▁out 100
▁10 100
▁This 100
▁может 100
th 100
” 100
▁6 100
▁only 100
▁они 100
▁18 100
▁является 100
▁into 100
▁же 100
▁так 100
▁them 100
▁об 100
r 100
▁C 100
▁so 100
▁мы 100
ным 100
▁было 100
re 100
3 100
▁| 100
ное 100
▁do 100
▁than 100
▁К 100
amp 100
▁По 100
▁first 100
ей 100
ь 100
ым 100
▁E 100
▁no 100
▁только 100
ам 100
▁when 100
▁были 100
▁быть 100
▁я 100
▁г 100
▁people 100
or 100
▁G 100
▁У 100
▁бы 100
A 100
▁such 100
▁T 100
▁том 100
B 100
▁B 100
ла 100
ию 100
▁He 100
▁should 100
▁two 100
ку 100
▁который 100
▁D 100
▁And 100
▁А 100
▁раз 100
] 100
com 100
▁any 100
▁P 100
▁over 100
ить 100
▁7 100
D 100
p 100
▁re 100
им 100
▁work 100
ем 100
▁year 100
». 100
г 100
▁когда 100
▁her 100
▁well 100
▁лет 100
▁For 100
f 100
ers 100
за 100
▁use 100
▁if 100
h 100
en 100
▁после 100
▁M 100
▁most 100
▁если 100
▁20 100
T 100
▁15 100
к 100
▁We 100
1 100
▁world 100
P 100
то 100
▁these 100
▁after 100
▁F 100
▁8 100
▁information 100
ит 100
ок 100
▁без 100
▁some 100
▁N 100
ation 100
», 100
▁under 100
▁12 100
▁можно 100
ную 100
▁may 100
ar 100
▁Это 100
l 100
▁said 100
an 100
▁countries 100
▁him 100
▁О 100
▁# 100
▁months 100
▁Вы 100
▁П 100
▁пере 100
▁была 100
▁system 100
▁United 100
ля 100
▁[ 100
▁xHamster 100
G 100
ской 100
:: 100
on 100
st 100
▁between 100
▁этого 100
▁made 100
▁many 100
С 100
▁de 100
k 100
ло 100
4 100
▁могут 100
▁всех 100
▁file 100
ion 100
▁Я 100
р 100
V 100
K 100
▁11 100
их 100
▁what 100
▁чем 100
▁K 100
▁international 100
▁development 100
не 100
▁O 100
▁между 100
▁No 100
▁R 100
▁If 100
▁ее 100
g 100
▁like 100
п 100
able 100
▁through 100
F 100
▁За 100
M 100
:// 100
▁where 100
ном 100
▁Он 100
ч 100
▁16 100
▁Не 100
▁Если 100
▁me 100
▁США 100
ни 100
▁9 100
x 100
▁To 100
H 100
▁год 100
to 100
ic 100
▁ли 100
▁But 100
ется 100
▁my 100
le 100
▁Но 100
ity 100
та 100
В 100
▁very 100
ке 100
▁тем 100
▁17 100
v 100
б 100
з 100
▁Russian 100
ными 100
▁14 100
▁области 100
▁used 100
▁этом 100
N 100
ва 100
▁30 100
▁even 100
▁number 100
▁country 100
▁она 100
u 100
us 100
▁этой 100
▁make 100
▁L 100
▁Д 100
му 100
". 100
К 100
▁against 100
it 100
▁You 100
W 100
▁China 100
▁could 100
▁high 100
▁those 100
ют 100
▁now 100
ment 100
▁есть 100
▁13 100
да 100
▁part 100
▁support 100
I 100
▁On 100
▁При 100
▁должны 100
ать 100
▁during 100
▁need 100
ж 100
▁М 100
▁then 100
▁As 100
5 100
А 100
ru 100
▁us 100
ского 100
▁must 100
ш 100
▁м 100
▁Г 100
▁un 100
▁которая 100
& 100
▁without 100
▁где 100
▁same 100
ти 100
▁H 100
▁because 100
ыми 100
ил 100
▁free 100
по 100
▁W 100
▁19 100
▁including 100
▁way 100
▁24 100
▁уже 100
▁V 100
▁before 100
E 100
▁Как 100
▁других 100
▁being 100
▁place 100
ин 100
8 100
6 100
▁прав 100
the 100
▁больше 100
Д 100
▁будут 100
▁life 100
▁take 100
L 100
▁Re 100
▁shall 100
de 100
▁Russia 100
▁day 100
▁Мы 100
▁she 100
▁States 100
П 100
▁очень 100
М 100
ive 100
▁order 100
▁long 100
▁развития 100
▁человека 100
ский 100
ков 100
ry 100
▁стран 100
▁еще 100
▁25 100
сти 100
ности 100
▁how 100
▁public 100
z 100
▁per 100
▁both 100
▁через 100
▁power 100
▁+ 100
▁children 100
▁three 100
▁один 100
или 100
▁human 100
▁right 100
ости 100
▁m 100
▁Б 100
об 100
▁работы 100
от 100
Т 100
▁national 100
▁economic 100
те 100
▁всего 100
вер 100
▁end 100
▁которых 100
w 100
▁At 100
▁страны 100
at 100
0 100
ль 100
ны 100
ent 100
▁U 100
▁different 100
ал 100
ив 100
el 100
ne 100
ен 100
▁New 100
ения 100
Б 100
▁себя 100
▁Т 100
ться 100
ст 100
▁city 100
ются 100
ur 100
ll 100
▁Windows 100
▁just 100
▁образом 100
▁each 100
▁Nations 100
na 100
▁своей 100
▁good 100
▁own 100
▁back 100
▁случае 100
▁within 100
▁вам 100
ость 100
▁law 100
▁системы 100
ко 100
▁available 100
man 100
▁c 100
", 100
▁ShemaleZ 100
кой 100
из 100
▁political 100
▁while 100
▁see 100
▁God 100
ле 100
lt 100
▁месяцев 100
▁days 100
▁них 100
▁ре 100
ят 100
▁state 100
up 100
▁Наций 100
ta 100
ность 100
▁big 100
▁best 100
▁St 100
▁know 100
age 100
ist 100
▁Объединенны 100
▁Home 100
▁water 100
▁Committee 100
et 100
▁small 100
▁European 100
▁21 100
ary 100
▁President 100
▁rights 100
O 100
▁International 100
▁process 100
▁There 100
▁даже 100
▁качестве 100
▁Организации 100
▁имеет 100
▁service 100
7 100
▁government 100
ia 100
▁ни 100
ate 100
▁women 100
▁much 100
▁man 100
ма 100
ты 100
▁этот 100
▁этих 100
▁State 100
ские 100
▁e 100
id 100
де 100
▁De 100
▁им 100
ch 100
il 100
▁связи 100
." 100
▁над 100
= 100
co 100
▁т 100
▁area 100
▁эти 100
ge 100
▁Republic 100
▁company 100
▁свою 100
▁много 100
▁They 100
as 100
▁important 100
▁last 100
▁деятельности 100
ер 100
▁data 100
▁set 100
О 100
_ 100
ma 100
▁жизни 100
он 100
R 100
▁кто 100
▁go 100
ness 100
▁п 100
is 100
▁get 100
ди 100
▁did 100
▁All 100
▁group 100
▁report 100
▁open 100
▁день 100
▁J 100
▁нас 100
▁social 100
ъ 100
▁case 100
▁рас 100
▁несколько 100
▁p 100
▁перед 100
▁2013 100
20 100
ги 100
▁22 100
▁против 100
▁So 100
est 100
ka 100
▁свои 100
▁US 100
▁людей 100
И 100
▁following 100
▁every 100
The 100
▁23 100
▁help 100
▁женщин 100
▁2015 100
▁безопасности 100
▁другие 100
▁down 100
▁services 100
ul 100
▁человек 100
▁вас 100
▁great 100
▁using 100
▁своих 100
▁мира 100
ри 100
ому 100
X 100
▁b 100
Г 100
▁name 100
▁level 100
▁held 100
▁does 100
▁де 100
га 100
ve 100
▁времени 100
— 100
▁2014 100
▁информацию 100
ских 100
лись 100
▁рамках 100
дер 100
▁security 100
▁Про 100
▁Council 100
ism 100
▁Casino 100
▁local 100
te 100
ir 100
▁view 100
▁течение 100
ri 100
▁период 100
▁come 100
▁special 100
▁2011 100
ant 100
Y 100
ня 100
▁обеспечения 100
▁05 100
ви 100
▁among 100
▁2010 100
▁head 100
▁являются 100
▁50 100
▁пре 100
▁PornHub 100
▁air 100
ба 100
ская 100
▁With 100
мен 100
▁still 100
ение 100
▁сказал 100
and 100
▁1. 100
( 100
▁activities 100
▁После 100
▁quality 100
▁provide 100
▁non 100
be 100
до 100
▁since 100
Н 100
ro 100
во 100
▁region 100
▁Все 100
▁project 100
▁possible 100
▁данных 100
▁business 100
9 100
▁100 100
ает 100
▁28 100
▁компании 100
▁World 100
тер 100
ine 100
▁те 100
ор 100
▁light 100
▁2012 100
ce 100
▁отношении 100
ian 100
ат 100
ra 100
ty 100
▁которой 100
▁When 100
▁s 100
ают 100
▁тех 100
▁Однако 100
▁Дл 100
▁информации 100
▁online 100
▁find 100
ting 100
ство 100
▁control 100
али 100
▁Europe 100
мер 100
▁2007 100
▁financial 100
▁co 100
▁second 100
са 100
▁необходимо 100
▁house 100
▁2008 100
▁want 100
лен 100
▁пред 100
▁http 100
▁pre 100
ated 100
▁main 100
tic 100
▁управления 100
▁software 100
▁просто 100
ние 100
▁production 100
ис 100
▁26 100
▁men 100
▁become 100
▁program 100
▁General 100
▁' 100
ф 100
че 100
ling 100
▁части 100
▁large 100
ель 100
лась 100
▁Ф 100
▁нет 100
▁products 100
▁X 100
▁двух 100
▁change 100
ист 100
▁которое 100
▁period 100
▁два 100
ировать 100
Ф 100
am 100
ter 100
▁access 100
▁members 100
▁full 100
ц 100
ad 100
▁market 100
▁design 100
ком 100
ина 100
no 100
▁стороны 100
se 100
▁Со 100
▁можете 100
ну 100
Л 100
ев 100
▁игры 100
▁shemale 100
▁hand 100
▁2. 100
ut 100
▁side 100
▁Во 100
▁May 100
▁место 100
▁соответствии 100
um 100
ial 100
▁детей 100
▁Al 100
me 100
▁con 100
▁point 100
▁программы 100
ства 100
▁result 100
▁TXXX 100
▁меня 100
10 100
Х 100
▁An 100
ан 100
ak 100
▁2016 100
▁дня 100
▁million 100
li 100
ti 100
▁возможность 100
▁After 100
▁таких 100
▁around 100
▁2009 100
▁f 100
im 100
▁России 100
▁another 100
▁$ 100
▁д 100
▁Э 100
ра 100
▁ему 100
▁Ukraine 100
ож 100
▁conditions 100
▁игра 100
ту 100
▁here 100
ве 100
овой 100
▁meeting 100
▁мир 100
У 100
▁использовать 100
▁свой 100
▁National 100
▁вопросам 100
прав 100
▁off 100
▁TV 100
ре 100
пол 100
▁found 100
▁Х 100
▁policy 100
▁example 100
▁oil 100
▁body 100
ния 100
▁She 100
▁файл 100
▁29 100
▁должен 100
▁However 100
ance 100
▁war 100
lo 100
▁31 100
ме 100
▁Z 100
ized 100
sk 100
▁файлов 100
▁AShemaleTube 100
▁several 100
ите 100
▁месяца 100
ник 100
▁своего 100
▁game 100
mo 100
50 100
▁What 100
Р 100
овые 100
▁University 100
при 100
▁old 100
▁06 100
– 100
30 100
.” 100
J 100
less 100
▁dis 100
▁further 100
▁помощи 100
▁* 100
▁Кроме 100
ос 100
▁От 100
ян 100
▁room 100
rs 100
ча 100
▁management 100
▁Government 100
▁global 100
▁включая 100
▁0 100
▁home 100
нов 100
▁три 100
▁working 100
▁её 100
▁ко 100
▁land 100
би 100
ie 100
▁took 100
▁type 100
▁ensure 100
ру 100
ском 100
▁energy 100
▁права 100
ish 100
▁July 100
▁Ш 100
▁27 100
ga 100
▁Live 100
▁called 100
▁числе 100
тор 100
mm 100
ov 100
▁файла 100
▁One 100
мо 100
▁2017 100
▁How 100
вод 100
▁based 100
▁потому 100
▁various 100
▁группы 100
▁military 100
:00 100
▁2006 100
▁party 100
j 100
ду 100
▁Китай 100
▁given 100
▁t 100
▁future 100
▁family 100
▁Они 100
▁already 100
▁fact 100
▁tits 100
go 100
▁менее 100
▁часть 100
la 100
▁государства 100
em 100
▁Pro 100
▁Me 100
ies 100
▁came 100
▁course 100
▁health 100
▁средств 100
▁Group 100
▁means 100
▁until 100
▁legal 100
▁real 100
▁Le 100
▁education 100
сть 100
▁issues 100
▁application 100
ig 100
▁решения 100
▁3. 100
▁building 100
▁40 100
щ 100
un 100
▁• 100
▁g 100
се 100
▁города 100
▁able 100
▁Co 100
▁put 100
▁cooperation 100
▁again 100
▁Do 100
ous 100
ар 100
▁участие 100
▁Н 100
▁might 100
иль 100
▁помощью 100
пер 100
вы 100
▁большой 100
▁few 100
▁особенно 100
ации 100
ba 100
▁Israel 100
раз 100
▁получить 100
da 100
про 100
ac 100
ному 100
ton 100
▁собой 100
▁upon 100
▁внимание 100
▁Так 100
▁form 100
кс 100
▁current 100
▁provided 100
+ 100
▁young 100
▁training 100
▁Его 100
▁taken 100
▁These 100
лся 100
лю 100
▁всем 100
▁list 100
▁present 100
min 100
Э 100
▁лишь 100
ating 100
▁person 100
▁возможно 100
vi 100
▁necessary 100
▁am 100
▁better 100
U 100
▁Когда 100
▁нужно 100
▁created 100
жа 100
▁среди 100
▁became 100
▁areas 100
▁protection 100
Е 100
▁next 100
▁always 100
▁four 100
▁line 100
▁foreign 100
▁experience 100
же 100
па 100
▁основе 100
▁give 100
▁implementation 100
ol 100
ша 100
▁later 100
▁сделать 100
▁short 100
ции 100
▁мире 100
▁account 100
▁media 100
va 100
овых 100
▁всегда 100
▁Л 100
▁следует 100
ении 100
лы 100
▁far 100
▁организации 100
▁защиты 100
di 100
▁находится 100
▁growth 100
▁Mar 100
▁According 100
ут 100
▁less 100
▁€ 100
▁2000 100
▁право 100
12 100
▁вопрос 100
▁orgasm 100
▁according 100
▁Р 100
▁» 100
▁December 100
ina 100
лось 100
ca 100
▁различных 100
Z 100
▁too 100
▁regional 100
▁Moscow 100
▁там 100
▁такие 100
* 100
ex 100
ts 100
13 100
▁одной 100
▁equipment 100
▁имеют 100
▁left 100
▁60 100
▁often 100
▁политики 100
▁together 100
▁general 100
▁Из 100
ization 100
▁Commission 100
▁month 100
▁стал 100
▁role 100
▁pro 100
▁член 100
э 100
▁organizations 100
▁results 100
▁car 100
ское 100
▁due 100
os 100
▁top 100
▁Kazakhstan 100
▁site 100
▁здесь 100
ик 100
▁play 100
▁которого 100
чи 100
▁March 100
ful 100
▁дней 100
pa 100
▁проекта 100
▁space 100
15 100
ием 100
▁мне 100
▁natural 100
▁anal 100
▁дел 100
▁целях 100
ент 100
▁trade 100
60 100
▁price 100
▁research 100
one 100
лет 100
▁increase 100
▁04 100
▁него 100
▁start 100
▁measures 100
сто 100
▁America 100
▁Christian 100
▁Oil 100
▁article 100
ец 100
▁около 100
▁d 100
▁field 100
▁Free 100
▁By 100
ания 100
▁государств 100
▁love 100
% 100
www 100
▁km 100
си 100
▁До 100
▁action 100
▁away 100
▁team 100
▁speed 100
▁некоторые 100
▁material 100
▁2005 100
▁Phone 100
▁себе 100
▁Ре 100
ав 100
▁Что 100
▁week 100
40 100
land 100
80 100
▁действия 100
▁systems 100
▁доступ 100
▁resources 100
▁лиц 100
ang 100
); 100
▁total 100
▁Mo 100
▁4. 100
▁воз 100
▁known 100
ман 100
▁сиськи 100
▁поскольку 100
men 100
▁particular 100
▁Телефон 100
op 100
▁вместе 100
▁стали 100
▁уровне 100
http 100
25 100
▁Е 100
ny 100
▁sea 100
▁использования 100
▁результате 100
▁07 100
▁Our 100
▁система 100
▁offer 100
sh 100
▁third 100
▁High 100
▁death 100
цы 100
▁say 100
▁decision 100
▁member 100
▁times 100
▁населения 100
ход 100
▁новых 100
▁ваш 100
▁June 100
▁(18+) 100
▁key 100
▁Hotel 100
▁Union 100
▁Ли 100
▁пор 100
▁September 100
ак 100
▁2004 100
▁должно 100
ца 100
▁пока 100
▁онлайн 100
пе 100
ше 100
▁modern 100
▁нам 100
ni 100
▁Об 100
▁2018 100
▁II 100
▁problems 100
ро 100
▁Convention 100
▁don 100
▁His 100
▁говорит 100
net 100
00 100
▁тот 100
▁сейчас 100
▁целью 100
итель 100
▁situation 100
▁October 100
▁File 100
ус 100
▁major 100
▁город 100
▁school 100
▁November 100
les 100
18 100
▁Республики 100
▁программ 100
сь 100
▁странах 100
▁Да 100
ация 100
▁Car 100
vo 100
стр 100
мет 100
со 100
▁недели 100
per 100
▁Sa 100
▁проблемы 100
ней 100
иться 100
ред 100
▁правительства 100
▁cock 100
▁anti 100
▁never 100
▁That 100
▁HD 100
16 100
▁момент 100
▁частности 100
▁five 100
▁April 100
▁суд 100
▁З 100
лад 100
▁Под 100
▁многих 100
ум 100
ize 100
▁Con 100
мы 100
либо 100
▁La 100
▁post 100
▁weeks 100
▁цен 100
Я 100
▁настоящее 100
▁addition 100
▁быстро 100
став 100
▁решение 100
▁least 100
▁little 100
▁money 100
▁clear 100
▁Ко 100
▁хотя 100
▁groups 100
▁э 100
▁early 100
▁власти 100
▁show 100
▁continue 100
ек 100
▁люди 100
der 100
ot 100
▁Minister 100
▁inter 100
▁ass 100
▁изменения 100
▁Your 100
▁видео 100
▁Ra 100
org 100
▁needs 100
▁полностью 100
▁event 100
▁private 100
▁жизнь 100
▁этим 100
ний 100
уч 100
▁оргазм 100
17 100
▁community 100
con 100
▁peace 100
ev 100
▁работу 100
son 100
ions 100
▁ш 100
▁ходе 100
ally 100
▁Mr 100
mer 100
▁efforts 100
▁include 100
▁past 100
бо 100
▁position 100
▁позволяет 100
▁000 100
ция 100
▁whole 100
▁Она 100
▁способ 100
▁Q 100
▁established 100
▁today 100
▁дом 100
ence 100
▁low 100
▁Ma 100
▁Ка 100
вар 100
▁above 100
▁гор 100
sa 100
ясь 100
▁одним 100
▁уровня 100
▁Na 100
▁часто 100
▁Главная 100
ши 100
line 100
▁specific 100
▁South 100
ha 100
▁проблем 100
▁однако 100
вин 100
кон 100
▁received 100
ko 100
▁War 100
▁construction 100
▁personal 100
▁works 100
▁услуг 100
▁котором 100
▁например 100
▁б 100
▁words 100
▁Development 100
▁model 100
▁temperature 100
▁living 100
▁January 100
mon 100
▁i 100
од 100
▁technical 100
ды 100
▁American 100
▁history 100
▁visit 100
▁cannot 100
лу 100
▁interest 100
▁многие 100
▁мер 100
▁Li 100
▁value 100
▁certain 100
▁кон 100
▁create 100
▁developed 100
▁art 100
▁возможности 100
od 100
▁наиболее 100
▁трансы 100
▁hotel 100
ci 100
▁Striptease 100
é 100
▁дома 100
▁required 100
▁capital 100
▁companies 100
▁things 100
▁средства 100
▁слова 100
▁close 100
▁en 100
▁staff 100
▁capacity 100
▁роль 100
▁01 100
▁Ha 100
▁Ж 100
ities 100
▁developing 100
▁Этот 100
ner 100
▁society 100
ими 100
▁went 100
ится 100
▁ты 100
▁series 100
ub 100
▁During 100
ним 100
▁hard 100
▁food 100
▁32 100
▁located 100
▁population 100
▁такой 100
▁technology 100
▁процесс 100
11 100
do 100
▁having 100
жи 100
▁другой 100
▁son 100
▁problem 100
▁issue 100
▁basis 100
лин 100
▁% 100
▁мере 100
▁да 100
▁сегодня 100
▁должна 100
▁Ministry 100
▁live 100
▁care 100
▁легко 100
ией 100
▁look 100
ками 100
вид 100
01 100
ению 100
пис 100
▁began 100
ite 100
▁session 100
ень 100
▁single 100
▁ч 100
▁yet 100
▁August 100
▁range 100
▁03 100
▁Be 100
▁effective 100
▁Black 100
▁Internet 100
▁‘ 100
▁Assembly 100
▁Now 100
▁making 100
▁одного 100
ству 100
▁office 100
▁2003 100
▁Китая 100
▁группа 100
▁Jesus 100
02 100
▁cost 100
▁Ar 100
iv 100
out 100
▁however 100
▁войны 100
▁below 100
▁French 100
▁bring 100
▁travel 100
ster 100
▁From 100
▁double 100
▁respect 100
▁Ар 100
ical 100
▁self 100
ted 100
ud 100
▁затем 100
▁especially 100
▁конце 100
▁одно 100
▁Стриптиз 100
▁EU 100
ья 100
ya 100
▁reports 100
▁иметь 100
ание 100
▁Security 100
▁территории 100
ось 100
▁force 100
bo 100
▁product 100
▁производства 100
ors 100
▁цвет 100
pe 100
▁economy 100
▁bar 100
▁terms 100
▁treatment 100
▁месяц 100
▁Office 100
▁данные 100
▁projects 100
▁создания 100
▁parties 100
▁fire 100
que 100
зи 100
▁size 100
▁cases 100
Ч 100
▁Center 100
▁think 100
▁имя 100
▁strong 100
▁Some 100
▁образования 100
▁годы 100
▁стране 100
▁которую 100
ун 100
▁веб 100
▁language 100
▁Moncler 100
▁почти 100
▁sub 100
▁v 100
▁di 100
▁resolution 100
▁once 100
▁з 100
▁My 100
19 100
▁computer 100
▁таким 100
▁Snapshot 100
▁Эти 100
▁sex 100
▁Department 100
▁начала 100
▁(19 100
▁East 100
▁related 100
ила 100
▁let 100
▁08 100
▁меры 100
ah 100
▁higher 100
▁Bo 100
bi 100
▁Of 100
▁keep 100
▁black 100
▁Air 100
▁Ro 100
▁plan 100
ard 100
▁Day 100
▁cent 100
лив 100
ск 100
▁question 100
▁Y 100
▁проект 100
▁night 100
ning 100
▁persons 100
▁систем 100
▁website 100
З 100
▁mind 100
ho 100
14 100
ел 100
▁others 100
▁UN 100
▁Top 100
▁200 100
▁35 100
ика 100
ap 100
▁Ро 100
▁network 100
▁анал 100
▁programme 100
▁analysis 100
ke 100
▁City 100
▁considered 100
nd 100
▁etc 100
24 100
▁events 100
ow 100
ха 100
▁Foundation 100
▁whether 100
цев 100
ового 100
▁First 100
ических 100
▁ЕС 100
▁performance 100
▁вид 100
▁новый 100
▁Special 100
▁Bar 100
▁almost 100
▁contact 100
▁новые 100
▁**** 100
ium 100
▁Ч 100
▁property 100
09 100
▁усилия 100
▁near 100
▁кор 100
▁address 100
04 100
стер 100
▁games 100
▁-- 100
▁5. 100
▁Живо 100
▁common 100
▁easy 100
▁Dancing 100
▁сотрудничества 100
90 100
чат 100
▁child 100
▁students 100
▁age 100
▁gas 100
▁09 100
tion 100
▁individual 100
ств 100
▁facilities 100
▁offers 100
▁book 100
▁Совет 100
ические 100
▁значение 100
▁свое 100
▁Комитет 100
▁вопросы 100
tro 100
▁status 100
▁поддержки 100
▁Ролев 100
мин 100
▁именно 100
▁Де 100
оз 100
▁call 100
тели 100
дел 100
▁video 100
▁parts 100
▁эту 100
▁additional 100
▁Conference 100
▁themselves 100
▁тогда 100
▁каждый 100
▁казино 100
▁February 100
▁king 100
▁Кор 100
▁счет 100
ись 100
под 100
08 100
▁самых 100
▁ресурсов 100
▁расположен 100
▁действий 100
▁работа 100
лей 100
ским 100
▁количество 100
▁народ 100
red 100
ща 100
тен 100
▁environment 100
▁built 100
▁Ka 100
нее 100
▁Secretary 100
▁professional 100
▁оно 100
our 100
27 100
▁поэтому 100
▁done 100
▁k 100
сек 100
ера 100
;& 100
▁мест 100
ул 100
▁ряд 100
che 100
▁heart 100
▁institutions 100
ure 100
бор 100
▁wind 100
▁первый 100
by 100
аль 100
▁Man 100
▁Products 100
цион 100
▁assistance 100
▁German 100
▁meet 100
▁эта 100
▁уровень 100
▁млн 100
▁itself 100
ator 100
ek 100
▁authorities 100
▁rate 100
▁page 100
▁2002 100
▁Or 100
ники 100
▁official 100
▁интерес 100
▁activity 100
она 100
воз 100
уд 100
ron 100
ью 100
▁пол 100
▁face 100
▁Ex 100
▁большие 100
▁Ла 100
▁provides 100
овая 100
▁century 100
▁pay 100
for 100
▁Party 100
ден 100
▁правительство 100
▁knowledge 100
▁going 100
▁2001 100
ир 100
▁industry 100
ship 100
ели 100
▁machine 100
вал 100
ring 100
▁included 100
▁поддержку 100
▁теперь 100
ики 100
▁Эта 100
▁mm 100
ual 100
ирование 100
▁attention 100
▁why 100
▁Совета 100
▁Sea 100
▁президент 100
ез 100
▁воды 100
▁While 100
▁обычно 100
lu 100
▁Тем 100
▁allows 100
▁nature 100
▁открыть 100
▁некоторых 100
▁02 100
▁test 100
▁receive 100
рас 100
▁progress 100
qui 100
▁Germany 100
ры 100
▁amount 100
▁believe 100
▁деле 100
▁закон 100
ала 100
бер 100
▁Танцующие 100
▁качества 100
▁www 100
▁всё 100
лов 100
hi 100
▁Vi 100
▁film 100
▁сил 100
▁мая 100
▁имени 100
▁компьютер 100
5% 100
▁along 100
мест 100
▁father 100
йте 100
▁проведения 100
▁regard 100
▁общества 100
▁достаточно 100
▁ниже 100
▁center 100
▁check 100
▁лица 100
▁final 100
▁English 100
▁materials 100
▁rest 100
▁Bank 100
▁similar 100
гу 100
▁develop 100
70 100
Q 100
▁police 100
▁sector 100
▁Алиева 100
ился 100
▁front 100
ative 100
ключ 100
▁levels 100
▁Ма 100
▁Pi 100
▁ин 100
▁2019 100
тель 100
станов 100
▁нашей 100
▁forces 100
▁хорошо 100
au 100
ber 100
▁опыт 100
▁Снимок 100
▁вашего 100
ten 100
▁Law 100
▁subject 100
▁organization 100
▁taking 100
ова 100
ге 100
▁лучше 100
led 100
▁El 100
▁Board 100
▁тип 100
тов 100
▁half 100
45 100
бе 100
URL 100
▁floor 100
▁число 100
жен 100
▁increased 100
▁наших 100
99 100
ван 100
жд 100
▁<< 100
▁своим 100
▁секс 100
▁всей 100
tra 100
▁июля 100
ER 100
ников 100
▁относительно 100
▁международных 100
▁la 100
▁changes 100
▁complex 100
▁ф 100
▁работе 100
▁North 100
▁роста 100
▁групп 100
▁выше 100
03 100
0% 100
▁requirements 100
▁сети 100
▁выбор 100
▁июня 100
ver 100
▁lower 100
▁expected 100
▁международного 100
▁version 100
▁nuclear 100
▁компания 100
чен 100
ье 100
▁самом 100
lin 100
po 100
▁towards 100
▁анализа 100
▁установлен 100
▁popular 100
ление 100
▁lot 100
▁turn 100
▁st 100
king 100
▁Africa 100
act 100
ур 100
▁граждан 100
▁места 100
▁prevent 100
▁request 100
dy 100
35 100
▁w 100
▁экономики 100
▁Centre 100
▁Те 100
▁started 100
▁operation 100
▁season 100
▁производитель 100
▁никогда 100
▁обеспечить 100
23 100
▁features 100
65 100
▁другими 100
▁approach 100
▁Go 100
сон 100
▁investment 100
▁ним 100
ick 100
▁types 100
▁compilation 100
ились 100
▁central 100
▁пар 100
▁therefore 100
▁центр 100
ja 100
пад 100
▁благодаря 100
▁декабря 100
▁истории 100
General 100
▁risk 100
▁могли 100
▁Roleplay 100
▁само 100
ki 100
▁мм 100
▁hours 100
za 100
ab 100
▁review 100
▁план 100
zh 100
▁Box 100
mor 100
▁силы 100
▁либо 100
▁факт 100
▁найти 100
овый 100
▁Масло 100
▁sale 100
▁something 100
55 100
▁effect 100
▁music 100
ений 100
▁San 100
нес 100
▁Кон 100
▁стар 100
▁crisis 100
let 100
▁x 100
нь 100
21 100
ations 100
▁Can 100
цию 100
нут 100
0,000 100
тон 100
▁Central 100
нии 100
▁himself 100
75 100
▁unto 100
▁agreement 100
22 100
▁совет 100
way 100
▁Lu 100
▁run 100
▁former 100
▁h 100
▁kind 100
▁осуществления 100
▁six 100
▁safety 100
▁деятельность 100
ён 100
her 100
▁budget 100
ци 100
▁culture 100
▁Ни 100
▁помощь 100
▁Human 100
▁состав 100
▁ответ 100
▁ди 100
ника 100
▁услуги 100
ory 100
▁тому 100
▁Се 100
▁seven 100
gu 100
▁ever 100
32 100
ging 100
ice 100
▁положения 100
▁Pa 100
▁Court 100
ант 100
▁представлен 100
om 100
▁стол 100
▁Ю 100
▁exchange 100
ile 100
▁everything 100
▁wife 100
▁white 100
▁долл 100
26 100
▁Мо 100
▁standard 100
▁Ta 100
tor 100
url 100
▁Here 100
▁Women 100
▁процесса 100
ась 100
▁Европы 100
▁directly 100
In 100
▁France 100
▁Fingering 100
▁сентября 100
▁завод 100
▁членов 100
▁share 100
▁Open 100
▁Japan 100
▁sent 100
▁return 100
▁комплекс 100
род 100
нос 100
ается 100
▁прямо 100
▁policies 100
▁труд 100
▁amateur 100
▁трех 100
▁500 100
▁Rights 100
▁сессии 100
▁Manager 100
▁цели 100
AL 100
ide 100
▁Weather 100
▁неделю 100
▁Украины 100
▁программа 100
ста 100
▁study 100
бр 100
▁Un 100
95 100
▁transport 100
▁путем 100
▁table 100
▁годов 100
▁though 100
® 100
▁phone 100
▁род 100
[/ 100
▁says 100
▁марта 100
рез 100
▁fully 100
▁пути 100
▁rather 100
▁работ 100
▁improve 100
06 100
▁интернет 100
▁draft 100
▁Lord 100
ft 100
ическая 100
▁unique 100
▁particularly 100
скую 100
-1 100
ран 100
▁brought 100
▁base 100
▁Ti 100
▁Чтобы 100
ид 100
▁citizens 100
▁согласно 100
▁апреля 100
сп 100
▁порно 100
▁организаций 100
▁read 100
▁stay 100
▁opportunity 100
▁прежде 100
▁Рас 100
▁две 100
▁срок 100
▁allow 100
▁жопа 100
▁buy 100
вен 100
▁Po 100
су 100
▁Azerbaijan 100
бу 100
▁нескольких 100
▁ещё 100
▁seen 100
▁ex 100
▁user 100
han 100
▁последние 100
▁Code 100
▁Service 100
▁развитие 100
▁House 100
▁стандарт 100
▁bank 100
Ш 100
ug 100
AR 100
gen 100
▁recent 100
▁тысяч 100
▁чего 100
▁press 100
side 100
▁designed 100
he 100
ины 100
сс 100
▁girl 100
▁6. 100
▁точки 100
ay 100
▁основан 100
▁teen 100
▁нового 100
▁civil 100
▁More 100
▁какой 100
▁любой 100
альный 100
▁70 100
▁ground 100
”. 100
фи 100
▁representatives 100
▁1999 100
▁pair 100
EC 100
ления 100
▁рост 100
▁beginning 100
овать 100
▁Since 100
▁Са 100
изм 100
▁imp 100
▁complete 100
▁En 100
▁Jo 100
den 100
▁reason 100
хо 100
▁80 100
▁success 100
az 100
▁вос 100
ass 100
▁принять 100
▁potential 100
▁relevant 100
av 100
05 100
▁анти 100
28 100
▁ней 100
цией 100
▁conflict 100
▁collection 100
we 100
▁1998 100
▁System 100
▁практически 100
ол 100
▁campaign 100
ложен 100
▁большая 100
▁freedom 100
▁won 100
▁пост 100
▁fa 100
izing 100
▁currently 100
▁Su 100
▁move 100
▁ноября 100
▁likely 100
▁led 100
ash 100
▁choose 100
▁Также 100
▁Lo 100
▁дела 100
▁content 100
▁90 100
ler 100
html 100
▁условиях 100
ган 100
▁response 100
пи 100
▁стать 100
33 100
▁та 100
▁physical 100
▁Ko 100
▁app 100
of 100
▁Economic 100
пре 100
▁se 100
ющий 100
▁sp 100
▁Se 100
▁billion 100
▁создан 100
▁Раз 100
▁которым 100
▁Бог 100
▁ten 100
-2 100
▁Close 100
▁impact 100
ck 100
▁своем 100
▁prices 100
▁PVC 100
▁round 100
▁understand 100
▁Ку 100
ath 100
▁style 100
▁noted 100
lan 100
фа 100
Ц 100
бра 100
▁opened 100
▁Louboutin 100
▁reported 100
term 100
lic 100
29 100
▁elections 100
2) 100
▁Chinese 100
ед 100
ier 100
▁др 100
ding 100
▁свет 100
“ 100
вед 100
▁tax 100
▁framework 100
▁Zoom 100
ана 100
▁points 100
▁mature 100
▁matter 100
▁транспорт 100
ё 100
▁виде 100
ists 100
▁Пере 100
▁o 100
ast 100
ip 100
▁Sex 100
▁makes 100
▁действительно 100
▁октября 100
▁leading 100
▁users 100
38 100
▁paragraph 100
▁статьи 100
зна 100
▁relations 100
▁Christ 100
▁needed 100
▁remain 100
еж 100
37 100
▁units 100
▁типа 100
▁Ba 100
▁exhibition 100
▁Aliyev 100
▁choice 100
▁партии 100
▁click 100
▁term 100
▁either 100
рен 100
▁законодательств 100
▁continued 100
▁leaders 100
▁Mi 100
▁Ме 100
▁Japanese 100
▁Ho 100
▁программного 100
ющих 100
bb 100
ще 100
▁сын 100
▁Red 100
▁original 100
ible 100
▁исследования 100
▁really 100
34 100
▁целом 100
▁зрения 100
▁Power 100
▁Wi 100
▁hope 100
▁idea 100
▁минут 100
▁soon 100
▁simply 100
▁Погода 100
▁века 100
▁Director 100
▁сам 100
▁Gu 100
▁active 100
▁longer 100
▁этому 100
▁structure 100
▁Media 100
▁India 100
▁wide 100
▁характер 100
▁ООН 100
▁телефон 100
▁евро 100
▁Конвенции 100
07 100
▁января 100
фе 100
▁LORD 100
▁appropriate 100
▁protect 100
Ж 100
▁самым 100
pro 100
▁... 100
▁domestic 100
▁drive 100
▁качество 100
▁enough 100
▁линии 100
▁box 100
▁актив 100
▁второй 100
▁lack 100
▁feel 100
”, 100
▁бесплатно 100
▁thought 100
▁IP 100
▁часов 100
▁Then 100
lv 100
▁составляет 100
io 100
0000 100
▁learn 100
см 100
▁saw 100
▁purpose 100
▁вклад 100
▁PC 100
500 100
тся 100
▁Federation 100
▁states 100
▁33 100
▁pressure 100
): 100
IS 100
▁Sha 100
▁первого 100
▁White 100
▁supply 100
ik 100
▁отношения 100
▁difficult 100
▁1997 100
port 100
ee 100
▁British 100
▁мо 100
▁act 100
▁Хотя 100
▁кв 100
енные 100
▁Некоторые 100
▁direct 100
▁номер 100
▁West 100
▁Кар 100
▁36 100
tri 100
▁violence 100
▁true 100
▁credit 100
36 100
▁scientific 100
▁steel 100
▁accordance 100
тро 100
▁стала 100
кий 100
fi 100
▁различные 100
▁каждого 100
▁select 100
▁costs 100
▁surface 100
fer 100
▁presented 100
▁word 100
end 100
▁договор 100
▁significant 100
▁text 100
▁работает 100
▁силу 100
▁получил 100
ct 100
▁Поэтому 100
▁48 100
чер 100
▁carried 100
br 100
ров 100
аются 100
▁1996 100
▁election 100
▁одна 100
его 100
85 100
▁multi 100
оль 100
▁Organization 100
▁participants 100
▁слишком 100
tin 100
▁lead 100
лон 100
▁34 100
▁stage 100
образ 100
▁Asian 100
▁court 100
▁card 100
ирования 100
▁центра 100
ад 100
▁thing 100
▁контроля 100
стра 100
▁rooms 100
три 100
rov 100
▁ма 100
ена 100
▁Ра 100
▁decided 100
▁основных 100
▁rules 100
▁John 100
▁начать 100
изации 100
▁adopted 100
рон 100
▁Art 100
▁готов 100
ках 100
атель 100
▁date 100
▁conference 100
▁cut 100
▁published 100
▁connection 100
▁45 100
▁То 100
▁создать 100
▁Per 100
▁Ру 100
▁Пол 100
▁red 100
▁па 100
ющие 100
▁quickly 100
▁Asia 100
tal 100
илась 100
ping 100
▁cultural 100
кор 100
▁enjoy 100
▁ис 100
▁использование 100
▁Men 100
▁stop 100
▁Fund 100
▁сборник 100
▁bodies 100
ены 100
▁sh 100
▁представляет 100
php 100
ise 100
▁sc 100
ический 100
▁Room 100
▁месте 100
ски 100
▁cause 100
▁сторон 100
▁outside 100
▁сообщения 100
▁предлагает 100
▁host 100
▁sound 100
▁создание 100
ana 100
ens 100
▁объем 100
▁Президент 100
▁анализ 100
▁море 100
▁пресс 100
▁доступа 100
▁Ca 100
▁Вблизи 100
▁moment 100
▁применения 100
ёр 100
▁Ri 100
val 100
▁operations 100
▁practice 100
▁общественн 100
▁mass 100
▁выход 100
гер 100
▁Интернет 100
▁наши 100
▁debt 100
▁Games 100
▁https 100
▁apartment 100
▁nothing 100
▁send 100
▁300 100
▁службы 100
хи 100
айте 100
▁participation 100
▁1995 100
▁Ди 100
▁касается 100
time 100
▁Other 100
▁Article 100
▁обеспечение 100
▁contract 100
бы 100
▁comes 100
ever 100
▁внутри 100
▁Act 100
wi 100
▁inside 100
ai 100
емых 100
du 100
аться 100
▁проектов 100
▁beautiful 100
▁означает 100
▁сфере 100
pl 100
,” 100
ической 100
▁см 100
▁reduce 100
ology 100
▁rule 100
si 100
клад 100
ob 100
▁includes 100
жив 100
▁highly 100
▁тур 100
рис 100
▁университет 100
▁бо 100
31 100
▁информация 100
стан 100
▁competition 100
64 100
▁Сан 100
▁Pre 100
лага 100
▁thousand 100
▁unit 100
▁степени 100
▁Су 100
ze 100
▁weather 100
лем 100
стве 100
▁бизнес 100
▁programmes 100
▁происходит 100
mi 100
▁благо 100
▁Иисус 100
▁7. 100
▁whose 100
▁Museum 100
▁технологии 100
гра 100
IC 100
▁резолюции 100
▁оборудования 100
▁ла 100
▁органов 100
sha 100
▁promote 100
▁друг 100
▁бюджет 100
uk 100
▁Ad 100
▁случаях 100
▁Европе 100
▁рук 100
▁заявил 100
kin 100
▁целей 100
ins 100
ph 100
▁делать 100
▁wrong 100
▁состоит 100
▁Ц 100
▁minutes 100
▁standards 100
▁SheShaft 100
▁семей 100
▁mother 100
▁1990 100
har 100
▁actions 100
▁1994 100
▁throughout 100
\ 100
▁начале 100
-19 100
[ 100
▁38 100
▁„ 100
▁км 100
▁across 100
▁Увеличение 100
▁расширение 100
▁Android 100
▁alternative 100
▁список 100
100 100
▁thus 100
▁модели 100
▁mouth 100
▁importance 100
top 100
▁blood 100
▁players 100
▁ум 100
▁documents 100
▁basic 100
art 100
▁master 100
▁Мастурбация 100
▁behind 100
яв 100
▁Ан 100
▁step 100
год 100
▁poor 100
▁высоко 100
▁Her 100
▁развитию 100
▁author 100
sky 100
tu 100
▁Пред 100
▁existing 100
▁warm 100
▁культур 100
▁муж 100
▁существует 100
▁please 100
▁новой 100
▁Institute 100
rd 100
▁президента 100
▁воздуха 100
це 100
▁News 100
▁Бо 100
▁норм 100
year 100
▁снова 100
▁simple 100
▁долларов 100
▁подробн 100
▁build 100
▁told 100
old 100
▁отчет 100
аем 100
▁достижения 100
▁автор 100
еры 100
▁первой 100
▁gold 100
▁Heydar 100
▁Church 100
эн 100
▁электро 100
over 100
▁source 100
▁mo 100
ell 100
Ю 100
▁получения 100
▁вес 100
▁Ле 100
▁решений 100
рам 100
▁Ne 100
▁wish 100
▁ничего 100
use 100
▁постоянно 100
▁Россия 100
▁town 100
атор 100
▁Ch 100
мм 100
▁Ab 100
▁делает 100
▁подход 100
▁вновь 100
:30 100
▁вне 100
▁fear 100
ацию 100
day 100
▁прогноз 100
▁color 100
▁стало 100
▁asked 100
▁февраля 100
▁всю 100
▁указан 100
▁иностранных 100
вести 100
▁Today 100
▁дело 100
▁используется 100
eth 100
▁культуры 100
мент 100
▁gave 100
yl 100
67 100
▁code 100
прежнему 100
смотря 100
▁cities 100
ями 100
енных 100
▁8. 100
69 100
▁class 100
▁необходимости 100
▁Google 100
ём 100
▁associated 100
▁effects 100
▁president 100
▁friends 100
▁точно 100
▁тр 100
▁rates 100
▁Германии 100
▁server 100
▁основном 100
▁Porn 100
▁женщины 100
▁lost 100
▁Je 100
2. 100
ey 100
based 100
▁клиентов 100
▁attack 100
▁работать 100
▁городе 100
▁среды 100
▁correct 100
▁proposed 100
▁r 100
лан 100
▁наш 100
▁фото 100
▁avoid 100
▁построен 100
олог 100
▁любительское 100
▁Ин 100
▁технологий 100
▁District 100
гор 100
▁связанные 100
▁released 100
▁Гейдара 100
▁centre 100
▁add 100
▁серии 100
дей 100
тра 100
▁сайт 100
зы 100
▁текст 100
ического 100
▁числа 100
97 100
оп 100
▁Online 100
лом 100
поль 100
▁traditional 100
▁обеспечивает 100
знач 100
▁оценки 100
▁greater 100
ack 100
кан 100
ятся 100
▁мало 100
▁met 100
▁торговли 100
▁крас 100
int 100
▁Great 100
ps 100
▁leader 100
▁OEM 100
мор 100
▁Таким 100
▁метод 100
▁большинство 100
39 100
IN 100
▁King 100
▁entire 100
сы 100
▁whom 100
▁разработан 100
▁movement 100
ница 100
вой 100
ral 100
▁жив 100
▁medical 100
ach 100
▁условия 100
▁вопросов 100
▁Dildo 100
тан 100
▁Азии 100
▁joint 100
▁environmental 100
цен 100
▁deep 100
▁посвящен 100
альные 100
▁контроль 100
▁sense 100
▁elements 100
▁largest 100
▁центре 100
порт 100
qu 100
лия 100
▁administration 100
▁station 100
изма 100
AS 100
▁систему 100
ять 100
ung 100
▁Ха 100
2, 100
▁leave 100
q 100
▁сотрудников 100
iz 100
▁Public 100
кры 100
▁added 100
▁мастер 100
▁широко 100
▁Best 100
▁l 100
▁Га 100
▁named 100
▁fall 100
ns 100
▁х 100
▁organized 100
▁бр 100
sion 100
66 100
▁nor 100
1) 100
gar 100
▁Anal 100
▁августа 100
▁мед 100
▁Bag 100
▁выборов 100
▁бел 100
▁подготовки 100
▁Ð 100
ight 100
▁news 100
▁учетом 100
ителя 100
so 100
▁такое 100
ES 100
▁function 100
▁spirit 100
▁умер 100
ong 100
We 100
▁оружия 100
EN 100
форм 100
▁рабочих 100
▁реализации 100
48 100
▁ними 100
овое 100
▁format 100
ска 100
set 100
▁positive 100
▁Господь 100
▁Fiber 100
▁блок 100
▁поставщик 100
je 100
бли 100
▁Latvia 100
▁consider 100
56 100
▁доступны 100
▁involved 100
▁try 100
▁written 100
96 100
ари 100
▁Vibrator 100
▁Дилдо 100
ica 100
альная 100
▁правило 100
▁Бар 100
▁sure 100
▁download 100
▁People 100
говор 100
▁ста 100
иц 100
́ 100
tan 100
▁bathroom 100
▁Region 100
▁solution 100
▁remains 100
▁Запад 100
▁road 100
▁takes 100
ven 100
▁factory 100
ou 100
ino 100
гн 100
▁несмотря 100
▁явля 100
▁methods 100
▁condition 100
ability 100
▁variety 100
лик 100
▁ways 100
▁бес 100
▁ситуации 100
▁Company 100
▁кол 100
▁eyes 100
▁реформ 100
▁Анал 100
ger 100
▁mis 100
▁форм 100
▁37 100
ery 100
▁Arab 100
tr 100
▁сбор 100
▁особо 100
▁providing 100
том 100
▁files 100
▁необходимость 100
▁Sp 100
▁Iran 100
:10 100
рей 100
▁Information 100
▁lines 100
▁workers 100
▁ту 100
▁release 100
▁Inter 100
▁Согласн 100
▁экономического 100
ms 100
▁ж 100
▁Park 100
▁extension 100
44 100
▁вод 100
мат 100
▁customers 100
▁вет 100
ич 100
▁Social 100
▁Br 100
▁начал 100
▁Сегодня 100
▁доклад 100
▁got 100
нт 100
ep 100
▁science 100
▁reform 100
▁method 100
▁plant 100
▁foot 100
▁бар 100
▁совершен 100
OR 100
uck 100
▁результаты 100
ешь 100
fa 100
▁vi 100
▁independent 100
istic 100
▁Фонд 100
ещ 100
▁пара 100
▁south 100
▁Ja 100
▁saying 100
▁отдел 100
unt 100
▁device 100
▁cumshot 100
▁хотите 100
▁creation 100
▁движения 100
▁четыре 100
ете 100
▁Management 100
▁путь 100
ley 100
▁cross 100
ill 100
OS 100
▁quite 100
▁мой 100
▁Мир 100
chi 100
pt 100
тур 100
▁участия 100
▁plans 100
▁карт 100
▁можем 100
▁энергии 100
▁структур 100
▁Ga 100
▁looking 100
▁religious 100
ward 100
▁successful 100
▁окружающей 100
▁торгов 100
▁материалов 100
▁материал 100
▁49 100
▁break 100
TA 100
ious 100
▁частью 100
▁Poker 100
▁photo 100
тар 100
hy 100
▁image 100
▁legislation 100
стей 100
чин 100
68 100
▁Pe 100
▁announced 100
▁Even 100
▁race 100
лер 100
▁продукта 100
ement 100
▁полу 100
▁мог 100
uch 100
▁late 100
▁path 100
▁length 100
ировал 100
▁рынка 100
nce 100
▁Support 100
▁Бога 100
▁weapons 100
▁статус 100
▁комитет 100
инг 100
▁limited 100
work 100
▁territory 100
▁предприятия 100
ova 100
нет 100
mar 100
if 100
ог 100
рав 100
▁смерти 100
▁мужчин 100
▁al 100
▁мировой 100
▁Fa 100
▁paper 100
▁responsible 100
88 100
▁hands 100
▁правила 100
▁gr 100
гла 100
▁состоянии 100
▁Всемирн 100
▁другим 100
▁pass 100
▁связанных 100
гар 100
мир 100
вяз 100
▁продукции 100
▁Па 100
ably 100
▁Хо 100
▁Use 100
▁Центра 100
▁Sun 100
▁пи 100
▁направлен 100
▁150 100
▁im 100
▁Hot 100
▁Not 100
nes 100
ff 100
▁Америки 100
▁previous 100
▁watch 100
US 100
▁influence 100
ction 100
▁Configuration 100
▁общего 100
° 100
▁ей 100
▁document 100
86 100
rt 100
▁regime 100
▁последствия 100
▁весьма 100
▁семьи 100
лич 100
jo 100
ило 100
▁нашего 100
Fi 100
▁1993 100
▁woman 100
▁forms 100
▁рынке 100
▁agreed 100
овал 100
▁специально 100
▁труда 100
▁goods 100
▁School 100
▁fight 100
mail 100
вест 100
▁forward 100
89 100
▁ready 100
▁Moldova 100
▁internal 100
▁расходов 100
▁зависимости 100
▁mobile 100
▁concerned 100
▁Many 100
▁Александр 100
▁components 100
▁народа 100
▁девушка 100
▁правам 100
▁serious 100
▁store 100
раж 100
▁оп 100
▁village 100
▁couple 100
▁Более 100
▁note 100
▁questions 100
енный 100
▁blowjob 100
▁follow 100
▁experts 100
▁perfect 100
oo 100
▁signed 100
На 100
:11 100
▁раздел 100
дать 100
Ð 100
▁помочь 100
ble 100
gg 100
дро 100
gi 100
телей 100
▁деньги 100
▁transfer 100
▁manufacturer 100
▁наук 100
▁Mac 100
car 100
/? 100
▁ограничен 100
▁criminal 100
▁counter 100
▁Big 100
▁li 100
ях 100
▁меньше 100
▁Analysis 100
▁Нью 100
▁политических 100
зер 100
▁meetings 100
▁Is 100
ическое 100
▁porn 100
49 100
AN 100
▁региона 100
ших 100
▁предложения 100
▁shows 100
▁Ukrainian 100
▁markets 100
▁via 100
▁такого 100
mb 100
▁Please 100
▁становится 100
▁250 100
▁использует 100
▁client 100
▁summer 100
▁Ст 100
ско 100
кам 100
kov 100
▁exactly 100
▁язык 100
▁дизайн 100
sis 100
▁Например 100
▁события 100
▁Бр 100
шен 100
▁вероятно 100
cy 100
ован 100
LE 100
mit 100
▁playing 100
▁income 100
▁пять 100
† 100
▁Server 100
▁Лу 100
▁ибо 100
▁Water 100
# 100
▁search 100
ирует 100
▁тела 100
▁hot 100
▁places 100
▁международной 100
▁секунд 100
▁Размер 100
▁church 100
fe 100
▁теле 100
▁изменить 100
▁Da 100
▁Ал 100
▁regions 100
oc 100
▁section 100
res 100
▁programs 100
▁director 100
▁Year 100
lip 100
▁strategy 100
▁видов 100
▁weight 100
▁земле 100
▁player 100
▁famous 100
▁funds 100
анд 100
▁(1 100
▁игр 100
47 100
▁кредит 100
▁York 100
▁fat 100
TM 100
▁expressed 100
ming 100
▁категории 100
пред 100
mg 100
кв 100
гр 100
van 100
▁равно 100
▁ваши 100
▁сделал 100
▁pool 100
зд 100
▁safe 100
▁repair 100
72 100
ций 100
▁стро 100
▁screen 100
▁Сам 100
▁национальных 100
▁разных 100
▁Two 100
tain 100
▁coming 100
57 100
▁details 100
▁club 100
▁north 100
▁Ло 100
ген 100
▁Head 100
ix 100
▁na 100
▁искусства 100
▁ран 100
▁играть 100
▁получен 100
▁сайта 100
▁программу 100
tt 100
▁стоит 100
▁Генеральной 100
▁протяжении 100
▁hair 100
▁голов 100
▁Центр 100
▁sun 100
▁useful 100
нем 100
▁Western 100
▁Время 100
▁закона 100
-3 100
▁переход 100
▁skin 100
аж 100
▁African 100
▁principles 100
bu 100
ании 100
По 100
▁demand 100
vent 100
▁schools 100
▁Jerusalem 100
off 100
▁agencies 100
▁мероприятий 100
▁operating 100
ование 100
обра 100
▁communication 100
▁Member 100
▁allowed 100
дар 100
▁focus 100
▁Color 100
▁title 100
▁Генерального 100
ост 100
▁damage 100
▁авто 100
:15 100
▁север 100
71 100
▁goal 100
▁проч 100
▁reality 100
груз 100
ham 100
▁земли 100
дж 100
стро 100
62 100
▁моря 100
▁wall 100
енная 100
▁положение 100
▁win 100
сел 100
▁общей 100
▁command 100
▁Закон 100
▁лес 100
▁участников 100
дов 100
▁вашем 100
▁huge 100
▁причин 100
▁track 100
▁died 100
▁ability 100
fin 100
▁Spirit 100
▁борьбе 100
▁voice 100
▁зрелые 100
▁цены 100
▁hold 100
▁Thus 100
▁responsibility 100
▁42 100
▁регионе 100
▁monitoring 100
▁ye 100
▁дал 100
▁функции 100
▁очередь 100
▁Although 100
▁производство 100
▁story 100
▁Di 100
▁location 100
▁Star 100
▁Affairs 100
?" 100
▁оборудование 100
▁режим 100
ib 100
▁Фонда 100
▁39 100
ева 100
▁educational 100
▁конференции 100
▁David 100
▁приложение 100
▁rise 100
▁Most 100
▁Model 100
▁премьер 100
кар 100
▁разум 100
▁Association 100
▁Камелтое 100
▁kitchen 100
▁включает 100
▁spiritual 100
▁известно 100
Re 100
▁message 100
▁Hu 100
▁профессионально 100
▁concept 100
▁минет 100
▁Вам 100
ON 100
ностью 100
▁Теперь 100
▁соответствующих 100
▁JizzBunker 100
▁battle 100
▁regular 100
nt 100
ric 100
▁роли 100
▁сильно 100
▁тоже 100
▁stated 100
part 100
▁Georgia 100
▁forest 100
▁Gra 100
▁technologies 100
▁питания 100
▁produce 100
▁поводу 100
▁Travel 100
93 100
▁эффект 100
▁кризис 100
анию 100
▁значительно 100
▁вашей 100
▁призыв 100
▁компаний 100
ld 100
▁сказать 100
▁пер 100
▁brand 100
ата 100
бл 100
52 100
:12 100
AT 100
▁establishment 100
шел 100
▁продуктов 100
▁export 100
пу 100
91 100
▁важно 100
▁infrastructure 100
▁Working 100
ID 100
ита 100
▁чист 100
▁поле 100
▁reach 100
▁USB 100
ified 100
▁block 100
▁непосредственно 100
▁принятия 100
ланд 100
сла 100
▁демократ 100
▁$1 100
▁usually 100
▁Sh 100
▁commercial 100
гл 100
▁clean 100
▁hotels 100
wa 100
▁Мон 100
ители 100
▁фотографии 100
▁Iraq 100
▁interests 100
▁Du 100
▁Soviet 100
▁офис 100
▁Ис 100
len 100
rate 100
▁сельско 100
▁Also 100
▁Fe 100
▁train 100
▁Та 100
▁боль 100
▁местах 100
▁Франции 100
ments 100
000 100
▁клуб 100
▁statement 100
▁системе 100
▁paid 100
▁sign 100
▁highest 100
верх 100
rist 100
центр 100
:19 100
76 100
▁regarding 100
▁easily 100
2% 100
▁sustainable 100
43 100
▁Би 100
▁программе 100
▁reached 100
▁district 100
▁любом 100
▁Pandora 100
dic 100
RI 100
▁статье 100
следов 100
▁мероприятия 100
▁earth 100
оф 100
▁Ча 100
▁turned 100
▁immediately 100
▁begin 100
▁секретаря 100
▁appear 100
ef 100
▁promotion 100
▁option 100
бил 100
▁App 100
▁Inflatable 100
охран 100
уж 100
дут 100
▁Казахстан 100
▁1992 100
▁enable 100
▁Light 100
▁skills 100
press 100
▁вот 100
▁исследований 100
▁обслуживания 100
▁Under 100
▁множество 100
▁нем 100
59 100
дал 100
▁обзор 100
▁высокого 100
жение 100
42 100
▁enter 100
бол 100
▁тебя 100
▁doesn 100
▁команд 100
EL 100
46 100
▁trust 100
▁запад 100
▁contains 100
▁вокруг 100
ителей 100
:20 100
ara 100
78 100
▁рот 100
▁находятся 100
▁benefits 100
▁ком 100
▁Си 100
▁суда 100
all 100
▁пакет 100
уз 100
cul 100
▁speak 100
▁курс 100
RE 100
емые 100
▁banks 100
дель 100
vel 100
▁Foreign 100
bit 100
form 100
▁industrial 100
▁concerning 100
▁Fi 100
▁opening 100
▁task 100
▁growing 100
чив 100
▁installation 100
▁процессе 100
41 100
нный 100
▁Trans 100
ological 100
▁prepared 100
▁metal 100
▁университета 100
жим 100
▁achieve 100
▁solutions 100
▁mission 100
вет 100
▁Мар 100
▁limit 100
▁played 100
:14 100
▁loss 100
▁ma 100
▁взгляд 100
▁гг 100
200 100
▁своими 100
▁Business 100
▁размер 100
▁обмен 100
ряд 100
▁III 100
ped 100
▁Производители 100
RA 100
▁Son 100
▁issued 100
▁accept 100
▁supported 100
▁OF 100
▁applications 100
▁values 100
ест 100
▁evidence 100
▁почему 100
▁Serbia 100
вес 100
▁обо 100
▁provisions 100
▁practical 100
▁processes 100
▁120 100
чита 100
кт 100
▁born 100
▁devices 100
▁Пре 100
альных 100
pi 100
▁вопросу 100
▁establish 100
▁принял 100
▁пяти 100
▁ro 100
быт 100
▁орган 100
▁tour 100
▁вывод 100
▁Am 100
▁следующие 100
▁примерно 100
▁stand 100
▁Global 100
▁продукты 100
▁although 100
дор 100
▁повышения 100
▁Up 100
▁majority 100
ants 100
▁41 100
▁всему 100
▁Contact 100
▁Euro 100
▁заключается 100
serv 100
big 100
▁Add 100
вел 100
ng 100
>> 100
▁код 100
▁духов 100
▁recommendations 100
▁Гу 100
▁нами 100
▁tell 100
my 100
юр 100
CE 100
дра 100
▁door 100
▁процентов 100
▁класс 100
▁Play 100
▁отметил 100
▁документ 100
▁park 100
▁удар 100
ec 100
82 100
▁winter 100
▁display 100
▁млрд 100
▁save 100
▁считает 100
▁ho 100
▁solo 100
ran 100
▁отношений 100
▁точка 100
▁бу 100
ющихся 100
▁returned 100
▁super 100
▁ос 100
▁object 100
▁Product 100
▁годах 100
▁cover 100
чет 100
▁lives 100
ует 100
▁climate 100
▁пользователей 100
▁Georgian 100
▁origin 100
3% 100
ku 100
▁board 100
▁разработки 100
▁Turkey 100
▁customer 100
тя 100
▁produced 100
▁ПК 100
сайт 100
▁условий 100
▁IN 100
ok 100
98 100
▁comp 100
4) 100
als 100
:25 100
ani 100
▁сайте 100
▁steps 100
остью 100
строй 100
▁· 100
рыв 100
▁partners 100
ением 100
▁представителей 100
▁domain 100
▁worked 100
▁bit 100
▁Grand 100
▁context 100
▁offered 100
пар 100
▁delegation 100
▁политической 100
:13 100
:17 100
ющего 100
дан 100
ea 100
▁items 100
▁матери 100
▁balance 100
▁Sub 100
ву 100
▁Пе 100
▁hundred 100
▁distribution 100
▁конечно 100
58 100
бир 100
61 100
ade 100
mp 100
▁представитель 100
теля 100
▁соглашения 100
▁character 100
▁Комиссии 100
| 100
▁installed 100
▁л 100
▁Ми 100
board 100
gn 100
твор 100
á 100
79 100
▁экономической 100
ake 100
стран 100
ren 100
▁benefit 100
ker 100
▁выполнения 100
▁Ба 100
▁прост 100
54 100
▁обучения 100
▁Programme 100
its 100
Ñ 100
▁47 100
87 100
служ 100
▁тра 100
вшие 100
▁recommend 100
▁rating 100
▁миллионов 100
▁Gold 100
▁Over 100
lar 100
▁успешно 100
▁preparation 100
▁charge 100
вали 100
▁весь 100
▁Microsoft 100
▁устройства 100
▁star 100
▁island 100
▁школы 100
▁высокой 100
▁главным 100
▁масштаб 100
▁ha 100
▁экспорт 100
▁opinion 100
▁everyone 100
▁проведен 100
Ы 100
▁dress 100
▁participate 100
▁chance 100
▁planning 100
▁Ben 100
▁increasing 100
▁extra 100
▁кри 100
ification 100
пт 100
▁spread 100
▁Factory 100
▁shown 100
ора 100
▁чат 100
▁sky 100
▁сектора 100
▁Грузии 100
▁вз 100
ised 100
▁пользователя 100
▁forecast 100
▁presence 100
▁supplier 100
▁*** 100
cha 100
ING 100
low 100
▁Мак 100
▁роз 100
щи 100
▁Machine 100
▁Health 100
▁band 100
▁secret 100
▁Prime 100
▁fast 100
▁меж 100
▁правил 100
63 100
77 100
▁посредством 100
ient 100
▁директор 100
▁Че 100
▁Each 100
▁link 100
84 100
▁Здесь 100
▁обработки 100
▁average 100
▁web 100
8% 100
▁самого 100
▁laws 100
ries 100
ctor 100
▁shoes 100
▁consideration 100
▁Za 100
@ 100
▁часы 100
cal 100
▁процедур 100
▁Size 100
zi 100
▁separate 100
ates 100
air 100
▁образование 100
▁pe 100
▁strategic 100
▁дли 100
AP 100
▁Ор 100
▁Work 100
des 100
▁po 100
▁Cl 100
▁annual 100
▁64 100
73 100
▁установки 100
▁микро 100
сов 100
▁Paul 100
вит 100
▁влияние 100
дол 100
▁ранее 100
ks 100
▁assist 100
▁mode 100
▁100% 100
▁require 100
▁сравнению 100
▁двумя 100
▁vote 100
▁температуры 100
pr 100
▁CE 100
овым 100
▁возможностей 100
▁walk 100
▁representative 100
▁bad 100
▁ру 100
▁сер 100
▁душ 100
51 100
▁социальных 100
▁Middle 100
▁Design 100
▁металл 100
▁deal 100
▁Комитета 100
▁heat 100
▁соло 100
ris 100
▁станет 100
▁Main 100
▁pi 100
▁Сербии 100
▁moved 100
▁Project 100
▁Book 100
▁заказ 100
▁beauty 100
▁Facebook 100
бит 100
▁Putin 100
▁Bi 100
▁первом 100
IA 100
▁understanding 100
▁record 100
pan 100
:18 100
▁Cameltoe 100
▁sometimes 100
▁decisions 100
ST 100
▁feet 100
tur 100
back 100
ater 100
▁completely 100
▁периода 100
▁9. 100
▁soul 100
▁casino 100
▁strength 100
▁decide 100
tel 100
▁equipped 100
▁exercise 100
▁первым 100
▁expect 100
▁мастурбация 100
▁слово 100
▁получает 100
▁размере 100
▁Titan 100
▁Har 100
▁job 100
▁procedure 100
▁heard 100
кер 100
▁individuals 100
▁ответственность 100
кро 100
▁maintenance 100
▁сразу 100
▁здоровья 100
▁ло 100
ват 100
▁той 100
▁достиг 100
▁самое 100
▁target 100
▁мнению 100
▁предназначен 100
▁officials 100
▁комната 100
▁cable 100
▁bus 100
▁electronic 100
▁жил 100
лит 100
▁Ри 100
пуск 100
▁doing 100
▁volume 100
иф 100
щая 100
▁долго 100
▁одну 100
▁Китае 100
ес 100
lea 100
▁actually 100
▁killed 100
сад 100
▁update 100
vis 100
▁экс 100
▁apply 100
mat 100
▁финансовых 100
▁changed 100
▁мол 100
▁distance 100
▁кроме 100
▁Mon 100
▁recommended 100
▁Second 100
▁каждой 100
лат 100
▁всеми 100
vers 100
dia 100
▁UK 100
▁Безопасности 100
▁400 100
▁Egypt 100
▁отдыха 100
▁delivery 100
▁truth 100
▁комиссии 100
nic 100
▁completed 100
▁альтернатив 100
мед 100
▁conducted 100
чь 100
▁applied 100
tle 100
▁1980 100
-20 100
▁противо 100
▁Вибратор 100
ste 100
▁processing 100
▁Российской 100
ew 100
фер 100
▁mean 100
▁рядом 100
▁бед 100
▁Федерации 100
▁бонус 100
ющая 100
ue 100
меш 100
▁Therefore 100
▁platform 100
▁Father 100
▁принимать 100
▁girls 100
▁самой 100
мон 100
:1 100
нер 100
▁контакт 100
шей 100
▁massage 100
чу 100
53 100
1% 100
▁избран 100
▁предлагаем 100
▁advanced 100
▁государственных 100
▁транс 100
▁социально 100
дав 100
▁dry 100
очный 100
▁London 100
▁сотрудничество 100
▁Italy 100
▁seek 100
▁gives 100
▁Anti 100
▁требует 100
book 100
▁приоритет 100
▁tool 100
▁seems 100
▁Kingdom 100
нул 100
бин 100
▁carry 100
▁расширения 100
▁номера 100
▁Кол 100
▁See 100
▁instead 100
▁файле 100
▁stock 100
реб 100
▁youth 100
▁Dr 100
▁Ки 100
участник 100
▁green 100
рев 100
NA 100
92 100
▁сердце 100
▁Green 100
▁aimed 100
▁цель 100
▁principle 100
▁формы 100
▁насилия 100
ag 100
ологии 100
кол 100
▁masturbation 100
▁ad 100
▁предложение 100
вать 100
быч 100
▁Стар 100
ающих 100
▁хотел 100
▁представить 100
94 100
тин 100
▁фонд 100
пр 100
▁Video 100
▁album 100
▁Parliament 100
тр 100
▁serve 100
▁fine 100
▁border 100
girl 100
▁served 100
▁задач 100
uc 100
▁window 100
▁conduct 100
can 100
исты 100
▁authority 100
▁Wa 100
▁семь 100
▁словам 100
▁совершенно 100
▁потенциала 100
ницы 100
▁perform 100
▁потом 100
пас 100
▁адрес 100
▁Многие 100
▁назначен 100
▁использованием 100
ируем 100
цов 100
▁сектор 100
▁Master 100
▁army 100
ware 100
цу 100
▁союз 100
▁payment 100
▁gender 100
▁minister 100
pri 100
▁Ак 100
▁руки 100
жил 100
▁followed 100
▁Parties 100
fu 100
▁square 100
▁running 100
zz 100
вол 100
▁par 100
ющиеся 100
▁equal 100
▁свободы 100
▁пояс 100
уб 100
хан 100
▁валют 100
▁дает 100
▁знак 100
нуть 100
▁сад 100
▁(2 100
▁Полу 100
ski 100
▁match 100
▁offering 100
▁Name 100
▁Аль 100
▁powerful 100
▁народов 100
▁поддержке 100
▁стратегии 100
▁Silver 100
▁n 100
eva 100
lor 100
▁немного 100
▁procedures 100
▁cl 100
▁районе 100
▁Cha 100
▁результат 100
house 100
▁водо 100
фор 100
▁department 100
▁1991 100
▁языке 100
▁сообщает 100
▁possibility 100
▁daily 100
ari 100
sur 100
▁Tri 100
▁Сер 100
:31 100
▁external 100
▁Moreover 100
▁implement 100
▁Com 100
▁результатов 100
/# 100
1. 100
tre 100
iti 100
▁para 100
▁комитета 100
eng 100
▁след 100
▁described 100
оле 100
▁побед 100
▁правильно 100
▁ask 100
▁claim 100
▁fish 100
▁политика 100
▁comprehensive 100
▁maximum 100
▁Italian 100
▁мин 100
▁Wall 100
▁direction 100
ович 100
▁впервые 100
:01 100
▁sites 100
room 100
ас 100
▁maintain 100
▁committed 100
▁settings 100
крас 100
74 100
free 100
▁Дан 100
▁families 100
▁борьбы 100
▁отсутствие 100
▁Earth 100
кова 100
мена 100
▁управление 100
▁остается 100
▁guide 100
▁му 100
слов 100
:22 100
ющим 100
▁mid 100
:16 100
▁принцип 100
▁** 100
▁cr 100
▁Korea 100
▁организован 100
▁ideal 100
раб 100
▁цвета 100
▁здравоохранения 100
▁Есть 100
▁бизнеса 100
▁recently 100
▁совместно 100
▁Non 100
▁deliver 100
▁включен 100
▁соответствующим 100
▁happy 100
▁furniture 100
▁poverty 100
▁morning 100
ators 100
▁yourself 100
file 100
:21 100
пут 100
▁views 100
▁Вер 100
like 100
▁будущем 100
▁ради 100
▁свобод 100
▁wood 100
ves 100
▁advance 100
▁approved 100
▁экспертов 100
▁промышленности 100
▁acts 100
▁черный 100
▁2- 100
▁говорил 100
ned 100
gue 100
▁provision 100
▁bed 100
▁fuel 100
сер 100
ray 100
pre 100
нич 100
▁milf 100
fect 100
▁comment 100
▁одном 100
▁cold 100
ший 100
▁общин 100
▁informed 100
▁sexual 100
ken 100
▁functions 100
вшихся 100
cu 100
сен 100
▁Украине 100
6% 100
пл 100
▁дорог 100
▁идет 100
▁creating 100
каз 100
▁Airport 100
▁случаев 100
др 100
▁sports 100
иров 100
-4 100
▁Extension 100
ME 100
▁кар 100
▁Ша 100
▁требования 100
▁поли 100
▁банка 100
▁плана 100
лев 100
▁пят 100
▁Район 100
▁launched 100
3) 100
▁представители 100
▁обслуживание 100
▁Cor 100
▁миру 100
▁opportunities 100
▁опубликован 100
▁скорее 100
▁license 100
▁degree 100
▁submitted 100
▁автоматически 100
▁экономических 100
▁Love 100
▁машин 100
▁XXXDan 100
▁раза 100
▁55 100
▁Web 100
ā 100
▁Club 100
▁rich 100
▁Hand 100
министр 100
index 100
med 100
мп 100
▁Вот 100
▁fundamental 100
▁assessment 100
▁детали 100
ans 100
▁clients 100
▁efficiency 100
▁daughter 100
▁anything 100
head 100
▁load 100
▁действие 100
▁employment 100
ования 100
▁любые 100
дон 100
▁социальной 100
andex 100
▁deposit 100
▁форме 100
▁Paris 100
▁sources 100
▁express 100
кров 100
▁Services 100
▁лице 100
▁43 100
▁Such 100
▁appeared 100
yan 100
▁relationship 100
83 100
▁essential 100
▁стоимость 100
▁caused 100
ons 100
▁самый 100
▁гостей 100
▁фи 100
▁hi 100
альной 100
▁japanese 100
▁Min 100
▁кончил 100
иков 100
▁налогов 100
▁Software 100
▁reasons 100
lia 100
▁проведение 100
▁female 100
фф 100
▁скорость 100
▁сведения 100
▁проблема 100
▁велосипед 100
▁44 100
▁Ос 100
вший 100
You 100
ez 100
▁du 100
í 100
▁THE 100
▁Го 100
▁согласован 100
▁банк 100
▁Кур 100
▁руководство 100
4% 100
▁риск 100
▁Part 100
▁организация 100
▁purchase 100
▁продолжать 100
▁радио 100
▁РК 100
ром 100
▁Professional 100
ß 100
cur 100
▁fair 100
▁CO 100
▁weak 100
▁dream 100
Ö 100
▁языка 100
НО 100
▁aid 100
:24 100
чис 100
▁принимает 100
▁efficient 100
▁options 100
▁numerous 100
▁финансирования 100
▁национальной 100
▁провести 100
▁оста 100
▁covered 100
▁одновременно 100
▁стен 100
▁75 100
▁рейтинг 100
ane 100
81 100
▁странами 100
▁historical 100
▁вместо 100
▁studies 100
▁гораздо 100
хват 100
▁stone 100
light 100
▁содержит 100
▁le 100
▁недо 100
▁здания 100
▁Новый 100
▁СМИ 100
It 100
▁Any 100
▁sa 100
▁talk 100
▁Download 100
▁ra 100
▁связан 100
▁concern 100
▁appeal 100
▁устройств 100
▁поезд 100
меч 100
rk 100
▁символ 100
▁поддержка 100
par 100
Ma 100
▁effort 100
▁brother 100
изация 100
▁документов 100
▁Мор 100
▁Вас 100
▁Suppliers 100
▁ба 100
▁recognized 100
▁negative 100
▁Meeting 100
▁хочет 100
▁ответственности 100
▁сексуальн 100
▁commission 100
ню 100
ион 100
зор 100
▁государство 100
▁эффективности 100
▁latest 100
wing 100
шир 100
▁ар 100
rea 100
▁tools 100
▁р 100
2014 100
▁файлы 100
▁reference 100
▁какие 100
▁Израиля 100
▁профессиональны 100
▁дух 100
▁feature 100
▁различ 100
чик 100
:27 100
bar 100
ара 100
▁работал 100
▁requires 100
▁бассейн 100
▁большое 100
▁предприятий 100
ающие 100
▁основные 100
▁Panel 100
▁ПО 100
▁remained 100
енд 100
▁Network 100
▁развивающихся 100
▁Sch 100
▁600 100
след 100
▁item 100
▁времен 100
▁Set 100
▁местных 100
building 100
dis 100
UN 100
▁electric 100
▁поддерживает 100
▁порядке 100
▁Roman 100
истов 100
англ 100
щей 100
эт 100
SA 100
▁данном 100
льф 100
▁Японии 100
ED 100
▁bag 100
▁Education 100
AM 100
▁guests 100
▁открыт 100
▁mandate 100
▁Курение 100
▁плане 100
куп 100
зу 100
▁challenges 100
▁странам 100
read 100
▁Forum 100
▁agenda 100
ирован 100
▁Super 100
▁Ku 100
▁Federal 100
лек 100
ющей 100
▁flow 100
▁discussion 100
▁dead 100
эй 100
▁резерв 100
▁крайней 100
▁planned 100
▁alone 100
eb 100
▁picture 100
7% 100
▁requested 100
▁writing 100
see 100
▁passed 100
▁учреждений 100
▁сосед 100
▁занима 100
:29 100
▁trans 100
▁показан 100
ets 100
▁Mobile 100
▁digital 100
▁нему 100
ese 100
▁Стра 100
▁событий 100
▁выбрать 100
▁данной 100
▁которыми 100
mark 100
view 100
▁направления 100
▁модель 100
▁prison 100
]& 100
сси 100
▁dark 100
▁beyond 100
▁primary 100
▁phase 100
▁Компания 100
▁лев 100
▁shape 100
▁приложения 100
▁Один 100
▁write 100
bs 100
▁placed 100
ö 100
щие 100
:02 100
▁научно 100
▁машины 100
▁airport 100
нная 100
▁selected 100
▁victims 100
▁th 100
▁65 100
▁administrative 100
▁combination 100
▁коллектив 100
▁bonus 100
▁ро 100
▁strengthen 100
пор 100
▁учет 100
kh 100
mal 100
▁покуп 100
эр 100
▁Account 100
▁Che 100
▁продукт 100
▁совета 100
готов 100
ded 100
▁операций 100
▁операции 100
▁уникальн 100
пон 100
▁расходы 100
▁introduced 100
За 100
teen 100
▁пользу 100
▁interested 100
gor 100
▁Затем 100
ore 100
▁eight 100
ировка 100
▁Владимир 100
▁состояние 100
▁масло 100
ene 100
:35 100
▁Time 100
▁получили 100
▁клиент 100
▁em 100
▁образ 100
▁Anavar 100
▁Let 100
ero 100
▁цел 100
▁Израиль 100
▁данным 100
▁memory 100
▁регистрации 100
▁безопасность 100
▁тебе 100
▁формате 100
▁justice 100
рак 100
▁Бел 100
▁student 100
▁Holy 100
ено 100
▁Action 100
▁GotPorn 100
▁Chairman 100
▁соглас 100
ставить 100
град 100
▁Иран 100
▁integration 100
▁opposition 100
▁Old 100
▁1000 100
▁би 100
скими 100
▁humanitarian 100
▁стратегическ 100
ama 100
▁отеля 100
▁plastic 100
ji 100
▁personnel 100
▁набор 100
:23 100
▁sales 100
▁USA 100
АН 100
жал 100
еб 100
час 100
▁Ju 100
▁Ас 100
▁нажмите 100
:08 100
▁общество 100
▁recovery 100
▁implemented 100
▁независимо 100
ктор 100
$ 100
las 100
▁людьми 100
▁route 100
▁изображения 100
aries 100
:26 100
lov 100
spect 100
▁Гор 100
▁конца 100
sen 100
▁setting 100
▁аппарат 100
▁= 100
cer 100
▁religion 100
▁storage 100
rus 100
виз 100
▁goals 100
yn 100
▁Trade 100
зем 100
ym 100
▁сервер 100
▁Latin 100
▁chemical 100
АР 100
рок 100
▁fun 100
▁зло 100
▁строительства 100
ches 100
▁reporting 100
▁suggest 100
▁команды 100
▁выборах 100
ируют 100
!" 100
▁Harry 100
▁Mother 100
ерн 100
нский 100
300 100
ировки 100
▁увидеть 100
lay 100
▁Table 100
▁armed 100
▁messages 100
▁штат 100
▁острова 100
ОС 100
▁trip 100
▁ор 100
log 100
▁despite 100
▁electoral 100
▁Control 100
▁PU 100
tar 100
▁останов 100
▁sin 100
▁любого 100
деля 100
НИ 100
▁Smoking 100
▁Ассамблеи 100
кие 100
▁Ад 100
▁далее 100
▁Tra 100
▁ст 100
гон 100
▁Electric 100
▁map 100
▁Ge 100
▁ideas 100
lat 100
▁Ком 100
▁круг 100
▁праздник 100
▁ручки 100
ёт 100
▁Ni 100
/2 100
▁небо 100
▁rep 100
▁материалы 100
eg 100
▁newspaper 100
▁кандидат 100
▁Research 100
▁cycle 100
▁letter 100
▁полной 100
stan 100
fr 100
▁признан 100
▁нашу 100
▁initiative 100
работ 100
▁Manufacturer 100
og 100
▁Наш 100
▁Ты 100
IP 100
▁встреча 100
ä 100
тики 100
▁lo 100
кая 100
▁класса 100
▁Policy 100
▁river 100
▁leadership 100
кус 100
sy 100
▁Si 100
▁самые 100
город 100
▁reduction 100
▁Пу 100
▁изменений 100
▁Гарри 100
▁aware 100
▁beach 100
▁teaching 100
▁drug 100
▁лучшие 100
▁suitable 100
ose 100
with 100
▁touch 100
▁View 100
▁члены 100
▁скоростью 100
▁Ru 100
▁thy 100
gh 100
cl 100
▁port 100
-7 100
lon 100
▁va 100
▁attempt 100
▁Бе 100
▁planet 100
▁association 100
:59 100
▁международном 100
▁Пер 100
▁Mor 100
▁распространен 100
▁count 100
▁failure 100
▁трудно 100
Ba 100
ук 100
matic 100
▁Agency 100
▁Type 100
дения 100
▁необходимую 100
/1 100
▁Price 100
some 100
▁fruit 100
▁защите 100
▁appearance 100
▁Only 100
hr 100
▁открытия 100
▁сезон 100
▁дни 100
play 100
DI 100
▁учреждения 100
ration 100
gram 100
▁Ver 100
▁Watch 100
▁governments 100
▁eat 100
▁Великобритании 100
▁первую 100
▁масла 100
su 100
▁военных 100
▁EUR 100
-10 100
▁перевод 100
▁clearly 100
▁percent 100
▁Латвии 100
▁которому 100
▁Convert 100
▁discussed 100
▁прошлом 100
▁Тип 100
▁цена 100
dom 100
▁активно 100
▁:: 100
▁добро 100
ТО 100
▁guarantee 100
▁employees 100
шёл 100
lit 100
ода 100
▁lesbian 100
шки 100
▁Report 100
▁встречи 100
▁денег 100
▁garden 100
▁сталь 100
▁восстановления 100
▁generally 100
енной 100
▁День 100
▁банков 100
▁meteo 100
ox 100
▁нео 100
▁stability 100
▁учен 100
▁cash 100
нюю 100
ify 100
▁Sam 100
▁инвестиций 100
▁критик 100
▁журналист 100
▁Благодаря 100
скому 100
воль 100
▁массаж 100
▁рыб 100
енного 100
▁(3 100
▁осуществление 100
▁intended 100
▁Иисуса 100
▁hit 100
▁prior 100
▁desire 100
▁wrote 100
▁иногда 100
▁един 100
▁тепло 100
мол 100
▁мод 100
▁hear 100
▁interesting 100
▁Plan 100
ря 100
:40 100
▁closed 100
тик 100
изирован 100
▁жена 100
▁Rest 100
:56 100
ОВ 100
▁driver 100
уш 100
▁тело 100
ress 100
▁selection 100
ѣ 100
▁автомобиль 100
▁зависит 100
▁wanted 100
MA 100
ическим 100
▁Port 100
▁документа 100
▁launch 100
:28 100
яр 100
▁answer 100
▁воздух 100
▁Real 100
▁каса 100
▁Congress 100
▁золото 100
ались 100
▁vehicle 100
▁Spain 100
ток 100
city 100
▁государственной 100
▁62 100
вор 100
:36 100
▁мил 100
▁рынок 100
▁приняли 100
ям 100
▁сообщ 100
▁Ги 100
▁Ya 100
▁дать 100
ette 100
нцев 100
▁Read 100
▁Metal 100
▁официально 100
▁пляж 100
▁factors 100
над 100
▁мал 100
▁Южной 100
▁Фе 100
▁eye 100
▁visited 100
телем 100
▁ребенка 100
▁версии 100
▁investigation 100
▁Material 100
ард 100
DA 100
▁fashion 100
shemale 100
▁шаг 100
▁46 100
пот 100
▁draw 100
▁camp 100
ope 100
суд 100
▁дети 100
▁Ман 100
▁earlier 100
▁dialogue 100
▁новую 100
▁radio 100
▁большим 100
IR 100
▁Ball 100
▁crime 100
▁plants 100
▁людям 100
▁принадлежности 100
▁армии 100
▁преступления 100
▁данный 100
▁discover 100
▁ресурсы 100
din 100
▁cum 100
▁Ser 100
▁circumstances 100
▁arms 100
дия 100
▁agree 100
ele 100
▁подходит 100
▁сервис 100
▁Constitution 100
▁sq 100
▁момента 100
▁свят 100
▁resistance 100
стью 100
▁Manufacturers 100
cho 100
жать 100
рус 100
▁переговоров 100
▁Индии 100
rn 100
аты 100
▁ожидается 100
▁граф 100
▁micro 100
альное 100
▁жителей 100
▁bo 100
▁Spanish 100
▁Blue 100
▁сами 100
ians 100
▁finance 100
▁Aliyeva 100
▁ship 100
▁требуется 100
ock 100
▁тай 100
▁возник 100
▁Kazakh 100
▁permanent 100
▁Standard 100
▁персонала 100
▁comfortable 100
пан 100
ook 100
▁bi 100
▁фильтр 100
▁trying 100
▁resort 100
▁сертификат 100
▁недавно 100
eu 100
лиц 100
▁soft 100
ase 100
post 100
▁электронн 100
▁asian 100
▁называем 100
▁mechanism 100
▁говоря 100
ведение 100
▁Аб 100
ада 100
▁доклада 100
:50 100
▁Poland 100
▁Finally 100
▁gets 100
▁платье 100
▁package 100
▁elected 100
▁books 100
▁webcam 100
▁height 100
▁Don 100
▁электр 100
ple 100
ляр 100
ius 100
ального 100
▁словами 100
▁Radio 100
шие 100
▁negotiations 100
uz 100
▁Международн 100
▁Тур 100
▁AS 100
hen 100
▁joined 100
struct 100
ail 100
дем 100
tom 100
▁custom 100
:05 100
Ass 100
▁ключ 100
▁gain 100
лок 100
▁смогли 100
121 100
▁Ваш 100
▁Tool 100
▁welcome 100
▁properties 100
еров 100
емся 100
▁выда 100
▁материала 100
▁Инструмент 100
▁ОАО 100
▁Apartment 100
шу 100
▁dedicated 100
▁записи 100
аб 100
▁движение 100
▁Us 100
:04 100
▁1970 100
▁передачи 100
▁Why 100
бар 100
▁машина 100
▁головы 100
▁ул 100
zo 100
▁Quality 100
▁excellent 100
▁Материал 100
▁pain 100
▁Bre 100
cc 100
нс 100
▁увеличение 100
▁performed 100
ture 100
рит 100
▁пла 100
▁Pri 100
▁контексте 100
▁Vladimir 100
▁количества 100
▁довольно 100
пы 100
▁прием 100
▁Гер 100
▁предоставлен 100
▁core 100
▁buildings 100
▁веществ 100
▁Суд 100
ину 100
▁Tu 100
▁strip 100
▁speech 100
▁удалось 100
▁Te 100
▁объявил 100
▁Order 100
▁didn 100
▁Leg 100
ami 100
▁Мал 100
pp 100
▁Children 100
ывают 100
▁открыл 100
сыл 100
зе 100
▁parents 100
▁брат 100
пат 100
▁Фа 100
▁основной 100
стру 100
app 100
нова 100
▁labor 100
▁engine 100
▁reduced 100
▁blue 100
▁farm 100
▁поверхности 100
:55 100
▁удоб 100
isation 100
▁install 100
▁реш 100
▁усилий 100
▁faith 100
▁partner 100
IT 100
▁Description 100
▁пу 100
ua 100
▁ob 100
прос 100
▁integrated 100
кал 100
▁сообщества 100
▁стимул 100
▁выпуск 100
▁pump 100
▁practices 100
▁ancient 100
▁Game 100
:58 100
▁DVD 100
▁tight 100
nk 100
AD 100
af 100
▁футбол 100
▁комнаты 100
▁ratio 100
▁democratic 100
▁mainly 100
▁Shi 100
▁политику 100
4. 100
gy 100
▁evening 100
5) 100
▁Executive 100
ET 100
▁felt 100
акт 100
очные 100
▁Dress 100
▁manner 100
▁РФ 100
▁becomes 100
hu 100
▁Город 100
тей 100
▁nu 100
▁entered 100
▁выберите 100
▁данного 100
▁коп 100
государственного 100
▁кризиса 100
илось 100
▁toward 100
▁конфликт 100
цами 100
rin 100
LO 100
▁представления 100
▁tr 100
▁mentioned 100
bra 100
cle 100
зар 100
▁вход 100
▁objects 100
▁Val 100
:34 100
uff 100
▁broad 100
ела 100
▁кур 100
▁журнал 100
▁зал 100
▁interview 100
▁critical 100
2011 100
▁song 100
▁полиции 100
▁гражданского 100
▁hall 100
▁Life 100
▁ша 100
▁challenge 100
▁Because 100
▁Jewish 100
▁probably 100
▁blonde 100
▁Оп 100
▁использовании 100
дом 100
ess 100
▁sw 100
▁Север 100
rap 100
▁52 100
▁лицо 100
▁51 100
▁вариант 100
bor 100
▁birth 100
ало 100
-5 100
▁соответствующие 100
▁пример 100
сроч 100
bol 100
▁Hi 100
▁doctor 100
▁husband 100
▁фильм 100
▁страница 100
▁career 100
▁цветов 100
▁troops 100
▁диск 100
▁порт 100
▁raised 100
пере 100
ura 100
▁threat 100
▁позиции 100
▁Canada 100
▁affect 100
джа 100
нг 100
▁MA 100
▁карты 100
▁областях 100
▁пожалуйста 100
▁secure 100
▁ман 100
▁выбран 100
▁fail 100
дующий 100
▁возрасте 100
▁getting 100
▁надо 100
▁85 100
▁agreements 100
▁страна 100
▁transition 100
▁дискриминации 100
▁patent 100
▁ног 100
▁Photo 100
▁название 100
▁attended 100
sol 100
▁cap 100
▁Academy 100
bal 100
един 100
▁товаров 100
например 100
▁funding 100
load 100
метр 100
▁1960 100
▁Киев 100
▁advantage 100
игр 100
▁глубоко 100
OP 100
met 100
▁breeze 100
▁Кан 100
▁бюджета 100
▁overall 100
▁Back 100
▁VPN 100
▁волн 100
▁отмечает 100
плат 100
▁universe 100
▁сотрудничестве 100
▁names 100
▁Protection 100
▁outdoor 100
▁priority 100
джи 100
▁пункт 100
row 100
▁Apple 100
▁значения 100
▁Dis 100
ros 100
▁tea 100
2012 100
очка 100
▁wine 100
▁пункта 100
▁нашем 100
▁Optic 100
▁доме 100
▁погоды 100
рат 100
▁River 100
=" 100
▁MP 100
чная 100
▁detail 100
▁спас 100
▁Область 100
▁Июль 100
▁печат 100
▁желез 100
▁Army 100
▁uses 100
sign 100
▁hospital 100
▁filter 100
▁debate 100
ria 100
▁ан 100
▁изготовлен 100
▁mom 100
▁Bas 100
ition 100
oid 100
9% 100
эл 100
▁grow 100
▁Computer 100
SE 100
▁Press 100
-6 100
▁mark 100
▁63 100
▁важным 100
De 100
▁обраща 100
▁traffic 100
▁рекомендации 100
▁жить 100
▁meaning 100
▁Yes 100
▁понять 100
▁агент 100
ере 100
лес 100
▁элементы 100
ju 100
▁university 100
▁Оргазм 100
▁доктор 100
▁Бер 100
▁element 100
▁потенциал 100
ye 100
▁поиск 100
▁Казахстана 100
▁Market 100
▁frame 100
SP 100
▁Пи 100
▁assets 100
▁говорить 100
щен 100
ret 100
▁маршрут 100
▁Sc 100
war 100
▁света 100
▁национального 100
SI 100
▁Управление 100
win 100
▁Рим 100
ency 100
▁мнение 100
▁formed 100
▁студентов 100
▁Next 100
▁tra 100
▁3- 100
▁motor 100
▁ISO 100
▁товары 100
▁заявление 100
▁net 100
▁presentation 100
▁Поскольку 100
▁нельзя 100
▁большую 100
▁Bearing 100
телями 100
▁Группа 100
Mo 100
▁объектов 100
late 100
▁начали 100
▁продажи 100
▁continues 100
▁созда 100
▁twenty 100
▁ПВХ 100
▁мебель 100
▁Sal 100
▁Another 100
чную 100
▁Em 100
▁Там 100
нию 100
шим 100
жат 100
▁парламент 100
▁Другие 100
▁com 100
▁automatically 100
▁aspects 100
▁гр 100
▁Отдых 100
▁forced 100
▁normal 100
▁Куб 100
▁formats 100
▁resource 100
▁category 100
▁doubt 100
▁encourage 100
зов 100
▁нарушения 100
:39 100
▁кино 100
▁голосов 100
▁тонн 100
▁join 100
right 100
устойчив 100
▁газ 100
▁турнир 100
▁район 100
▁Alexander 100
▁universal 100
▁Европейского 100
▁innovation 100
▁Indeed 100
vin 100
site 100
▁Czech 100
:57 100
not 100
▁giving 100
▁offices 100
▁54 100
▁позволит 100
▁Deputy 100
▁communities 100
▁задачи 100
ney 100
cip 100
▁сообщение 100
▁disease 100
кри 100
▁науки 100
▁пару 100
▁слов 100
ala 100
▁правительств 100
▁detailed 100
▁Energy 100
bed 100
▁slow 100
▁finish 100
▁discrimination 100
▁heavy 100
▁Post 100
цеп 100
▁автомат 100
▁труб 100
▁Just 100
стой 100
овую 100
▁collect 100
▁Iron 100
▁разработке 100
▁compared 100
▁teacher 100
▁printing 100
тол 100
бле 100
▁ball 100
квартир 100
vert 100
are 100
▁делам 100
аз 100
унд 100
▁meters 100
▁output 100
▁casting 100
уда 100
▁Shower 100
▁готовы 100
▁street 100
▁chief 100
pon 100
▁заявления 100
▁pen 100
▁calls 100
CC 100
▁holding 100
▁monitor 100
▁Israeli 100
▁Петр 100
▁Where 100
▁необходимые 100
▁подчеркнул 100
▁division 100
▁registration 100
▁лечения 100
▁начало 100
сом 100
▁manual 100
:09 100
▁generation 100
ace 100
ire 100
▁пал 100
▁беженцев 100
▁честь 100
▁award 100
▁Austria 100
ине 100
▁Australia 100
аны 100
фон 100
мар 100
reg 100
▁инженер 100
▁sedan 100
▁контракт 100
▁contribute 100
▁большей 100
▁финансовой 100
▁Каждый 100
Pro 100
▁дополнительные 100
▁determine 100
▁каз 100
▁района 100
▁ваших 100
▁Пан 100
▁конкурент 100
▁запрос 100
▁museum 100
▁никаких 100
:41 100
▁10. 100
стях 100
рия 100
▁pan 100
вшиеся 100
▁Double 100
▁Protocol 100
▁Tablecloth 100
▁neither 100
▁Видео 100
▁ресторан 100
▁connected 100
стин 100
▁flash 100
▁перемен 100
hold 100
2013 100
▁режима 100
▁outlet 100
▁69 100
▁Last 100
▁dildo 100
▁картин 100
▁решил 100
▁метеоусловия 100
▁запрещен 100
▁instance 100
▁Именно 100
▁запрет 100
▁равн 100
ata 100
▁купить 100
▁movie 100
▁log 100
roll 100
▁disc 100
▁кажется 100
▁повышение 100
bul 100
▁expression 100
‐ 100
▁entry 100
▁aim 100
лег 100
▁процедуры 100
▁элемент 100
MS 100
▁сих 100
Ка 100
▁cat 100
лог 100
▁models 100
ject 100
▁CD 100
RT 100
▁прогресс 100
шла 100
КО 100
cri 100
▁кожи 100
▁ladyboy 100
▁failed 100
▁невозможно 100
▁вкус 100
▁изменение 100
▁обязательств 100
уль 100
▁другом 100
▁привести 100
▁защиту 100
▁электронной 100
▁группе 100
▁запас 100
▁Steel 100
▁приз 100
▁украин 100
▁плат 100
video 100
▁способность 100
▁Greek 100
▁налог 100
▁исход 100
▁journalists 100
▁Dec 100
▁$2 100
▁languages 100
▁фонда 100
▁toys 100
екс 100
:06 100
ОМ 100
▁Украина 100
▁hour 100
:32 100
▁строительство 100
▁cam 100
ацией 100
▁сто 100
ировали 100
▁glass 100
▁cm 100
ниц 100
▁import 100
▁Peter 100
▁IT 100
▁terrorist 100
▁четырех 100
▁plug 100
▁эффективно 100
▁ofthe 100
▁cell 100
St 100
▁bl 100
▁власть 100
TS 100
▁strengthening 100
▁tried 100
▁intelligence 100
▁concert 100
▁друга 100
▁ve 100
▁обеспечению 100
▁sta 100
▁клиента 100
▁flat 100
ava 100
чения 100
▁officers 100
пресс 100
▁могу 100
▁знаменит 100
▁дополнительн 100
▁рад 100
▁новое 100
▁Es 100
стат 100
▁remember 100
sta 100
▁соответственно 100
▁версия 100
▁потребностей 100
mount 100
КА 100
▁исключительно 100
▁знания 100
▁Data 100
▁Serbian 100
▁Pen 100
ража 100
▁Private 100
▁anniversary 100
▁Проект 100
дается 100
▁fields 100
▁worth 100
▁жертв 100
сте 100
▁План 100
ening 100
лам 100
▁Фи 100
▁mechanisms 100
зыв 100
▁кампании 100
▁сеть 100
▁independence 100
▁определения 100
стор 100
▁achieved 100
▁1- 100
яз 100
▁IV 100
рем 100
governmental 100
Ма 100
▁trial 100
▁статья 100
▁finding 100
▁температура 100
▁докладе 100
▁случай 100
▁friend 100
▁houses 100
▁colour 100
▁установить 100
чка 100
ses 100
▁сторону 100
жу 100
▁liquid 100
▁глав 100
▁nations 100
▁formation 100
ax 100
▁Who 100
▁политике 100
IM 100
▁игроков 100
▁концерт 100
еречень 100
:38 100
dor 100
▁спор 100
▁богат 100
▁registered 100
▁silver 100
▁housing 100
▁лучших 100
▁evil 100
▁Ki 100
яс 100
овали 100
▁Syria 100
▁currency 100
don 100
буд 100
▁подпис 100
тика 100
▁состояния 100
▁middle 100
▁else 100
▁Конференции 100
:37 100
чит 100
rm 100
кра 100
ii 100
▁spoke 100
ица 100
:33 100
▁seconds 100
▁economies 100
ТА 100
ющейся 100
▁(1) 100
▁непо 100
▁visitors 100
rim 100
▁потеря 100
▁icon 100
ою 100
▁продолжительн 100
▁союза 100
▁purposes 100
▁expert 100
▁Science 100
To 100
▁тыс 100
▁appointed 100
▁initial 100
▁scale 100
▁итоге 100
нит 100
▁Parts 100
▁Regional 100
▁партия 100
Международного 100
▁tourism 100
oth 100
▁создании 100
▁starting 100
▁договора 100
▁Pan 100
▁наблюда 100
Про 100
▁Центральн 100
▁Дом 100
▁внимания 100
▁совсем 100
▁consciousness 100
itch 100
▁обязательства 100
▁уст 100
UR 100
▁becoming 100
▁attacks 100
рик 100
енное 100
рет 100
▁последних 100
▁cur 100
▁Land 100
▁Даже 100
▁Перво 100
▁ca 100
▁используются 100
▁Program 100
▁доход 100
▁sold 100
▁manage 100
очки 100
lim 100
▁Armenia 100
▁manufacturing 100
▁television 100
▁минимальн 100
▁spring 100
▁spent 100
▁shower 100
▁климата 100
▁сделан 100
▁commitment 100
Le 100
uri 100
▁специалистов 100
▁enterprises 100
....... 100
низ 100
▁предложил 100
▁высоким 100
▁58 100
▁Civil 100
▁устойчивого 100
▁existence 100
лиз 100
▁метров 100
жн 100
▁wear 100
gre 100
▁шоу 100
▁структуры 100
He 100
▁seem 100
▁Their 100
▁тест 100
ml 100
▁specified 100
нд 100
▁vital 100
▁raise 100
пле 100
▁larger 100
▁Auto 100
▁новым 100
▁двор 100
▁Бен 100
ved 100
tract 100
▁маленькие 100
▁festival 100
▁коробка 100
▁Страпон 100
▁ski 100
▁Сторон 100
▁отдельно 100
▁военно 100
▁животных 100
▁objective 100
▁другое 100
▁MO 100
яет 100
ges 100
пит 100
▁комплект 100
▁Тогда 100
▁отображ 100
▁используем 100
нят 100
▁Три 100
▁распространения 100
▁стиль 100
▁поля 100
SS 100
▁гон 100
▁11. 100
▁Multi 100
▁56 100
тре 100
▁милф 100
▁Отель 100
▁Street 100
▁следующий 100
▁автобус 100
▁никто 100
▁articles 100
▁zone 100
рос 100
▁Северной 100
EM 100
▁defined 100
▁Свет 100
▁основании 100
▁numbers 100
▁игрушки 100
nov 100
▁(18 100
▁ethnic 100
▁switch 100
▁смогут 100
xi 100
▁медиа 100
▁знаком 100
▁голос 100
▁feed 100
▁Win 100
тка 100
▁grant 100
▁Ти 100
▁серьезно 100
▁нефти 100
▁укрепления 100
▁термин 100
▁camera 100
нки 100
▁Им 100
▁looked 100
▁названием 100
▁Ros 100
лот 100
▁представил 100
▁утвержден 100
▁бесплатный 100
▁отель 100
:43 100
▁заинтересован 100
▁lived 100
ola 100
▁Vo 100
▁Gi 100
▁survey 100
▁церкви 100
изован 100
▁предложить 100
▁remove 100
▁57 100
▁Tags 100
▁ход 100
6) 100
ЛА 100
▁democracy 100
зон 100
PE 100
▁poker 100
IL 100
PS 100
▁лучшим 100
▁images 100
▁Core 100
coming 100
ites 100
▁extensions 100
▁настройки 100
▁остров 100
No 100
9. 100
▁Международный 100
▁сама 100
:45 100
▁matters 100
▁курса 100
ющийся 100
чал 100
▁entitled 100
▁соглашение 100
RS 100
▁1989 100
For 100
▁Май 100
▁рез 100
▁ожида 100
▁increasingly 100
▁ver 100
рек 100
▁Application 100
▁politics 100
▁функция 100
▁удален 100
▁copy 100
▁Кре 100
▁любим 100
▁email 100
ируется 100
▁SA 100
▁отелей 100
dar 100
▁kept 100
▁Новости 100
▁шесть 100
▁prepare 100
▁пес 100
▁Поставщики 100
▁фирм 100
▁profit 100
▁протест 100
ально 100
▁Pork 100
▁Industry 100
▁конфликта 100
▁Lady 100
▁своему 100
▁сможет 100
:42 100
▁Продуктов 100
▁die 100
ета 100
▁площадь 100
▁проекты 100
▁газа 100
▁notes 100
level 100
down 100
▁провод 100
▁направлении 100
▁отправ 100
ура 100
▁горяч 100
крат 100
lig 100
▁corporate 100
▁remote 100
▁солдат 100
▁отметить 100
▁памяти 100
ходит 100
▁Saint 100
▁slot 100
▁moral 100
▁tu 100
▁foundation 100
▁multiple 100
▁Brazil 100
2000 100
фил 100
▁принят 100
▁единиц 100
ЕР 100
▁Representative 100
▁prize 100
gle 100
▁improved 100
уют 100
ическую 100
леп 100
▁каким 100
тесь 100
:46 100
els 100
▁button 100
▁sons 100
▁яв 100
▁minimum 100
▁исключением 100
▁элементов 100
руб 100
▁другого 100
▁уверен 100
▁разделе 100
▁сигнал 100
▁капитала 100
▁roll 100
ложение 100
коп 100
▁agricultural 100
▁error 100
▁Соединенных 100
аф 100
▁Every 100
илл 100
san 100
зо 100
▁говорят 100
table 100
▁связь 100
▁difference 100
лез 100
▁chain 100
▁Джа 100
▁финансов 100
рес 100
uring 100
полит 100
▁Agreement 100
▁successfully 100
туши 100
▁Review 100
▁раб 100
▁finally 100
▁drink 100
▁Гал 100
BA 100
▁Indian 100
верс 100
▁determined 100
▁площади 100
▁цикл 100
pha 100
▁signal 100
sp 100
ишь 100
рост 100
▁крупных 100
дневн 100
▁сына 100
uction 100
CO 100
▁вызов 100
▁рекомендует 100
▁Нет 100
▁consists 100
▁accepted 100
ita 100
чем 100
йтесь 100
▁Analdin 100
▁Riga 100
▁restaurant 100
вшись 100
▁784 100
▁instruments 100
lock 100
pho 100
▁продолжает 100
▁методы 100
▁определить 100
▁стоимости 100
гул 100
▁Delivery 100
▁игрок 100
dent 100
nn 100
▁bio 100
cher 100
tch 100
:03 100
MP 100
▁abroad 100
Me 100
чей 100
▁вести 100
▁About 100
▁teachers 100
ЕН 100
ЛИ 100
▁обще 100
▁ограничения 100
▁масс 100
▁destroy 100
▁marriage 100
▁внутренних 100
▁medium 100
▁waste 100
▁learning 100
▁испан 100
▁районах 100
▁сохранить 100
▁Комиссия 100
mult 100
▁сверх 100
ап 100
▁Good 100
▁первых 100
▁спин 100
▁забот 100
stra 100
▁Ваше 100
▁consumption 100
▁description 100
▁Председатель 100
▁рода 100
▁отдельных 100
▁больших 100
чение 100
▁06:00 100
▁inform 100
▁hu 100
▁59 100
▁ясно 100
▁Va 100
▁выгод 100
▁symbol 100
▁settlement 100
▁blowing 100
▁rent 100
▁Exhibition 100
genealogy 100
▁предложен 100
▁knew 100
рин 100
▁отличие 100
▁находя 100
▁Gar 100
▁reforms 100
нные 100
иан 100
-8 100
▁chair 100
") 100
▁бренд 100
▁positions 100
▁обязательно 100
▁содействия 100
▁Large 100
▁mine 100
2016 100
ada 100
-11 100
▁росы 100
▁стиле 100
Ь 100
ИС 100
▁cast 100
▁affected 100
дет 100
▁вперед 100
нибудь 100
▁NATO 100
▁партнер 100
▁спа 100
▁речь 100
▁виды 100
▁форматы 100
▁использован 100
шт 100
RU 100
▁goes 100
▁availability 100
▁выразил 100
еро 100
рь 100
stor 100
ющими 100
▁nearly 100
▁Вин 100
еля 100
DP 100
ань 100
▁Bal 100
Йорк 100
▁интеграции 100
▁сообщество 100
▁thou 100
ened 100
▁actual 100
▁Игр 100
ography 100
▁Nor 100
▁продолжа 100
▁sphere 100
▁Supreme 100
▁хранения 100
▁valid 100
▁milk 100
▁contest 100
2010 100
▁bill 100
▁fell 100
▁приводит 100
▁региональных 100
анта 100
▁financing 100
▁коренны 100
вей 100
▁другую 100
жан 100
▁rock 100
▁recognize 100
▁хозяйства 100
жения 100
▁Кри 100
▁христиан 100
▁proposal 100
оне 100
▁urban 100
▁Jews 100
▁50% 100
▁Описание 100
graph 100
▁claims 100
▁Cal 100
юсь 100
▁53 100
тки 100
On 100
2015 100
▁CL 100
▁displayed 100
▁рек 100
▁неза 100
▁Petersburg 100
ram 100
▁внутрь 100
:54 100
▁root 100
iff 100
▁позволил 100
▁listen 100
▁candidate 100
▁тер 100
▁крупн 100
РЕ 100
▁identified 100
▁leather 100
▁Только 100
▁эксплуатации 100
фр 100
▁referred 100
▁стероид 100
▁техники 100
▁regulations 100
▁Гол 100
2009 100
▁lu 100
▁Джон 100
▁протокол 100
▁Ам 100
▁определен 100
▁возврат 100
:07 100
пп 100
ОД 100
▁obligations 100
▁созданию 100
▁Бу 100
▁bear 100
▁представлены 100
▁мост 100
-12 100
▁выставки 100
▁рассмотрения 100
▁Palestinian 100
▁составил 100
ici 100
▁pick 100
▁должности 100
▁pictures 100
▁гарант 100
▁конечном 100
анс 100
▁consequences 100
▁honor 100
▁George 100
▁handjob 100
▁скоро 100
iah 100
▁органы 100
▁Ze 100
▁колен 100
screen 100
▁начиная 100
▁heating 100
▁будем 100
голов 100
▁Fo 100
лк 100
▁груз 100
▁особенности 100
▁склад 100
DS 100
▁дорож 100
▁Иван 100
дела 100
▁Дол 100
▁вопроса 100
▁categories 100
▁ассоциации 100
▁relating 100
ump 100
ющую 100
▁обратно 100
ался 100
▁интересах 100
▁61 100
▁Москве 100
▁избежать 100
▁murder 100
▁пункте 100
▁домен 100
▁магазин 100
▁(« 100
ys 100
▁вида 100
▁Ass 100
ties 100
▁обучение 100
▁столь 100
▁founded 100
▁HIV 100
▁этап 100
400 100
дя 100
▁awarded 100
▁respond 100
game 100
пал 100
▁Yu 100
▁выполнять 100
▁повтор 100
▁ensuring 100
▁первые 100
▁photos 100
▁включают 100
shi 100
▁fi 100
Al 100
.10 100
коль 100
ella 100
▁effectively 100
Co 100
▁stress 100
▁UNESCO 100
▁fresh 100
▁senior 100
▁Пандора 100
▁следующих 100
▁shared 100
▁Ав 100
енко 100
▁молодых 100
▁знать 100
▁AM 100
hal 100
▁prevention 100
▁лично 100
▁Heating 100
▁намерен 100
▁ед 100
▁connect 100
▁представляют 100
▁Islamic 100
▁стан 100
▁certificate 100
▁occasion 100
à 100
▁посетить 100
▁Второй 100
▁канал 100
▁обл 100
▁собира 100
▁12. 100
еле 100
▁Kiev 100
▁кожа 100
▁vision 100
▁эксперт 100
▁охват 100
ense 100
▁nation 100
▁белье 100
mas 100
▁concrete 100
▁профессор 100
▁quarter 100
▁Plastic 100
oz 100
▁автомобилей 100
meter 100
нима 100
CA 100
▁назначения 100
oon 100
что 100
;/ 100
▁регулярно 100
▁имеется 100
▁trouble 100
▁Продажа 100
TH 100
▁страну 100
▁собственности 100
cm 100
▁Long 100
▁тон 100
▁новая 100
ООН 100
▁Первый 100
▁проб 100
▁городов 100
atory 100
▁каких 100
▁форма 100
▁грузов 100
▁возраста 100
▁holiday 100
▁достигнут 100
▁Pakistan 100
▁Society 100
▁показал 100
▁dance 100
▁велик 100
▁babe 100
▁1950 100
▁значит 100
▁предоставляет 100
▁judge 100
PT 100
▁ЮНЕСКО 100
▁кнопку 100
▁проверки 100
:44 100
▁расширением 100
▁успех 100
▁UV 100
▁слуша 100
топ 100
TC 100
ющее 100
nit 100
hor 100
жет 100
▁выделен 100
рел 100
▁нашим 100
▁Greece 100
▁illegal 100
▁Италии 100
▁Анавар 100
▁выплат 100
▁submit 100
▁internet 100
хол 100
▁topic 100
▁считается 100
▁Armenian 100
▁игру 100
600 100
▁Prince 100
▁зон 100
▁muscle 100
▁га 100
cent 100
▁оказания 100
gro 100
▁сумму 100
▁delivered 100
▁применение 100
tter 100
▁социального 100
шего 100
▁Get 100
▁Out 100
▁managed 100
етесь 100
▁вызван 100
▁indigenous 100
▁Rolex 100
▁шести 100
РИ 100
▁ставки 100
син 100
▁declared 100
▁2020 100
bil 100
Не 100
▁experienced 100
▁смысл 100
▁угол 100
▁корпус 100
cess 100
▁objectives 100
▁concerns 100
▁appears 100
▁печати 100
CH 100
▁Ali 100
▁Charter 100
▁edit 100
▁мар 100
▁выполнен 100
▁Азербайджана 100
▁азиатки 100
▁спустя 100
▁Democratic 100
▁rural 100
▁awareness 100
online 100
▁believed 100
ali 100
▁международным 100
▁invited 100
ivity 100
▁Imp 100
Со 100
мени 100
▁except 100
») 100
=1 100
▁Cummins 100
▁magazine 100
▁reliable 100
▁порядка 100
▁translation 100
▁здоров 100
▁персонал 100
▁продолжал 100
гов 100
ВА 100
well 100
▁принципов 100
▁баланс 100
чество 100
cut 100
▁Отдел 100
▁став 100
▁Key 100
дин 100
▁эффективность 100
▁creative 100
▁heaven 100
mic 100
▁Down 100
▁male 100
▁machines 100
▁базы 100
▁reading 100
▁Pat 100
▁длинн 100
▁vehicles 100
▁rose 100
▁чрезвычайно 100
▁заседании 100
▁Justice 100
чев 100
▁Му 100
▁adoption 100
▁GDP 100
▁интересов 100
▁объявления 100
ума 100
▁Ph 100
var 100
▁lose 100
▁someone 100
ОН 100
SC 100
▁деревянн 100
▁Finance 100
▁ВИЧ 100
▁научных 100
мот 100
▁улучшения 100
▁гуманитарн 100
▁Governments 100
▁accounts 100
▁Крас 100
▁Island 100
▁tend 100
иш 100
▁могла 100
▁Ke 100
lines 100
нк 100
▁Bra 100
правительственн 100
▁министр 100
▁фа 100
▁accident 100
▁секретариат 100
▁Natural 100
▁thousands 100
▁union 100
▁уз 100
▁войска 100
▁granted 100
енс 100
емый 100
▁Unit 100
▁Mini 100
▁Фото 100
▁adopt 100
чки 100
мел 100
:51 100
▁депозит 100
▁Force 100
▁Kar 100
▁Порно 100
related 100
ике 100
▁Ге 100
▁некоторо 100
▁Продукты 100
влек 100
▁Гр 100
▁фактически 100
▁Yet 100
сет 100
:49 100
дума 100
▁слав 100
gra 100
▁statements 100
▁defense 100
▁специализирован 100
▁Генеральны 100
▁подготовлен 100
▁ведь 100
▁investors 100
▁contribution 100
▁Без 100
щение 100
▁Плат 100
▁правительством 100
▁наград 100
▁approximately 100
▁часа 100
▁10% 100
▁взял 100
▁extent 100
▁penetration 100
▁dangerous 100
▁показывает 100
▁apartments 100
нной 100
gstad 100
▁Кам 100
▁начальник 100
▁flowers 100
▁оборудован 100
▁выпуска 100
▁каждом 100
▁mountain 100
kar 100
▁Ambassador 100
▁improving 100
▁используя 100
▁будущее 100
▁использовал 100
▁bomb 100
▁немецк 100
PA 100
nie 100
▁Ту 100
▁USD 100
▁anyone 100
▁enhance 100
ходить 100
Щ 100
ü 100
щий 100
▁отца 100
▁permit 100
▁tree 100
▁шанс 100
▁вред 100
▁edge 100
▁получать 100
сторон 100
▁extremely 100
▁treaty 100
▁poll 100
чёт 100
▁Page 100
▁contain 100
pic 100
▁ru 100
▁закрыт 100
кат 100
ывать 100
▁happened 100
▁привод 100
rat 100
▁finished 100
друг 100
▁Jehovah 100
▁Technical 100
▁наконец 100
▁Division 100
▁землю 100
▁региональн 100
▁mini 100
ics 100
▁призывает 100
list 100
тес 100
нар 100
iev 100
анг 100
▁previously 100
▁Three 100
▁tank 100
▁Number 100
▁вещи 100
▁узнать 100
▁лож 100
▁соответствующе 100
ающий 100
▁работников 100
▁форум 100
ьев 100
und 100
▁Sale 100
AC 100
тельно 100
rit 100
евой 100
:47 100
▁Президента 100
▁Professor 100
▁committee 100
креп 100
▁tournament 100
▁Directory 100
▁dew 100
▁fo 100
▁helped 100
:48 100
▁звук 100
▁ядерного 100
point 100
▁combined 100
▁Wind 100
▁НА 100
▁lay 100
▁dynamic 100
▁terrorism 100
▁Mehrib 100
▁Среди 100
RO 100
▁bridge 100
▁оригинальн 100
key 100
енным 100
▁классическ 100
▁документы 100
ьте 100
▁ад 100
▁считают 100
▁процента 100
▁drag 100
EA 100
▁происхождения 100
▁Vista 100
▁написал 100
▁agency 100
▁предоставить 100
▁неверной 100
ome 100
кого 100
▁работают 100
▁stable 100
▁Bush 100
lk 100
▁heads 100
▁Chi 100
:53 100
▁размера 100
▁область 100
▁push 100
лли 100
▁мор 100
ово 100
▁print 100
▁Зе 100
▁AC 100
▁Despite 100
▁bottom 100
▁Скачать 100
▁Конечно 100
▁spin 100
созна 100
▁Люб 100
РА 100
▁structures 100
▁институт 100
▁Мил 100
▁Хар 100
▁facilitate 100
▁дополнительных 100
▁команда 100
▁perhaps 100
▁стрел 100
▁священник 100
▁Модель 100
▁instrument 100
▁конец 100
▁speaking 100
▁Цвет 100
VE 100
лист 100
▁discuss 100
▁fund 100
tag 100
minate 100
▁имел 100
▁Its 100
▁живот 100
▁южн 100
▁Digital 100
▁Mexico 100
▁позже 100
▁winner 100
ированные 100
▁население 100
▁visa 100
▁склон 100
▁свободу 100
дес 100
класс 100
burg 100
▁известны 100
еш 100
▁автомобиля 100
▁contained 100
▁художник 100
▁самолет 100
▁enterprise 100
OL 100
▁Национально 100
▁engineering 100
▁tasks 100
▁практики 100
▁компьютера 100
▁спорта 100
▁государствами 100
pin 100
▁innovative 100
▁insurance 100
▁Африки 100
▁horse 100
▁настолько 100
erg 100
кл 100
▁далеко 100
▁ring 100
▁составляют 100
▁книги 100
нев 100
▁написан 100
▁divided 100
▁Марк 100
▁массовой 100
▁мини 100
▁forum 100
"; 100
▁abuse 100
▁supporting 100
оро 100
box 100
▁Гар 100
7) 100
▁Before 100
▁нравится 100
▁охраны 100
кция 100
ош 100
кин 100
фу 100
▁механизм 100
▁глаза 100
PI 100
▁thanks 100
▁Hill 100
but 100
▁Technology 100
▁elegant 100
▁Правительство 100
▁исчез 100
▁Молдова 100
▁проводить 100
▁ja 100
▁significantly 100
▁remaining 100
▁Порт 100
▁specialized 100
ицы 100
▁сказала 100
:52 100
ect 100
vol 100
▁dog 100
▁sides 100
nch 100
▁adequate 100
▁identity 100
▁Small 100
▁четко 100
▁Mu 100
▁arm 100
▁знаю 100
▁drawing 100
▁покер 100
TI 100
▁меньшинств 100
▁отношению 100
▁знаний 100
▁рабочей 100
▁household 100
емой 100
▁defend 100
miss 100
ei 100
русск 100
▁parking 100
▁operate 100
▁Bur 100
▁ванная 100
▁био 100
▁analyzes 100
▁дис 100
▁wave 100
▁Girl 100
▁comfort 100
▁removed 100
▁будете 100
▁ус 100
▁Festival 100
▁акции 100
▁суб 100
▁должность 100
▁баз 100
bin 100
▁личности 100
▁организациями 100
inter 100
нных 100
▁sort 100
▁намного 100
сан 100
▁реформы 100
ds 100
▁impossible 100
▁партий 100
ющегося 100
▁requests 100
▁стены 100
▁свеж 100
▁опыта 100
▁выступ 100
зова 100
▁назван 100
▁молодыми 100
▁Well 100
▁системой 100
▁Kh 100
▁расход 100
▁устройство 100
era 100
▁минимум 100
▁помогает 100
pot 100
quality 100
▁делают 100
▁поток 100
Po 100
ственно 100
▁политические 100
▁Create 100
▁mental 100
▁wait 100
пир 100
▁Их 100
▁behalf 100
▁incident 100
▁вообще 100
▁соотношение 100
▁Toilet 100
▁зарегистрирован 100
▁animals 100
▁наличие 100
зия 100
▁видом 100
▁initiatives 100
▁источников 100
▁Photos 100
▁врач 100
▁participated 100
▁addressed 100
▁Почему 100
lies 100
▁branch 100
zy 100
▁Are 100
▁получила 100
adidas 100
EX 100
▁Жен 100
▁обсуждения 100
ky 100
▁лист 100
▁Wal 100
▁волос 100
ложения 100
▁ежегодно 100
▁Воз 100
▁operational 100
▁ситуация 100
▁destruction 100
▁Square 100
▁Eastern 100
▁species 100
▁осуществлению 100
▁estate 100
▁exist 100
▁принес 100
ó 100
▁плав 100
▁decades 100
▁экран 100
▁кого 100
▁cha 100
▁peaceful 100
▁combat 100
▁violations 100
▁72 100
▁plate 100
PO 100
▁iPhone 100
▁ВВП 100
▁авиа 100
▁потребуется 100
щу 100
НА 100
▁des 100
▁жен 100
иса 100
▁Cable 100
▁cars 100
ska 100
▁automatic 100
▁Netherlands 100
▁драйвер 100
▁moving 100
▁правах 100
▁процент 100
▁Еще 100
▁Помимо 100
tech 100
enko 100
▁Music 100
star 100
▁fabric 100
▁Господа 100
▁НАТО 100
Be 100
тил 100
water 100
▁песни 100
ult 100
▁List 100
ats 100
▁Cup 100
▁отношение 100
▁ночью 100
▁приговор 100
▁RE 100
строен 100
▁просмотра 100
▁молодежь 100
ируя 100
запад 100
▁посту 100
▁поддерживать 100
▁гостиницы 100
▁плен 100
▁800 100
кот 100
▁креп 100
vy 100
ял 100
Ro 100
ЭС 100
▁Ed 100
Ко 100
▁extend 100
▁Большинство 100
▁обсужда 100
▁enemy 100
▁содержание 100
▁shot 100
▁Ну 100
▁tons 100
зин 100
сот 100
▁residents 100
иг 100
▁sport 100
pol 100
▁подверг 100
▁методов 100
PP 100
▁testing 100
▁England 100
▁Those 100
▁evaluation 100
▁studio 100
▁раньше 100
▁si 100
▁fe 100
▁обновления 100
▁solve 100
▁candidates 100
МС 100
дает 100
dra 100
▁(4 100
▁classic 100
▁акт 100
▁boat 100
линг 100
▁Пар 100
▁фетиш 100
арт 100
▁Afghanistan 100
▁колледж 100
▁потребности 100
stro 100
▁investments 100
▁nine 100
PC 100
▁крайне 100
▁00 100
няя 100
▁represented 100
▁Author 100
une 100
▁accommodation 100
▁Пакистан 100
▁международные 100
▁влияния 100
▁вполне 100
▁severe 100
hes 100
▁neck 100
▁worldwide 100
зол 100
put 100
▁любое 100
aw 100
▁Сил 100
▁служб 100
▁Syrian 100
▁soldiers 100
▁66 100
▁IDGC 100
▁sheet 100
▁расп 100
анные 100
▁компоненты 100
▁мнения 100
hol 100
gan 100
oy 100
making 100
клон 100
▁courses 100
▁семье 100
▁лидеров 100
▁sand 100
▁Squirt 100
Con 100
▁выборы 100
▁browser 100
РО 100
▁час 100
bn 100
skaya 100
▁component 100
▁возраст 100
▁торговле 100
▁произошло 100
▁дальше 100
▁Friday 100
▁проводим 100
▁grand 100
▁финансовые 100
око 100
▁95 100
▁Ах 100
115. 100
cus 100
рот 100
▁максимально 100
▁Америке 100
▁переговоры 100
▁Northern 100
▁Peace 100
▁ban 100
▁фигур 100
▁mar 100
▁хотят 100
маз 100
ony 100
▁Одно 100
▁Было 100
5,000 100
▁считал 100
NC 100
пущен 100
▁американск 100
▁достичь 100
▁Royal 100
▁era 100
▁оптим 100
▁гибк 100
▁Both 100
lad 100
0.00 100
▁channel 100
▁координации 100
ime 100
▁используют 100
▁капитал 100
▁лидер 100
▁panel 100
▁68 100
▁Христа 100
▁wealth 100
▁Вместе 100
▁самостоятельно 100
lot 100
uni 100
▁органа 100
все 100
til 100
▁храм 100
орт 100
▁семинар 100
▁figure 100
FI 100
▁Мехрибан 100
▁информацией 100
▁fourth 100
▁Азербайджан 100
▁экономический 100
▁царств 100
▁фильма 100
вшим 100
▁стороне 100
▁Тай 100
▁реки 100
▁люб 100
▁risks 100
▁certainly 100
▁формул 100
▁Britain 100
▁expansion 100
ино 100
▁увидел 100
нка 100
▁сухо 100
▁выбора 100
▁widely 100
▁дороги 100
▁4- 100
▁Los 100
▁предоставления 100
▁kill 100
▁thinking 100
▁925 100
?” 100
рожд 100
▁Char 100
▁secretariat 100
ich 100
▁stick 100
▁сообщил 100
▁JSC 100
▁осуществляется 100
ena 100
` 100
руш 100
▁regulation 100
▁причине 100
ovo 100
▁куп 100
▁measure 100
▁focused 100
▁объекта 100
▁подготовке 100
▁Medical 100
▁осуществлении 100
трансы 100
▁гос 100
▁график 100
wood 100
▁gift 100
▁серьезны 100
▁protest 100
пулярн 100
/10 100
▁думаю 100
rank 100
▁Criminal 100
▁utilize 100
▁presidential 100
▁theory 100
▁equality 100
▁exp 100
ove 100
▁peoples 100
▁Большие 100
▁Ob 100
▁Уже 100
-18 100
▁Furniture 100
▁мотив 100
▁brief 100
cons 100
ьные 100
RC 100
OM 100
▁вода 100
▁импорт 100
fo 100
▁AND 100
▁вебкамера 100
▁уверены 100
▁комп 100
▁спрос 100
▁behavior 100
▁Организация 100
▁torture 100
▁здание 100
▁fetish 100
▁взять 100
▁Max 100
other 100
▁identify 100
▁stockings 100
▁исполня 100
▁ceremony 100
▁функций 100
▁Modern 100
▁руководством 100
▁регион 100
▁представление 100
▁destroyed 100
▁полный 100
▁временем 100
▁такими 100
▁цифров 100
▁handle 100
гро 100
▁presents 100
▁Secretariat 100
▁Министерство 100
▁remind 100
duct 100
▁reflect 100
Ex 100
вре 100
▁увеличен 100
▁разрешения 100
TR 100
▁fighting 100
:6 100
бат 100
▁требованиям 100
▁имели 100
▁параметр 100
▁времена 100
▁cards 100
▁осадков 100
▁profile 100
▁зуб 100
▁Note 100
двиг 100
▁планет 100
вез 100
▁110 100
▁режиме 100
sia 100
▁follows 100
▁painting 100
▁labour 100
▁ones 100
▁Ten 100
▁ци 100
yr 100
▁bearing 100
ительно 100
▁Tre 100
tern 100
▁инструмент 100
оров 100
▁кра 100
▁str 100
▁arrival 100
▁coordination 100
▁Palace 100
▁Christmas 100
▁видеть 100
▁рождения 100
▁chosen 100
▁causes 100
DM 100
▁уменьш 100
ьер 100
▁ряда 100
▁составе 100
▁(5 100
ert 100
і 100
▁постепенно 100
▁Washington 100
ните 100
сил 100
очной 100
▁bath 100
ched 100
крытие 100
UL 100
▁военной 100
АТ 100
▁обороны 100
▁pal 100
▁небольшой 100
▁library 100
▁Виктор 100
▁сохраня 100
▁drop 100
grab 100
wards 100
ьных 100
▁Additional 100
слав 100
ures 100
▁orders 100
nis 100
▁своё 100
шин 100
▁объявлен 100
▁Belarus 100
ИН 100
▁executive 100
▁положений 100
▁Search 100
▁database 100
▁ужас 100
▁j 100
▁Bel 100
▁идеи 100
▁cutting 100
ДА 100
ху 100
ways 100
ограф 100
▁парк 100
СК 100
▁меч 100
▁бог 100
▁fit 100
▁transportation 100
party 100
хот 100
berg 100
нести 100
▁национальном 100
▁Vol 100
ini 100
▁struggle 100
▁инфраструктуры 100
▁позволяют 100
▁da 100
▁Obama 100
▁improvement 100
▁background 100
альную 100
▁уровнях 100
▁flight 100
▁Санкт 100
▁Ber 100
▁estimated 100
eri 100
▁auto 100
▁indicated 100
▁промышленн 100
▁obtain 100
▁сложно 100
▁существенно 100
▁рекомендуем 100
▁ледибой 100
▁Keek 100
▁corner 100
ителем 100
iya 100
▁walls 100
▁Series 100
▁Национальны 100
бот 100
▁преимущества 100
800 100
▁recover 100
▁убежден 100
▁универсальн 100
▁coast 100
▁relation 100
▁wants 100
▁confidence 100
▁promoting 100
▁первоначально 100
▁intellectual 100
▁история 100
▁ракет 100
▁Er 100
▁constitute 100
gate 100
CI 100
bag 100
▁compliance 100
▁зоны 100
ске 100
▁partnership 100
▁окруж 100
▁feeling 100
▁соверш 100
▁Administration 100
▁victory 100
▁Мешок 100
▁Эн 100
▁административны 100
▁Республика 100
шая 100
▁концов 100
▁скачать 100
▁северо 100
▁ограничива 100
▁gone 100
▁Butt 100
▁процессов 100
▁77 100
▁лег 100
▁Ac 100
▁Джо 100
▁Lake 100
▁rec 100
▁Declaration 100
▁декабре 100
▁компанией 100
▁современных 100
▁extensive 100
▁Transport 100
▁bright 100
СП 100
▁membership 100
6. 100
sq 100
▁руководящи 100
▁VI 100
▁computers 100
▁Turkish 100
ласт 100
▁товар 100
ute 100
▁Med 100
▁белый 100
▁crimes 100
▁confirmed 100
▁employ 100
▁Центральной 100
▁CA 100
▁объема 100
рад 100
▁RedTube 100
▁trading 100
вшей 100
▁управля 100
▁proposals 100
▁пространства 100
▁моей 100
▁форму 100
▁figures 100
body 100
▁14. 100
▁команду 100
▁генерал 100
раг 100
▁poly 100
▁еврейск 100
▁поставлен 100
▁увеличить 100
министра 100
▁частей 100
hood 100
▁factor 100
▁(10 100
▁greeting 100
емого 100
▁su 100
▁грех 100
▁видим 100
▁недель 100
▁ID 100
▁brunette 100
ls 100
▁заседания 100
▁молодежи 100
▁совещания 100
▁ПВК 100
▁disaster 100
▁акций 100
▁следующим 100
mil 100
▁языков 100
кси 100
▁diseases 100
▁границы 100
Th 100
▁spot 100
▁черт 100
ически 100
▁Лю 100
▁Full 100
▁tourist 100
▁situations 100
▁двери 100
▁fixed 100
▁manufacturers 100
round 100
▁Flower 100
▁разрешен 100
▁Подшипник 100
▁утверждает 100
▁extended 100
▁взрыв 100
▁Polish 100
▁частично 100
ленд 100
▁Body 100
▁Mission 100
▁seeking 100
уса 100
▁поддержани 100
▁learned 100
ket 100
вания 100
▁trend 100
яд 100
▁Автор 100
wn 100
shed 100
▁Шар 100
▁Эл 100
ano 100
▁scene 100
▁недвижимости 100
ibility 100
▁fiscal 100
▁latter 100
▁ра 100
▁Kur 100
position 100
agon 100
▁invest 100
non 100
field 100
▁добавлен 100
ole 100
нием 100
▁помог 100
▁Total 100
▁Shemale 100
▁definition 100
▁federal 100
▁Африке 100
ira 100
имость 100
▁Вол 100
ированный 100
▁register 100
▁predict 100
▁registry 100
▁20% 100
▁(2) 100
An 100
▁sat 100
▁notice 100
▁ремонт 100
gel 100
ани 100
▁принято 100
▁лиш 100
▁recorded 100
дали 100
цвет 100
New 100
▁компонент 100
▁добиться 100
▁рассмотреть 100
▁permission 100
▁Ce 100
▁назвал 100
▁loans 100
▁unable 100
крыл 100
▁stream 100
▁слож 100
▁мои 100
▁прошлого 100
BO 100
▁ну 100
▁recognition 100
▁substantial 100
▁войск 100
ляции 100
▁земель 100
шли 100
▁любых 100
▁Mer 100
▁аль 100
▁Test 100
ado 100
орд 100
трат 100
лас 100
▁ответил 100
Ре 100
▁Korean 100
▁Han 100
▁описание 100
▁Floor 100
▁situated 100
▁interior 100
▁отрасли 100
▁advice 100
▁воздействие 100
▁сюда 100
AIDS 100
ature 100
▁МО 100
▁роди 100
▁Св 100
ким 100
ивания 100
▁настроен 100
▁Прав 100
mir 100
ством 100
▁успеха 100
OC 100
▁Once 100
▁entities 100
▁Можно 100
last 100
мут 100
▁улучш 100
вшего 100
▁фон 100
▁81 100
▁quick 100
▁обнаружен 100
Об 100
ati 100
До 100
▁насколько 100
▁forth 100
▁сервера 100
кое 100
▁implementing 100
▁курорт 100
▁Международной 100
▁escape 100
▁начина 100
▁выхода 100
och 100
▁Bonus 100
look 100
▁Hall 100
▁Вес 100
▁срока 100
▁характера 100
▁suit 100
▁Эр 100
▁spend 100
▁Чи 100
▁HClips 100
▁последствий 100
▁Take 100
дат 100
ированных 100
▁подписан 100
▁sentence 100
▁предпринима 100
called 100
лоп 100
▁давление 100
цар 100
▁sleep 100
▁danger 100
š 100
▁approval 100
▁precipitation 100
▁emergency 100
▁composition 100
sure 100
▁rain 100
▁Программа 100
▁Jan 100
▁чисто 100
▁ночь 100
шне 100
ело 100
▁treat 100
▁Casting 100
€ 100
▁corruption 100
arm 100
▁posts 100
▁ликвид 100
▁obtained 100
▁дефицит 100
▁дилдо 100
провод 100
▁альбом 100
mate 100
▁твор 100
сты 100
▁2008, 100
▁Бал 100
▁Tor 100
▁буду 100
арь 100
ТИ 100
▁сможете 100
▁членами 100
▁поможет 100
▁следующем 100
▁участвовать 100
▁степень 100
▁влажности 100
▁членом 100
▁Slot 100
▁собран 100
=49 100
▁Str 100
▁механизма 100
▁seat 100
▁videos 100
▁свойства 100
.11 100
▁выпущен 100
▁демократии 100
▁gate 100
▁создает 100
тельный 100
gs 100
▁призвал 100
▁предусматривает 100
▁Source 100
▁leaving 100
▁IDEA 100
▁доходов 100
▁марте 100
games 100
▁признал 100
bet 100
льт 100
▁абсолютно 100
▁выставка 100
▁ваше 100
▁Show 100
▁fulfill 100
script 100
▁shift 100
▁положении 100
▁касающихся 100
▁тесно 100
священ 100
▁explain 100
sel 100
▁законом 100
жит 100
шев 100
▁важных 100
▁заключа 100
▁attitude 100
▁ислам 100
бой 100
▁молод 100
▁13. 100
▁комфортно 100
▁единицы 100
▁свободно 100
вели 100
люб 100
пись 100
tics 100
▁регулиру 100
▁Сын 100
▁animal 100
▁последний 100
▁wild 100
▁секрет 100
▁Соединенны 100
▁comments 100
▁06:15 100
▁scope 100
▁практике 100
▁User 100
таль 100
▁Rome 100
▁видел 100
▁базе 100
▁перспектив 100
CT 100
ительные 100
▁мысли 100
▁Ltd 100
▁показать 100
▁algorithm 100
▁medicine 100
▁требований 100
▁fuck 100
▁Hermes 100
▁формирования 100
▁networks 100
▁Legal 100
чные 100
▁мат 100
ika 100
▁rated 100
щих 100
phy 100
пов 100
▁atmosphere 100
▁производителей 100
▁joy 100
ология 100
▁панели 100
▁140 100
АС 100
▁кан 100
▁snow 100
▁spa 100
▁SE 100
▁наше 100
▁dollars 100
gal 100
▁моделью 100
▁судебно 100
▁четвер 100
get 100
▁обстоятельств 100
ску 100
▁открывает 100
▁сопровожда 100
▁Штатов 100
▁quiet 100
▁Вчера 100
wer 100
▁внесен 100
▁докладчик 100
tted 100
avi 100
итесь 100
▁Ste 100
▁immediate 100
▁большинства 100
pen 100
▁audit 100
эль 100
вших 100
▁southern 100
▁уход 100
▁окне 100
уга 100
La 100
тек 100
▁relatively 100
▁Romania 100
▁Nu 100
▁квартира 100
щую 100
▁шт 100
▁stood 100
▁механическ 100
▁изделия 100
▁Garden 100
▁окна 100
▁caught 100
▁сезона 100
▁штаб 100
▁независимости 100
▁Joint 100
▁sight 100
▁powers 100
▁Fire 100
▁способности 100
сут 100
▁Всего 100
arian 100
▁layer 100
▁Direct 100
▁Ду 100
▁тему 100
▁конкурс 100
▁туалет 100
▁колон 100
▁ne 100
▁firm 100
▁province 100
▁Республике 100
▁показателей 100
▁residence 100
▁HDSex 100
▁способствовать 100
▁ду 100
работан 100
▁низко 100
▁азартные 100
▁Cam 100
яют 100
2007 100
DE 100
▁sufficient 100
sti 100
енно 100
ыр 100
ДЕ 100
▁знает 100
▁осуществлять 100
▁Comp 100
▁Wood 100
гре 100
▁refugees 100
▁BravoTube 100
▁Leather 100
▁Olympic 100
▁changing 100
rc 100
▁stations 100
▁вскоре 100
руд 100
▁Sunday 100
▁ликвидации 100
▁блондинки 100
▁outcome 100
монт 100
изацию 100
tes 100
▁lit 100
овыми 100
ьный 100
▁локальн 100
бел 100
КИ 100
лива 100
мысл 100
закон 100
NG 100
name 100
▁Германия 100
▁circle 100
▁жопы 100
▁музей 100
▁Induction 100
▁ткани 100
нен 100
▁сделали 100
▁east 100
▁пуст 100
тал 100
▁ванной 100
▁телевизор 100
she 100
мя 100
▁вниз 100
▁смог 100
туп 100
▁showed 100
▁спальни 100
▁Dubai 100
▁Kosovo 100
▁smooth 100
▁Sign 100
▁среде 100
▁билет 100
оци 100
▁конкретных 100
pay 100
▁привело 100
▁Анальн 100
рова 100
cialis 100
▁боев 100
▁развива 100
ключение 100
▁kinds 100
▁долг 100
▁бок 100
▁institutional 100
▁theme 100
MI 100
▁strategies 100
▁divine 100
▁привлекательн 100
▁нес 100
rop 100
▁группу 100
▁99 100
▁двадцать 100
▁положительн 100
▁ск 100
▁kg 100
▁Spa 100
Ad 100
▁Vice 100
▁пен 100
▁давно 100
психолог 100
▁Treaty 100
▁supplement 100
▁церковь 100
▁Chief 100
▁спорт 100
▁Мари 100
▁принятие 100
ьян 100
▁Новая 100
▁отец 100
вая 100
▁score 100
марк 100
▁трав 100
росмотреть 100
Pa 100
▁резко 100
▁Dan 100
▁mostly 100
▁эс 100
▁transfers 100
ima 100
ically 100
▁мое 100
▁Москва 100
▁visual 100
▁давления 100
▁ген 100
▁пределами 100
▁плохо 100
ister 100
▁говорится 100
bank 100
▁Союза 100
lly 100
tive 100
носят 100
▁пробка 100
oph 100
▁занял 100
▁лидера 100
▁→ 100
▁требуют 100
▁terrace 100
▁discount 100
▁спектр 100
▁indeed 100
▁десять 100
▁manager 100
▁TO 100
▁Ye 100
▁обмена 100
▁writer 100
ode 100
нц 100
pending 100
▁пап 100
rr 100
финанс 100
▁кг 100
▁вечер 100
▁любовь 100
▁homemade 100
cap 100
bas 100
▁обе 100
▁entrance 100
▁governance 100
ender 100
▁использоваться 100
▁жалоб 100
▁pension 100
▁lock 100
▁принципы 100
▁Сирии 100
▁учета 100
▁полного 100
▁intention 100
▁безопасно 100
▁создавать 100
▁кап 100
▁звезд 100
▁] 100
▁ласковы 100
▁сообщений 100
▁Показать 100
▁Турции 100
▁Ху 100
▁Sports 100
▁информационных 100
▁расчет 100
▁жир 100
▁входит 100
TE 100
▁seal 100
▁потреб 100
▁cor 100
plan 100
▁Il 100
кос 100
сту 100
итар 100
▁30% 100
under 100
▁filled 100
▁min 100
▁Джордж 100
▁историю 100
▁заболеваний 100
▁reducing 100
▁enforcement 100
▁attract 100
▁общественности 100
▁Active 100
▁IS 100
▁iron 100
сор 100
▁ти 100
▁whi 100
▁arrangements 100
▁Мер 100
▁задача 100
▁спец 100
▁Секретариат 100
▁uniform 100
▁одобрен 100
▁password 100
▁teams 100
▁z 100
орган 100
▁solid 100
фт 100
print 100
▁Инд 100
▁смертн 100
▁начальн 100
труд 100
▁west 100
бан 100
▁delay 100
mus 100
цом 100
▁5- 100
ular 100
▁сентябре 100
▁Building 100
▁married 100
▁Norway 100
▁исполнительн 100
писать 100
▁Following 100
нская 100
▁слаб 100
yo 100
cra 100
dal 100
онов 100
vil 100
▁Вид 100
▁primarily 100
▁satellite 100
▁природе 100
▁кабель 100
▁architecture 100
▁upper 100
bat 100
▁атак 100
▁программой 100
ced 100
rum 100
ote 100
▁минутах 100
how 100
pu 100
▁финансового 100
▁chat 100
▁PH 100
▁собственной 100
▁руководства 100
▁избирательн 100
звуч 100
▁Award 100
▁suggested 100
▁проведении 100
▁pieces 100
▁выполнение 100
▁запись 100
ТЕ 100
known 100
▁шарики 100
▁учебных 100
▁шпика 100
▁+2 100
▁duty 100
MO 100
▁диалог 100
illa 100
кур 100
Лучш 100
▁открывается 100
gent 100
▁` 100
▁Высоко 100
▁opens 100
cious 100
▁Ven 100
ированы 100
▁Av 100
▁academic 100
▁professor 100
▁statistics 100
▁большого 100
▁последнее 100
▁состава 100
▁Among 100
баев 100
▁каталог 100
▁Фин 100
▁Pol 100
▁laid 100
▁Details 100
план 100
ющимся 100
ему 100
▁кадров 100
test 100
nc 100
кач 100
▁XoZilla 100
▁Название 100
▁диапазон 100
▁соответствует 100
▁быстрый 100
▁миссии 100
▁diplomatic 100
▁Cooperation 100
▁Space 100
▁Оно 100
▁helps 100
очных 100
▁такая 100
▁protected 100
▁прогресса 100
▁создал 100
▁ME 100
▁revealed 100
▁cheap 100
▁formal 100
/4 100
как 100
pped 100
▁Arctic 100
ично 100
▁Food 100
▁Cross 100
▁подхода 100
▁plot 100
▁Road 100
▁правления 100
▁depends 100
▁replaced 100
▁clothing 100
Do 100
▁Tro 100
bel 100
▁подобно 100
производ 100
▁Deposit 100
▁алгоритм 100
▁northern 100
▁taste 100
уди 100
▁специальных 100
▁Цена 100
▁Visit 100
▁увеличения 100
▁Kaz 100
▁engaged 100
ART 100
▁drugs 100
луг 100
▁Pack 100
▁парламента 100
▁школ 100
▁фе 100
▁отказ 100
▁$10 100
å 100
▁eventually 100
▁воздействия 100
▁прос 100
▁surprise 100
:7 100
12. 100
▁Date 100
TO 100
▁Like 100
nu 100
телю 100
FS 100
шек 100
IG 100
ЛО 100
▁73 100
nal 100
▁сердца 100
▁загрузки 100
уры 100
▁temple 100
▁Access 100
▁specialists 100
▁Вал 100
▁96 100
лоб 100
▁› 100
▁indicators 100
ушка 100
РУ 100
▁полно 100
▁Mag 100
▁Кто 100
▁проходит 100
▁различными 100
▁распространение 100
нат 100
PL 100
▁кофе 100
▁студент 100
▁Фабрика 100
▁Ireland 100
▁Glass 100
▁формат 100
▁чувств 100
▁collective 100
▁сила 100
CP 100
лён 100
▁Путин 100
▁глубок 100
▁оказыва 100
▁станции 100
▁Ев 100
▁67 100
▁матч 100
▁Дух 100
▁Uzbekistan 100
▁biggest 100
▁eliminate 100
▁высокий 100
▁worse 100
▁содержания 100
▁мас 100
▁EN 100
▁типы 100
▁increases 100
new 100
▁принципа 100
▁Ve 100
pc 100
▁songs 100
шка 100
▁предыдущ 100
▁2012, 100
▁Вар 100
▁Наши 100
ори 100
▁необходимых 100
▁attribute 100
▁coffee 100
▁destination 100
▁адвокат 100
▁Возможно 100
+1 100
▁Испании 100
▁Card 100
▁рассмотрение 100
▁Давид 100
▁compris 100
0° 100
▁семи 100
▁pill 100
pet 100
▁пожар 100
west 100
▁общественных 100
mn 100
▁reaction 100
▁Pu 100
▁college 100
▁интервью 100
▁mechanical 100
▁предлагают 100
▁средство 100
▁кандидатов 100
▁описан 100
▁concluded 100
▁городах 100
▁mention 100
phi 100
▁guest 100
▁Кас 100
▁sell 100
▁обеспечивают 100
▁театр 100
▁н 100
mod 100
▁proceed 100
▁occupation 100
▁Culture 100
▁module 100
▁otherwise 100
▁администрации 100
▁ноябре 100
▁политического 100
▁проблему 100
▁желание 100
▁касающиеся 100
▁потери 100
▁любви 100
▁specify 100
▁взрослых 100
▁owner 100
▁оснащен 100
ters 100
бен 100
▁одежды 100
▁обрати 100
ept 100
▁standing 100
▁Sol 100
▁прошло 100
▁Third 100
▁episode 100
▁technological 100
▁воспользоваться 100
â 100
▁помещения 100
▁represent 100
▁wage 100
▁искусств 100
sch 100
▁Вен 100
▁y 100
хар 100
▁Sar 100
▁PM 100
▁older 100
цем 100
▁законодательн 100
article 100
нцы 100
▁Make 100
душ 100
▁exceed 100
▁bareback 100
▁будущего 100
▁aircraft 100
▁расширен 100
▁belt 100
они 100
▁глава 100
▁продав 100
olo 100
▁публично 100
▁свиные 100
ушки 100
▁Тро 100
LA 100
vor 100
▁облада 100
TV 100
вшийся 100
▁prove 100
ида 100
▁reveal 100
▁Young 100
▁первое 100
click 100
альным 100
▁ended 100
▁дар 100
▁объясн 100
▁Мин 100
оли 100
▁миллиона 100
lang 100
▁1) 100
▁механизмов 100
▁cells 100
▁насос 100
▁арест 100
▁belief 100
▁convenient 100
▁Министерства 100
▁нержавеющей 100
▁оценке 100
▁информационно 100
▁ongoing 100
▁найден 100
▁пределах 100
east 100
стороннего 100
ising 100
▁заверш 100
▁arrived 100
vit 100
▁NO 100
▁Пр 100
ору 100
▁ahead 100
▁взаимо 100
tric 100
▁решить 100
щет 100
▁центральн 100
▁jobs 100
цит 100
life 100
▁guard 100
mes 100
▁председатель 100
▁roof 100
ili 100
ико 100
▁пришел 100
▁Ген 100
▁глаз 100
▁Mark 100
▁cool 100
рк 100
▁Ak 100
▁черн 100
▁сколько 100
▁artists 100
▁виду 100
▁Player 100
▁брак 100
even 100
▁row 100
▁equivalent 100
▁humidity 100
▁receiving 100
▁комиссия 100
▁Сейчас 100
▁подтвердил 100
▁Vegas 100
▁лучший 100
▁occurred 100
▁euro 100
▁царя 100
hin 100
▁fellow 100
▁consistent 100
▁label 100
▁Area 100
▁развитии 100
▁electricity 100
▁Age 100
▁Col 100
▁юридическ 100
NS 100
▁утра 100
▁seemed 100
▁этаже 100
DC 100
▁Много 100
▁mu 100
▁Союз 100
ivat 100
pper 100
▁Ше 100
▁актуальн 100
▁поврежден 100
▁Islam 100
инга 100
▁Fort 100
рг 100
ПР 100
stone 100
▁suffering 100
▁piece 100
▁недостаточно 100
▁Powder 100
▁относится 100
▁рекомендаций 100
следующую 100
▁Outdoor 100
▁temporary 100
▁fill 100
pat 100
ляет 100
▁комфорт 100
▁secondary 100
▁(" 100
▁инструментов 100
мес 100
▁hidden 100
▁intervention 100
▁introduction 100
АК 100
▁dr 100
born 100
▁chi 100
▁institution 100
▁активов 100
▁waiting 100
run 100
Ба 100
▁Газ 100
bus 100
▁подъем 100
верт 100
▁Группы 100
▁Цель 100
▁искусство 100
▁artist 100
▁08:00 100
тия 100
▁© 100
▁вопросах 100
eli 100
способ 100
▁experiences 100
una 100
крыть 100
▁Training 100
tz 100
▁пространство 100
▁Ter 100
ith 100
▁холод 100
▁ха 100
▁William 100
▁sharp 100
енными 100
▁Dia 100
льд 100
▁российского 100
del 100
cor 100
▁десяти 100
▁adult 100
▁любит 100
▁важность 100
▁Uni 100
▁Bath 100
▁рассказал 100
▁links 100
▁AD 100
▁Political 100
▁revenue 100
▁inflation 100
▁Register 100
▁легкий 100
▁предусмотрен 100
▁памятник 100
▁мебели 100
mun 100
lut 100
lis 100
▁занимает 100
▁advantages 100
▁happen 100
тверд 100
▁транспорта 100
пара 100
▁boy 100
▁wishes 100
▁Production 100
▁едино 100
▁полос 100
▁Image 100
▁задан 100
▁Financial 100
▁History 100
▁flexible 100
▁смотреть 100
/3 100
▁куда 100
▁configuration 100
▁Will 100
▁восток 100
▁tourists 100
▁Night 100
▁руч 100
▁заключен 100
▁string 100
▁nice 100
▁wonder 100
▁Главн 100
cro 100
▁ST 100
▁SCHALI 100
▁Chisinau 100
▁default 100
▁powder 100
▁лесбиянки 100
▁трёх 100
▁позицию 100
▁Федеральн 100
▁Другим 100
▁Express 100
▁поведения 100
▁scenes 100
▁arch 100
SM 100
▁tradition 100
▁Start 100
ице 100
▁allowing 100
Мы 100
▁ресурс 100
пла 100
▁определение 100
NI 100
кую 100
▁шар 100
▁Тре 100
чного 100
▁домов 100
▁Rapporteur 100
был 100
▁James 100
▁ill 100
блок 100
▁сокращения 100
▁отделения 100
rent 100
▁позднее 100
▁disk 100
▁участием 100
▁книг 100
▁опытом 100
-14 100
▁столов 100
▁директора 100
▁sectors 100
очного 100
▁legislative 100
▁shares 100
slav 100
▁decline 100
ступление 100
бель 100
'' 100
место 100
▁seed 100
▁extreme 100
тера 100
ывает 100
long 100
▁секторе 100
▁sit 100
▁doors 100
ПА 100
авших 100
▁Saturday 100
▁stainless 100
▁эпизод 100
▁Штаты 100
▁Перед 100
▁плит 100
▁kingdom 100
▁расс 100
▁бур 100
тир 100
▁observed 100
▁depend 100
▁greatest 100
▁внешней 100
▁tower 100
▁(6 100
▁вице 100
▁flag 100
▁деятельностью 100
▁trees 100
▁League 100
▁referendum 100
▁кухни 100
▁первая 100
▁стабильности 100
▁prefer 100
▁supposed 100
▁хотели 100
▁группой 100
▁colors 100
rod 100
ked 100
▁большинстве 100
▁границ 100
yu 100
▁MI 100
▁Tour 100
▁courts 100
eries 100
стал 100
▁Экс 100
берг 100
▁Organ 100
▁Crystal 100
▁вызвал 100
▁cart 100
made 100
▁оставил 100
зание 100
▁fee 100
▁180 100
▁harm 100
▁vast 100
▁восточн 100
информ 100
елл 100
▁Tar 100
▁президентом 100
▁риска 100
▁непр 100
▁современной 100
▁Остров 100
▁trafficking 100
▁называют 100
▁thank 100
▁arrest 100
▁1988 100
елен 100
▁schedule 100
▁windows 100
ционные 100
▁затрат 100
▁порядок 100
так 100
▁rapid 100
▁Muslim 100
▁предмет 100
иб 100
пс 100
BC 100
▁contributions 100
▁sanctions 100
зел 100
▁сожалению 100
▁январе 100
▁натуральные 100
▁оплаты 100
▁смерть 100
▁parliamentary 100
▁существуют 100
▁surrounding 100
▁втором 100
▁источник 100
▁способны 100
▁пр 100
▁College 100
▁основа 100
gas 100
▁треть 100
▁органами 100
▁dollar 100
▁отеле 100
▁Кос 100
той 100
▁Самый 100
▁Существует 100
▁carrying 100
▁подписал 100
media 100
▁гостиниц 100
▁вашим 100
еф 100
▁communications 100
▁отлично 100
▁черные 100
▁лент 100
lle 100
СЕ 100
При 100
▁коллег 100
▁centers 100
шение 100
ящий 100
▁Flat 100
▁Cat 100
▁Gor 100
▁sets 100
▁Хи 100
ЕТ 100
▁высокие 100
▁царь 100
▁Между 100
▁планы 100
▁выступил 100
spir 100
style 100
IF 100
▁аэропорта 100
▁Custom 100
ируются 100
▁Открыт 100
▁общем 100
▁carbon 100
chan 100
LI 100
пустить 100
cr 100
инт 100
▁organize 100
▁tri 100
▁политическим 100
▁уровнем 100
шив 100
▁collaboration 100
▁Sweden 100
▁Туалет 100
▁старые 100
Петербург 100
▁revolutionary 100
▁обращения 100
hir 100
▁gap 100
sec 100
▁обладает 100
nik 100
▁sal 100
▁урок 100
▁Университет 100
▁доли 100
▁Никол 100
▁игрока 100
▁правительственн 100
zer 100
▁небес 100
нять 100
TER 100
▁разрешение 100
▁знал 100
▁advertising 100
▁инвестиции 100
▁absence 100
ированию 100
▁бер 100
▁участники 100
BI 100
▁contrast 100
▁собственно 100
▁обязанности 100
▁acid 100
▁Click 100
эконом 100
гин 100
▁Источник 100
СТ 100
▁Поли 100
▁главе 100
▁идея 100
▁удовлетвор 100
▁Нор 100
▁естественно 100
▁approaches 100
▁гео 100
▁объект 100
пет 100
drop 100
ough 100
▁встрети 100
▁Специальный 100
▁wedding 100
▁breath 100
▁противоречи 100
▁экономика 100
▁hardware 100
▁Mount 100
▁поиска 100
▁Beach 100
▁letters 100
▁гражданских 100
▁expand 100
▁экологически 100
▁looks 100
давать 100
▁flower 100
▁провел 100
▁Mom 100
ьная 100
ux 100
▁маленький 100
▁2010, 100
ridge 100
▁riding 100
▁этапе 100
▁700 100
rog 100
ате 100
▁perspective 100
▁проживания 100
▁делегация 100
▁Радио 100
▁страх 100
▁Hard 100
▁pull 100
rant 100
▁continuing 100
▁принимал 100
!” 100
▁Par 100
▁1945 100
овка 100
▁Classic 100
▁свойств 100
▁discovered 100
mid 100
▁важное 100
SD 100
▁материально 100
▁missions 100
▁Ок 100
пеш 100
▁состоится 100
ean 100
▁Judah 100
▁Portugal 100
▁подшипник 100
▁виртуальн 100
▁соединения 100
овский 100
▁bread 100
▁characters 100
▁effectiveness 100
▁Новые 100
ыш 100
ush 100
▁Ivan 100
▁ear 100
▁channels 100
▁pack 100
▁услугам 100
▁2) 100
▁специалист 100
▁окружающ 100
док 100
▁брос 100
▁творческ 100
nel 100
▁Gri 100
▁температур 100
▁основным 100
▁monument 100
▁Фотографии 100
▁подготовку 100
▁состоянию 100
▁facing 100
direct 100
▁metres 100
▁занятости 100
▁многочисленные 100
▁publication 100
▁10:00 100
▁PA 100
рай 100
▁япон 100
▁пришли 100
cate 100
▁приход 100
▁constantly 100
Bo 100
▁pipe 100
▁directed 100
▁мандат 100
▁игре 100
цел 100
▁cancer 100
ающей 100
дача 100
оса 100
▁октябре 100
▁показатели 100
▁национальный 100
▁вернулся 100
актив 100
него 100
▁controlled 100
▁экспорта 100
▁обществе 100
тора 100
▁кос 100
▁Estonia 100
конечн 100
щим 100
▁° 100
пло 100
▁спросил 100
▁Система 100
▁Chamber 100
▁Finland 100
▁reservation 100
▁вспомогательн 100
▁природы 100
▁существующих 100
▁второго 100
▁patients 100
▁внутреннего 100
▁rump 100
магазин 100
▁оказывать 100
pel 100
▁рассказ 100
▁pot 100
▁till 100
col 100
▁conclusion 100
▁философ 100
ound 100
▁drops 100
▁Карл 100
▁Happy 100
▁detention 100
▁камшотов 100
▁консультации 100
▁среднего 100
▁Михаил 100
▁вызывает 100
▁Friend 100
▁gentle 100
▁guy 100
▁Европа 100
▁Forces 100
▁publisher 100
▁этими 100
▁Castle 100
ывая 100
ОЙ 100
▁exclusive 100
▁снижение 100
▁decade 100
▁сек 100
▁основания 100
▁Astana 100
▁предполагает 100
Lo 100
сона 100
▁Indonesia 100
▁Vienna 100
▁familiar 100
▁Furthermore 100
▁продажа 100
▁крови 100
▁Far 100
▁lawyer 100
▁Рай 100
▁attend 100
type 100
▁sister 100
Com 100
▁судов 100
▁депутат 100
▁занят 100
▁Ключевы 100
оны 100
▁производственн 100
▁stars 100
▁PR 100
членов 100
▁discussions 100
▁всяк 100
▁Cooker 100
▁призван 100
grad 100
▁unre 100
flow 100
жки 100
▁Flo 100
▁платеж 100
▁DrTuber 100
▁доминирование 100
▁Robert 100
▁confirm 100
▁Single 100
▁здоровье 100
▁Лондон 100
▁получают 100
▁известных 100
▁туристическ 100
▁healthy 100
тяж 100
▁gained 100
ЕС 100
▁содействие 100
temp 100
▁корм 100
▁classes 100
▁бой 100
▁(7 100
▁ущерб 100
▁casinos 100
▁прибыль 100
dro 100
▁workshop 100
▁оружие 100
sum 100
▁190 100
VA 100
▁Defense 100
▁обуви 100
mel 100
исс 100
▁аспект 100
Са 100
bre 100
▁стоя 100
▁personality 100
▁покрытие 100
▁страхов 100
▁Обще 100
▁школьн 100
ras 100
глав 100
▁мусульман 100
▁аэропорт 100
▁пик 100
брон 100
▁Michael 100
▁easier 100
▁journey 100
▁Distribution 100
▁bbw 100
▁относятся 100
тура 100
▁женское 100
▁погиб 100
▁LED 100
py 100
ати 100
▁заместитель 100
▁Die 100
▁считать 100
rest 100
▁mutual 100
▁constant 100
▁фирмы 100
lam 100
▁Sand 100
▁прикладн 100
мимо 100
▁Само 100
▁континент 100
night 100
▁Pla 100
▁тысячи 100
ствия 100
č 100
▁Monaco 100
▁важную 100
▁повысить 100
курс 100
▁Berlin 100
▁tables 100
▁massive 100
▁развитых 100
уст 100
вис 100
▁spending 100
▁двойн 100
town 100
аций 100
▁ключев 100
▁anyway 100
▁паль 100
▁” 100
▁крупным 100
▁мужчины 100
▁Син 100
!» 100
▁forget 100
▁// 100
▁universities 100
▁июне 100
дина 100
▁proper 100
дава 100
lum 100
▁журналистов 100
▁Йо 100
▁5:00 100
▁Париж 100
▁Дже 100
▁лидеры 100
▁Team 100
▁clock 100
▁полном 100
▁отказа 100
▁($ 100
▁scientists 100
▁канала 100
уще 100
нения 100
rain 100
scale 100
▁высоких 100
▁хлеб 100
щихся 100
уется 100
▁эфир 100
▁инициативы 100
▁обвиня 100
FC 100
▁tension 100
▁DNS 100
эм 100
▁неудач 100
▁Tag 100
lash 100
▁предварительно 100
▁нарушение 100
itation 100
▁journalist 100
▁простой 100
BS 100
▁зелен 100
▁технической 100
è 100
▁council 100
▁настоящего 100
▁Family 100
▁loan 100
▁Spring 100
ora 100
▁Хан 100
MM 100
▁specifically 100
▁plane 100
▁АО 100
групп 100
▁технического 100
▁установлена 100
▁Ван 100
▁Пра 100
▁разные 100
▁Зна 100
flo 100
нн 100
▁evolution 100
▁Количество 100
▁Очень 100
▁интенсивн 100
▁божественн 100
▁воспринима 100
▁Может 100
▁школе 100
▁$3 100
▁Наша 100
берег 100
▁marked 100
▁newly 100
▁pure 100
▁получение 100
▁Mat 100
▁сетев 100
▁мае 100
вил 100
▁заключения 100
▁визит 100
▁records 100
▁Sciences 100
▁руб 100
▁listed 100
игра 100
} 100
▁argument 100
▁Pvc 100
▁largely 100
▁событие 100
▁функционал 100
para 100
▁van 100
изатор 100
char 100
▁завершения 100
▁documentation 100
▁sessions 100
DR 100
claim 100
▁Ol 100
▁пересмотр 100
▁запуска 100
▁пан 100
dd 100
▁Universal 100
▁emerging 100
▁финансирование 100
▁Child 100
▁оборот 100
▁voters 100
летний 100
▁приходится 100
▁туризма 100
▁bedroom 100
▁государственн 100
▁отверг 100
▁война 100
GO 100
скор 100
▁detect 100
▁роман 100
▁перенос 100
▁Im 100
▁существенн 100
▁допуска 100
▁завершен 100
▁competitive 100
▁characteristics 100
▁открыто 100
▁Monday 100
▁printed 100
здрав 100
▁юго 100
cast 100
▁difficulties 100
есть 100
▁Sur 100
▁establishing 100
▁пусть 100
▁института 100
▁Вос 100
which 100
▁комплекса 100
ическими 100
▁usb 100
ogen 100
more 100
▁Select 100
▁pocket 100
▁revolution 100
▁письмо 100
▁операция 100
▁твои 100
▁fiber 100
▁размещен 100
▁YouPorn 100
▁inner 100
спект 100
▁moments 100
▁Del 100
шер 100
▁Ur 100
▁флаг 100
▁Bla 100
▁villa 100
▁smaller 100
▁приняла 100
▁конфликтов 100
дение 100
▁explained 100
▁agriculture 100
▁occupied 100
▁ordinary 100
▁bottle 100
▁column 100
▁запланирован 100
▁guidance 100
▁шкаф 100
▁меню 100
▁идти 100
▁Baltic 100
▁Round 100
▁Deep 100
▁успешн 100
▁actively 100
▁instructions 100
▁Change 100
power 100
▁городской 100
▁нужны 100
dan 100
жно 100
мана 100
itive 100
пят 100
▁дальнейшем 100
▁leaves 100
▁Baku 100
▁Gen 100
енг 100
onic 100
unch 100
tail 100
▁bilateral 100
▁всеобъемлющ 100
▁рынки 100
▁местного 100
▁assess 100
ground 100
▁menu 100
▁capable 100
▁depending 100
▁Мат 100
▁начинает 100
▁supports 100
▁просил 100
▁поставил 100
▁Игры 100
шь 100
▁законов 100
▁Bay 100
-15 100
▁Мне 100
▁отправлен 100
▁Сергей 100
▁audience 100
▁ведущих 100
oke 100
▁[...] 100
▁глубин 100
▁прекрасно 100
▁130 100
▁Geneva 100
▁остаются 100
▁вечно 100
▁огромный 100
▁prop 100
▁мгновенно 100
нского 100
2008 100
▁бит 100
▁друзья 100
▁2009, 100
ND 100
▁Step 100
▁2013, 100
arch 100
сия 100
▁signs 100
уна 100
▁проникновение 100
▁некоторым 100
▁поколения 100
▁нефтян 100
▁Сал 100
▁Client 100
▁приняты 100
▁Ban 100
ПП 100
▁Ren 100
▁начинается 100
цер 100
▁причиной 100
▁friendly 100
▁телефона 100
2003 100
ресс 100
▁converting 100
▁closely 100
инов 100
▁двигателя 100
свет 100
rie 100
▁applicable 100
▁Председателя 100
▁annex 100
▁восстановить 100
▁пищев 100
мас 100
▁Cheap 100
▁entirely 100
▁DC 100
▁Industrial 100
▁конфиденциальн 100
тный 100
ologist 100
ику 100
брос 100
ovich 100
▁lift 100
▁Министр 100
▁containing 100
fully 100
▁интересы 100
▁threats 100
▁1920 100
▁shop 100
▁эффективного 100
▁1930 100
рица 100
▁мать 100
▁Side 100
▁SMS 100
▁очист 100
▁экономические 100
▁witness 100
▁Кажд 100
▁сбора 100
▁Jordan 100
▁чулках 100
sko 100
▁Customized 100
▁covers 100
троп 100
▁сложности 100
▁broken 100
ied 100
шн 100
кончил 100
▁adjustment 100
▁старт 100
acy 100
▁среднем 100
▁женщина 100
▁представителя 100
▁Ваши 100
конференц 100
▁350 100
▁honour 100
▁scheme 100
▁yellow 100
▁чаще 100
▁cal 100
лле 100
▁stressed 100
▁clothes 100
▁МА 100
▁Вене 100
▁проявля 100
▁Switzerland 100
▁considerable 100
▁Большой 100
▁2011, 100
▁gathered 100
▁Анти 100
▁тщательно 100
This 100
class 100
▁цеп 100
▁Cr 100
▁лежа 100
▁ships 100
▁экономике 100
▁Divine 100
▁Восточной 100
▁доставки 100
лип 100
▁+1 100
▁общих 100
▁Тор 100
▁cleaning 100
▁стандартов 100
▁смс 100
щик 100
▁изменил 100
рош 100
▁нее 100
▁Bet 100
por 100
▁линия 100
▁Департамент 100
▁чувство 100
aging 100
ЕК 100
▁studied 100
▁swimming 100
мигрант 100
▁fastest 100
▁CIS 100
▁вверх 100
rich 100
▁Кир 100
PR 100
▁Bead 100
▁источника 100
▁журнала 100
▁газов 100
▁claimed 100
щее 100
RM 100
▁brothers 100
▁направля 100
врат 100
5/ 100
▁счастлив 100
▁Программы 100
▁arrested 100
▁Summit 100
▁battery 100
▁национальные 100
▁вершин 100
▁proceedings 100
▁football 100
▁низким 100
▁коммерческ 100
▁голосования 100
▁топлива 100
/19 100
▁exception 100
▁Bill 100
▁регионах 100
UM 100
▁banking 100
steine 100
▁секретарь 100
▁смысле 100
▁встрече 100
▁83 100
▁боя 100
▁фактор 100
реш 100
▁wheel 100
▁пользоваться 100
▁правосудия 100
▁inflatable 100
▁рассчитан 100
self 100
▁valve 100
▁раунд 100
дит 100
▁74 100
▁priest 100
▁Collection 100
▁специальные 100
нным 100
▁accordingly 100
▁разговор 100
▁retain 100
ato 100
▁доказательств 100
шения 100
▁камер 100
▁произведен 100
SL 100
▁differences 100
▁международное 100
чных 100
▁Подробнее 100
▁consult 100
▁flu 100
▁represents 100
зим 100
лар 100
▁государством 100
▁socio 100
▁Отопление 100
▁золота 100
▁ситуацию 100
▁сначала 100
▁boost 100
▁owners 100
pping 100
▁sitting 100
▁ju 100
▁планирования 100
▁Отчет 100
nation 100
-0 100
▁Род 100
▁крест 100
rom 100
▁Low 100
цам 100
▁играет 100
▁небольшие 100
▁Fair 100
omb 100
▁qua 100
mission 100
▁министров 100
▁lingerie 100
▁Австралии 100
▁исследование 100
▁опубликовал 100
▁false 100
▁регулирования 100
▁organisation 100
вращ 100
▁Анальны 100
▁дополнение 100
ville 100
▁undertaken 100
▁снят 100
ОР 100
▁земля 100
page 100
state 100
▁Gal 100
▁дальнейшего 100
▁Fuck 100
2.1 100
▁переводит 100
comment 100
▁моя 100
▁bedrooms 100
just 100
▁плод 100
действительности 100
▁двойной 100
▁talks 100
▁Карт 100
▁Аг 100
▁наша 100
ником 100
еревести 100
▁принтер 100
▁CH 100
▁свяжите 100
▁contemporary 100
▁Использование 100
▁середине 100
▁Station 100
▁Front 100
▁Begin 100
▁птиц 100
▁priorities 100
▁июле 100
язычн 100
▁finger 100
▁Пал 100
▁attractive 100
▁Парк 100
law 100
DF 100
▁Рад 100
иде 100
тай 100
▁штата 100
▁идеально 100
▁факторов 100
▁Bu 100
▁Find 100
▁suppliers 100
ī 100
▁tenderloin 100
▁английском 100
▁хочу 100
▁assigned 100
▁Иерусалим 100
▁состоялась 100
▁ge 100
uce 100
▁вернуться 100
▁Strap 100
▁связаны 100
▁десят 100
▁Ши 100
Дж 100
▁rail 100
▁никакого 100
телям 100
▁rental 100
кли 100
▁гидро 100
Russian 100
FA 100
▁Arch 100
Вы 100
OW 100
▁Net 100
казывает 100
▁Within 100
▁Amateur 100
▁быстрее 100
▁супер 100
▁этаж 100
▁связей 100
▁решении 100
▁Commissioner 100
мит 100
▁Рам 100
:8 100
▁experiment 100
▁Teen 100
▁#1 100
▁Банк 100
▁поездки 100
▁Printed 100
Мо 100
▁lessons 100
▁Tom 100
▁1: 100
тельные 100
▁схем 100
Ар 100
ировала 100
▁мет 100
▁Governor 100
▁Пожалуйста 100
▁Хорош 100
▁colon 100
▁Америка 100
▁обуча 100
▁Cook 100
▁предприниматель 100
▁semi 100
-9 100
:9 100
физ 100
▁hill 100
▁Bor 100
жные 100
▁технических 100
таки 100
▁центров 100
ae 100
▁Buy 100
▁доста 100
▁Sw 100
▁criteria 100
▁migration 100
▁protocol 100
▁pussy 100
▁supplies 100
▁изучения 100
▁Waterproof 100
▁Police 100
▁туристов 100
▁предполага 100
носить 100
▁Doctor 100
▁affairs 100
ивная 100
▁suffer 100
▁Golden 100
▁1.5 100
ствовал 100
▁силами 100
▁Ирак 100
▁Был 100
нец 100
▁Номер 100
▁дочь 100
▁Авто 100
▁завтрак 100
▁инициатив 100
ема 100
▁свин 100
▁Previous 100
▁jurisdiction 100
▁взаимодействия 100
▁девушки 100
▁архив 100
▁детьми 100
▁защита 100
▁86 100
pk 100
▁occur 100
▁сохранения 100
▁pattern 100
▁instantly 100
▁гран 100
иста 100
▁assembly 100
▁Guide 100
▁Weight 100
▁moderate 100
▁Пока 100
▁необходимы 100
▁сокращение 100
verse 100
▁hourly 100
lid 100
▁приглашен 100
▁учебно 100
▁hero 100
▁дополнительно 100
▁указ 100
▁семья 100
нок 100
▁Thursday 100
▁глобальной 100
▁российских 100
▁продолжают 100
▁talent 100
▁Dutch 100
▁winning 100
▁techniques 100
▁BBC 100
▁выполнить 100
▁160 100
▁проводится 100
▁starts 100
8) 100
следствие 100
▁Или 100
▁syn 100
▁закончи 100
▁приказ 100
▁существ 100
▁western 100
мал 100
▁твердо 100
очи 100
▁2050 100
▁driving 100
▁Конституции 100
▁апреле 100
▁Рабоче 100
БР 100
▁charges 100
▁Instead 100
▁пола 100
рение 100
граф 100
ife 100
▁demands 100
▁значительной 100
▁главный 100
▁ри 100
▁мониторинга 100
rag 100
нное 100
гиб 100
▁приходит 100
▁Евро 100
rot 100
▁favour 100
▁ядерн 100
▁Twitter 100
▁accessories 100
▁vulnerable 100
▁worship 100
▁proportion 100
▁конференция 100
емая 100
▁meat 100
РС 100
▁упор 100
▁частных 100
ницу 100
▁sn 100
▁formula 100
роз 100
зя 100
▁Pass 100
▁(16 100
наб 100
▁серебр 100
▁Hol 100
бург 100
▁relax 100
▁Election 100
▁оценку 100
▁strike 100
▁мозг 100
hou 100
▁сетей 100
кле 100
▁centres 100
▁covering 100
▁рейс 100
▁printer 100
▁собрания 100
уются 100
▁никак 100
▁define 100
▁unless 100
▁военные 100
▁ads 100
amb 100
▁Form 100
▁fan 100
стон 100
▁Pur 100
▁МРСК 100
МИ 100
жная 100
шест 100
распределен 100
▁дик 100
μ 100
▁crucial 100
▁deficit 100
▁друзей 100
▁европейских 100
▁имущества 100
qua 100
▁Safety 100
▁придется 100
никами 100
▁knows 100
▁округ 100
pil 100
GA 100
▁dating 100
▁Сп 100
ительной 100
▁обязательн 100
▁reserves 100
▁minor 100
ио 100
rush 100
первых 100
▁цикла 100
▁обслужива 100
рама 100
▁bike 100
▁Cap 100
▁16. 100
ider 100
тельных 100
▁enemies 100
▁monetary 100
▁подразделения 100
▁скатерть 100
▁Urantia 100
▁baby 100
▁Regulation 100
▁задержан 100
▁мощности 100
▁dealing 100
▁Европейский 100
▁Pr 100
▁темп 100
▁студенты 100
▁держа 100
▁charged 100
▁consultations 100
ающего 100
▁homes 100
▁Kra 100
ивая 100
▁refer 100
proof 100
мобил 100
ЦИ 100
▁Просто 100
▁делу 100
Vi 100
▁Orthodox 100
▁Египет 100
▁провинции 100
▁licking 100
▁рекламн 100
ulation 100
▁involvement 100
▁GNU 100
▁надзор 100
ool 100
▁министра 100
джер 100
▁Drop 100
▁оба 100
ИТ 100
▁карман 100
дь 100
▁эконом 100
▁Эк 100
▁частот 100
▁железнодорожн 100
тракт 100
▁15. 100
месячн 100
▁realize 100
including 100
пуска 100
▁итогам 100
▁Mary 100
▁ordered 100
▁странице 100
▁Movement 100
▁comparison 100
▁редактор 100
▁приложений 100
▁Bedroom 100
▁Перевод 100
vid 100
▁pop 100
▁таком 100
▁выража 100
▁2-3 100
▁моего 100
▁угрозу 100
▁плоским 100
ностей 100
ДП 100
▁кафедры 100
▁полное 100
▁input 100
▁mi 100
▁1,5 100
▁университете 100
▁accurate 100
▁burden 100
▁окончания 100
Ğ 100
▁prophet 100
▁изделий 100
▁IcePorn 100
▁сохрани 100
▁pilot 100
unk 100
▁acting 100
▁Showing 100
▁Site 100
▁детск 100
▁исторически 100
▁Moses 100
▁consist 100
ЕЙ 100
ающее 100
▁утром 100
▁marketing 100
▁международными 100
нис 100
▁вещества 100
▁отношениях 100
▁приват 100
▁инновационн 100
▁безопасны 100
▁обзора 100
urg 100
▁Due 100
▁цене 100
▁Бра 100
▁МВФ 100
▁нищеты 100
▁сотрудничеству 100
sleeve 100
▁Женщины 100
▁существования 100
НК 100
loy 100
▁мирового 100
utter 100
▁приглаш 100
▁Four 100
дёт 100
▁exhibit 100
▁£ 100
▁слот 100
▁conditioning 100
лению 100
очная 100
соединен 100
▁экраном 100
▁relative 100
▁Fu 100
сущ 100
▁долга 100
anov 100
▁вынужден 100
▁compensation 100
▁declaration 100
▁execution 100
▁luxury 100
▁domination 100
▁voting 100
▁overcome 100
▁completion 100
▁концу 100
▁prime 100
СС 100
▁общий 100
▁подоб 100
▁охот 100
▁Gre 100
ичный 100
So 100
▁результатом 100
▁способом 100
▁magic 100
▁rear 100
имо 100
▁сочета 100
▁hydro 100
▁обусловлен 100
▁очевидно 100
▁Sudan 100
▁rising 100
▁stopped 100
▁drill 100
▁Ветер 100
▁скорости 100
орож 100
▁78 100
rid 100
Един 100
▁индивидуально 100
▁сопоставлен 100
▁площадью 100
▁тут 100
пел 100
▁skill 100
вад 100
дже 100
антов 100
лять 100
▁почв 100
▁незаконно 100
▁Такие 100
клей 100
▁Ай 100
▁вооруженных 100
▁meant 100
▁Хол 100
адзе 100
▁сумма 100
ball 100
mu 100
ique 100
▁Свяжи 100
▁предоставляем 100
▁Сумка 100
▁inspection 100
▁shock 100
▁Slots 100
▁transferred 100
▁native 100
▁railway 100
▁contracts 100
▁Cu 100
▁развит 100
▁ran 100
los 100
▁изображение 100
▁politicians 100
fit 100
МА 100
▁lies 100
▁Ци 100
▁treated 100
▁темы 100
▁окно 100
▁контейнер 100
▁широкий 100
▁низких 100
участника 100
▁sword 100
▁2007, 100
▁пунктов 100
▁снижа 100
▁Motor 100
hai 100
▁SC 100
▁slightly 100
▁Ирана 100
▁transformation 100
Ha 100
▁ал 100
▁веке 100
▁trends 100
пен 100
you 100
rian 100
▁electro 100
700 100
▁регионов 100
▁Tur 100
▁съ 100
▁regularly 100
▁Востоке 100
And 100
▁Language 100
▁multilateral 100
▁детям 100
ука 100
organ 100
изировать 100
▁отметила 100
▁повышению 100
▁earn 100
▁наказания 100
▁attain 100
▁Bon 100
▁87 100
▁бор 100
▁Буд 100
▁Line 100
iling 100
▁души 100
оре 100
II 100
rill 100
▁developments 100
▁Sever 100
▁Ñ 100
ЛЕ 100
▁faster 100
▁блог 100
енность 100
ическом 100
▁Calendar 100
▁достижение 100
▁выиграл 100
pers 100
▁родителей 100
▁agent 100
▁раствор 100
▁служить 100
▁1987 100
▁warning 100
▁Через 100
wel 100
соедини 100
▁осуществля 100
▁defeat 100
▁ice 100
▁параметры 100
▁none 100
ступит 100
AF 100
▁plus 100
▁Plus 100
▁главных 100
▁virtual 100
нист 100
lie 100
кас 100
▁сотрудники 100
▁полов 100
▁keeping 100
▁holy 100
now 100
▁встретил 100
▁музыки 100
▁Франция 100
▁welcomed 100
▁становятся 100
▁breakfast 100
▁interface 100
▁правом 100
EE 100
▁advertisement 100
▁отлича 100
uel 100
▁scar 100
▁позволить 100
▁sum 100
▁answered 100
▁vary 100
▁эксперимент 100
сим 100
ствовать 100
▁Работа 100
инь 100
крыш 100
пустил 100
▁restore 100
▁RA 100
▁stages 100
▁Cart 100
VI 100
▁остр 100
▁logo 100
▁favor 100
▁бег 100
▁convention 100
▁диалога 100
▁eastern 100
▁увеличив 100
▁Действительно 100
▁действовать 100
▁измерения 100
▁обновить 100
▁храни 100
▁urgent 100
▁Дра 100
▁Дуб 100
▁accessible 100
▁Ливан 100
ини 100
▁предоставление 100
▁Azerbaijani 100
hd 100
▁местные 100
▁mix 100
▁домашнее 100
бег 100
▁облегч 100
бесед 100
▁тяжело 100
▁respective 100
Фран 100
ящие 100
▁nm 100
▁Case 100
▁Душ 100
▁ebony 100
▁обнаружил 100
▁помощник 100
▁предотвратить 100
▁Mrs 100
▁consent 100
▁Греции 100
ida 100
▁районов 100
market 100
инский 100
▁conflicts 100
▁teach 100
▁Hong 100
▁Велико 100
ывания 100
пин 100
ВО 100
▁ПРО 100
▁Store 100
▁согласия 100
▁заказа 100
▁существу 100
▁причем 100
руп 100
африканск 100
▁счета 100
▁главы 100
▁Мод 100
SU 100
▁доля 100
▁taxi 100
akh 100
▁общее 100
glo 100
▁Argentina 100
▁Sofia 100
▁facility 100
▁headquarters 100
▁Ассамблея 100
▁ближайши 100
▁truly 100
▁собственные 100
▁wet 100
▁социальные 100
▁списка 100
▁оставаться 100
▁новости 100
▁добавить 100
ij 100
phone 100
▁сторона 100
▁размещения 100
▁versions 100
большая 100
▁17. 100
ional 100
▁combine 100
▁заинтересованны 100
▁fix 100
▁улучшить 100
▁maintained 100
▁губернатор 100
▁руку 100
ОК 100
▁аромат 100
▁Tea 100
▁tele 100
▁сельского 100
▁повестки 100
▁edition 100
▁pointed 100
▁parliament 100
▁долю 100
стями 100
▁владел 100
▁старше 100
▁Military 100
▁centuries 100
▁expensive 100
▁judicial 100
▁twice 100
▁Парламент 100
▁впоследствии 100
▁Вашингтон 100
▁молитв 100
▁jacket 100
▁Гре 100
▁См 100
▁редко 100
▁amendments 100
▁Investment 100
▁служит 100
▁Flowers 100
▁1985 100
▁19. 100
▁Mal 100
▁оптов 100
▁прибор 100
▁respectively 100
▁препарат 100
▁violation 100
▁replace 100
▁coat 100
▁Youth 100
тинг 100
▁Drag 100
▁Item 100
▁причины 100
ивает 100
▁важные 100
▁Pacific 100
▁leads 100
ache 100
pit 100
▁Sk 100
▁общественной 100
ВЕ 100
▁Маг 100
▁генеральн 100
HO 100
▁bound 100
▁теории 100
▁современного 100
▁ПРООН 100
▁mistake 100
▁статей 100
▁метро 100
▁Baby 100
▁Вопрос 100
▁закуп 100
ъезд 100
▁interaction 100
▁могло 100
▁оценка 100
esh 100
▁выражает 100
▁wonderful 100
▁Sho 100
▁Him 100
▁Необходимо 100
▁Том 100
▁Сол 100
▁имеются 100
▁functioning 100
▁Закона 100
▁обита 100
Во 100
Ин 100
▁stored 100
аю 100
▁Cur 100
ered 100
▁Commercial 100
▁офицер 100
▁доверия 100
▁избирателей 100
▁сферы 100
▁grew 100
▁Фил 100
▁devoted 100
▁Тер 100
▁объединения 100
▁собак 100
▁управлять 100
▁проведению 100
▁лечение 100
▁Bags 100
▁приведен 100
▁брюнетки 100
-30 100
▁прибыли 100
▁97 100
▁reserve 100
▁Файлы 100
▁попытки 100
▁диаметр 100
▁segment 100
▁visible 100
action 100
▁будучи 100
▁sought 100
▁насилие 100
йдите 100
▁1986 100
▁interpretation 100
▁prisoners 100
▁Nov 100
▁нынешне 100
люд 100
▁проходил 100
▁seats 100
▁Ly 100
ula 100
▁Ty 100
▁symbols 100
тельной 100
▁76 100
▁tent 100
▁носит 100
▁Pal 100
лай 100
вай 100
▁Lithuania 100
▁государствам 100
▁лицом 100
▁восстановление 100
cker 100
rad 100
▁Downloads 100
All 100
▁монтаж 100
▁Besides 100
▁transmission 100
▁shopping 100
ancy 100
▁Косово 100
▁UNDP 100
▁guaranteed 100
▁поведение 100
▁поверхность 100
ведения 100
▁восстан 100
вшейся 100
▁занимал 100
кет 100
▁явно 100
▁texts 100
▁restaurants 100
▁заключение 100
▁перевозки 100
aba 100
▁leg 100
▁constitutional 100
aj 100
▁открыва 100
▁подлинн 100
bot 100
▁бюро 100
▁Lebanon 100
▁structural 100
▁делегации 100
▁radical 100
▁Local 100
▁вами 100
▁служба 100
Интер 100
▁calling 100
▁Queen 100
▁марки 100
▁типов 100
див 100
▁representation 100
▁limits 100
▁Pra 100
▁minute 100
▁corresponding 100
▁Files 100
От 100
▁resulted 100
▁партнеров 100
▁faced 100
▁continent 100
▁логотип 100
▁Bathroom 100
▁препода 100
▁нарко 100
▁холодно 100
Ла 100
лян 100
Browse 100
▁регистр 100
▁контр 100
▁crop 100
▁результатам 100
▁brain 100
▁такую 100
ona 100
ended 100
▁входят 100
овом 100
CR 100
code 100
▁resolutions 100
▁оператор 100
« 100
сво 100
▁правовой 100
▁UNI 100
▁Mus 100
▁Rec 100
▁Latvian 100
▁depth 100
NO 100
президент 100
▁демон 100
ответ 100
ENT 100
стройки 100
уру 100
▁Championship 100
▁инцидент 100
▁знаем 100
▁берегу 100
▁Advisory 100
▁исключен 100
▁Kong 100
▁саммит 100
iness 100
▁coverage 100
▁1982 100
▁1941 100
▁конкретные 100
▁grave 100
ulated 100
▁shut 100
▁Point 100
▁маркетинг 100
Да 100
path 100
▁pl 100
оза 100
▁proof 100
▁miles 100
ille 100
пали 100
▁Ron 100
▁привлек 100
▁Баз 100
лёт 100
▁потерял 100
▁cup 100
айн 100
▁talking 100
aff 100
висим 100
реж 100
сматрива 100
▁Construction 100
▁СССР 100
▁eternal 100
▁Learn 100
▁коррект 100
DB 100
▁вырос 100
▁DE 100
енную 100
▁расположены 100
▁Эм 100
▁officer 100
▁обновлен 100
▁Pet 100
▁зоне 100
FT 100
ваться 100
"& 100
▁мулатки 100
▁дальнейше 100
▁blog 100
astic 100
quest 100
▁какое 100
▁Gro 100
▁flights 100
▁подробно 100
atic 100
чной 100
праздн 100
▁Budapest 100
▁frequency 100
▁Москвы 100
▁менеджер 100
▁Saudi 100
▁существа 100
▁toilet 100
ТЬ 100
What 100
▁collected 100
▁банки 100
▁broke 100
▁Сим 100
▁Hell 100
▁государственный 100
▁строк 100
▁refused 100
тет 100
▁1940 100
▁внутренней 100
аре 100
?» 100
▁Kha 100
▁остальн 100
▁соблюд 100
▁восемь 100
▁Tajikistan 100
▁cluster 100
▁Директор 100
▁лицензии 100
▁принадлежит 100
▁ухудш 100
▁examination 100
▁jowl 100
DO 100
▁среду 100
▁stories 100
▁показатель 100
▁одному 100
▁organ 100
cover 100
работать 100
▁distributed 100
▁экономическим 100
▁создана 100
▁годом 100
ивать 100
▁Word 100
▁жар 100
▁greatly 100
▁воли 100
▁понял 100
any 100
▁Event 100
Республика 100
▁пользователь 100
ставка 100
▁элемента 100
▁fifty 100
▁relief 100
▁преступлений 100
▁древне 100
▁nurse 100
▁квартиры 100
▁улице 100
▁threesome 100
пом 100
Man 100
меща 100
▁основы 100
тян 100
▁Ванна 100
▁ООО 100
poli 100
▁payments 100
▁повер 100
луш 100
▁меди 100
▁alloy 100
FE 100
▁каналы 100
kg 100
▁21. 100
▁угрозы 100
счита 100
▁поднял 100
minute 100
ATION 100
▁collapse 100
▁Музей 100
▁консоли 100
▁explore 100
▁attempts 100
гал 100
▁посетил 100
вшая 100
▁Hy 100
хим 100
▁hundreds 100
▁Cher 100
▁killing 100
▁истинно 100
▁Тар 100
▁servers 100
▁Социальн 100
▁представителями 100
▁Ah 100
▁cute 100
▁folder 100
ехать 100
▁71 100
▁tab 100
▁хим 100
oma 100
gran 100
евич 100
▁voltage 100
▁Mass 100
▁PS 100
▁твое 100
▁разрушен 100
▁основыва 100
▁Very 100
▁развед 100
ываю 100
▁Beijing 100
▁circuit 100
▁раздувной 100
▁пишет 100
▁blind 100
▁Над 100
▁84 100
▁низ 100
gri 100
▁государственным 100
▁карьер 100
▁снизил 100
▁governor 100
hole 100
▁losses 100
▁ТВ 100
▁lake 100
▁напряжен 100
▁invite 100
▁интер 100
▁энерго 100
▁Printing 100
▁существо 100
▁Год 100
▁рассматривать 100
английски 100
страда 100
▁обсужден 100
adze 100
▁Meanwhile 100
▁Tribunal 100
▁tranny 100
▁конвенции 100
▁straight 100
▁Replica 100
▁письма 100
▁гал 100
▁Chair 100
▁соблюдения 100
▁самая 100
▁deployment 100
▁языках 100
▁решению 100
динамик 100
▁писал 100
▁двигатель 100
▁Coat 100
▁Гос 100
▁войну 100
▁Mah 100
▁Же 100
▁customs 100
счет 100
ЕМ 100
▁Берлин 100
щения 100
▁сыр 100
▁настоятельно 100
Sa 100
fort 100
▁Пос 100
group 100
▁Cultural 100
▁Enterprise 100
▁лёгкий 100
▁ошибки 100
▁растений 100
▁учитывая 100
▁Казино 100
нсульт 100
▁Automatic 100
▁Equipment 100
▁обоснован 100
▁предпоч 100
▁outstanding 100
bid 100
▁проход 100
▁amounts 100
▁зем 100
это 100
▁novel 100
news 100
▁субъект 100
▁поднима 100
▁просит 100
wear 100
national 100
▁обеспечивать 100
▁статуса 100
NE 100
▁тариф 100
▁businesses 100
oli 100
▁дуб 100
▁consumer 100
▁ведет 100
▁tests 100
обр 100
ительная 100
▁Данные 100
active 100
▁Fashion 100
▁Телевизор 100
▁соглашений 100
▁собственных 100
▁prompt 100
▁убив 100
▁Display 100
▁укреплению 100
▁жители 100
▁устав 100
▁Ответ 100
благодар 100
▁Создать 100
▁заниматься 100
▁Mill 100
▁1979 100
9) 100
▁CNC 100
▁дисциплин 100
▁(0 100
опис 100
▁японки 100
▁жестко 100
оваться 100
▁Национального 100
ящих 100
▁толстушки 100
2005 100
МО 100
▁pursue 100
▁продаж 100
▁гости 100
▁emissions 100
▁raw 100
▁graph 100
▁wisdom 100
▁Конгресс 100
▁Таджикистан 100
▁мальчик 100
▁разработка 100
▁Smart 100
яется 100
▁Рус 100
▁donor 100
▁Communist 100
верен 100
▁инструменты 100
▁лишен 100
▁rapidly 100
ктив 100
▁пророк 100
mov 100
▁форума 100
▁Egyptian 100
▁soil 100
▁Пап 100
▁Develop 100
▁inhabitants 100
▁Стандарт 100
▁последнего 100
▁элегантн 100
▁glory 100
ovsky 100
▁способствует 100
▁сумка 100
▁оптическ 100
▁гол 100
▁pur 100
▁sacrifice 100
▁эффективным 100
плоть 100
▁опрос 100
▁punishment 100
▁составлен 100
road 100
▁француз 100
▁medal 100
стар 100
▁ценности 100
асса 100
▁вашу 100
▁газеты 100
▁соблюдение 100
ИЗ 100
дум 100
▁художественн 100
фан 100
pos 100
▁critic 100
anal 100
▁пластиков 100
horn 100
▁craft 100
▁высокую 100
солнечн 100
▁конституционн 100
▁Swiss 100
▁sensor 100
▁audio 100
▁пройти 100
▁нынешни 100
▁reign 100
▁войне 100
LS 100
▁аспекты 100
▁ориентирован 100
▁Bio 100
BM 100
CD 100
▁общие 100
▁остановить 100
▁фондов 100
▁Maria 100
ула 100
▁законы 100
чным 100
иболее 100
▁горы 100
▁bone 100
rous 100
эк 100
▁scheduled 100
ставлять 100
▁планирует 100
меня 100
▁Мол 100
▁структура 100
def 100
▁лицам 100
систем 100
▁fucked 100
Ан 100
▁expenditure 100
▁involving 100
▁literature 100
▁opponent 100
▁philosophy 100
▁участка 100
▁sweet 100
eau 100
▁taught 100
▁замок 100
сервер 100
▁recording 100
▁указал 100
▁задни 100
▁сегодняшний 100
trans 100
▁держав 100
CM 100
лены 100
▁школа 100
▁двадцати 100
▁citizen 100
▁20- 100
cin 100
▁continuous 100
▁Croatia 100
ворот 100
▁punish 100
OT 100
▁celebration 100
▁disarmament 100
▁немедленно 100
▁обувь 100
▁полномочия 100
▁Joseph 100
▁племен 100
▁Update 100
▁рублей 100
ировании 100
▁films 100
▁дохода 100
▁морской 100
зии 100
▁container 100
▁укрепление 100
изо 100
▁чел 100
▁GB 100
▁средствами 100
▁сан 100
lev 100
Go 100
▁floors 100
чить 100
▁Fri 100
▁основу 100
▁нужда 100
▁subsequent 100
▁saving 100
веден 100
mann 100
▁дек 100
содержа 100
▁Богу 100
ВС 100
дик 100
▁Кэ 100
▁школу 100
▁showing 100
kes 100
aki 100
▁Empire 100
▁narrow 100
▁sharing 100
▁списке 100
▁rescue 100
▁telephone 100
▁expertise 100
▁Mil 100
▁плеч 100
▁КО 100
▁гарантирует 100
▁grass 100
▁locations 100
buy 100
▁1967 100
▁Base 100
▁образова 100
▁давлением 100
ностям 100
▁ча 100
▁доз 100
▁borders 100
▁комнат 100
▁Ново 100
cell 100
range 100
▁introduce 100
▁decrease 100
фри 100
link 100
▁окончание 100
карт 100
ляется 100
▁Run 100
летнего 100
▁suffered 100
▁издан 100
▁closer 100
▁смеш 100
ложить 100
▁commit 100
▁захват 100
built 100
▁architect 100
▁Постоянн 100
▁деталей 100
▁предприятие 100
▁феврале 100
▁серьёзн 100
▁будто 100
▁величин 100
▁infection 100
▁модуль 100
▁rubles 100
▁пребывания 100
▁Domain 100
▁память 100
▁Moon 100
▁Eco 100
drew 100
▁серебра 100
▁произведения 100
▁carefully 100
>>, 100
zar 100
ометр 100
▁Jul 100
▁emphasized 100
энд 100
▁bdsm 100
▁подчеркивает 100
▁98 100
▁absolute 100
мина 100
дох 100
▁имеющих 100
▁pages 100
▁expanded 100
▁поставщиков 100
▁прошл 100
евые 100
лина 100
▁Sir 100
▁counsel 100
▁августе 100
▁девочек 100
▁Mintos 100
▁веру 100
▁Section 100
▁опер 100
▁британски 100
▁updated 100
▁полезны 100
▁Фен 100
▁гражданской 100
нение 100
001 100
▁Ск 100
для 100
▁Para 100
▁measurement 100
▁proved 100
чайш 100
Это 100
шее 100
▁участвовал 100
▁Фо 100
2018 100
бре 100
ude 100
lm 100
▁deputy 100
▁encounter 100
▁sequence 100
▁superior 100
▁религии 100
▁Belgrade 100
фицирован 100
▁Два 100
▁jump 100
>>. 100
▁Ста 100
▁планов 100
▁Planet 100
▁терп 100
▁whatever 100
▁третий 100
шими 100
▁Check 100
нор 100
▁adults 100
▁react 100
▁оказание 100
▁span 100
▁Кен 100
take 100
▁Rus 100
▁сроки 100
equen 100
▁либерал 100
▁understood 100
▁Бразилии 100
▁Уильям 100
▁консультаций 100
▁музея 100
▁pleasure 100
▁● 100
technic 100
▁Partner 100
href 100
▁опасности 100
▁юрист 100
▁негатив 100
сед 100
lation 100
▁постоянного 100
▁Свят 100
▁достойн 100
▁tube 100
cia 100
▁решили 100
▁MT 100
▁Week 100
▁сказали 100
▁Az 100
▁лог 100
▁посмотреть 100
▁agents 100
liv 100
▁belong 100
▁hearing 100
▁трен 100
▁возвраща 100
▁букв 100
▁выявлен 100
▁предлагается 100
▁27. 100
▁проблемой 100
▁Thanks 100
▁recommendation 100
▁FortuneJack 100
▁genuine 100
▁Япония 100
▁yield 100
▁нефть 100
▁беспоко 100
▁bought 100
▁10- 100
itor 100
▁customized 100
▁myself 100
▁brings 100
большой 100
▁selling 100
▁вступил 100
▁педагог 100
▁составлял 100
▁Шри 100
▁Boy 100
рии 100
сам 100
▁верно 100
▁трудов 100
май 100
▁плот 100
gin 100
▁mail 100
айт 100
▁Villa 100
▁подключен 100
ающая 100
▁планом 100
info 100
▁полицейск 100
ГУ 100
▁ноги 100
ford 100
оры 100
▁participating 100
▁valuable 100
▁Samsung 100
▁добавил 100
▁Протокол 100
▁Micro 100
▁contrary 100
▁split 100
▁оказались 100
▁испытания 100
▁редактирования 100
▁реал 100
▁отличается 100
▁(17 100
▁appointment 100
▁плоск 100
▁coach 100
▁92 100
▁председателя 100
▁Anna 100
емым 100
via 100
▁Rio 100
ких 100
▁супруг 100
▁Yo 100
▁Fer 100
▁officially 100
ходил 100
acc 100
▁taxes 100
▁анализе 100
▁Ираке 100
▁передан 100
жут 100
обо 100
▁конструкции 100
▁movements 100
▁år 100
▁вдоль 100
▁Short 100
▁пытается 100
▁alarm 100
eigh 100
▁chairman 100
▁объекты 100
▁жестоко 100
jan 100
▁(15 100
▁стр 100
▁Mir 100
GB 100
фин 100
ёл 100
▁associate 100
▁stands 100
▁u 100
▁targets 100
▁мета 100
▁thereby 100
▁seminar 100
▁Али 100
▁цифр 100
бежал 100
▁имеющие 100
▁5% 100
▁easiest 100
▁медицинских 100
▁chapter 100
▁наличии 100
▁Ол 100
▁приблизительно 100
▁демонстраци 100
▁принадлежащ 100
▁actors 100
пос 100
▁метр 100
овала 100
без 100
ПС 100
▁script 100
nia 100
вле 100
Кон 100
fall 100
зен 100
▁обязан 100
бро 100
▁dispute 100
торы 100
ённых 100
▁Сир 100
▁ими 100
▁perfectly 100
▁industries 100
▁transparent 100
▁зданий 100
▁sponsor 100
▁София 100
▁mineral 100
▁коротко 100
▁учрежден 100
▁отдельные 100
вый 100
▁ожидания 100
▁целев 100
ees 100
▁Guest 100
eo 100
▁Святого 100
▁человеком 100
▁общим 100
▁выбросов 100
▁Мини 100
own 100
▁Эд 100
▁linked 100
place 100
Porn 100
▁reviews 100
▁вечером 100
▁Pay 100
▁Mel 100
▁requirement 100
▁барабан 100
▁отвечает 100
▁предотвращения 100
▁preparing 100
▁width 100
ashvili 100
▁сельских 100
▁десятилетия 100
▁сумки 100
▁наряду 100
▁стекло 100
▁Первая 100
▁посетителей 100
▁guidelines 100
▁Роберт 100
▁уязвим 100
economic 100
cumshot 100
▁включить 100
▁minority 100
space 100
▁Channels 100
Ho 100
▁notification 100
▁конкурса 100
▁питание 100
МЕ 100
▁хозяйств 100
▁Отца 100
▁liberal 100
img 100
яться 100
▁happens 100
СА 100
▁interracial 100
▁strongly 100
▁строг 100
ленные 100
5° 100
▁вино 100
ывание 100
awa 100
▁stores 100
▁reflected 100
▁neighbour 100
▁надлежаще 100
▁путешествия 100
× 100
▁Personal 100
▁клапан 100
▁Статья 100
▁потребителей 100
num 100
▁believes 100
▁установил 100
▁искать 100
▁временно 100
▁будь 100
▁wooden 100
▁технология 100
ительный 100
▁производ 100
▁1975 100
▁базов 100
▁окончательн 100
Li 100
▁направление 100
▁фотограф 100
оспособности 100
Де 100
ающим 100
несли 100
ager 100
▁900 100
бек 100
▁sail 100
▁creampie 100
▁operators 100
▁суммы 100
▁сообщили 100
▁част 100
▁военного 100
▁Ник 100
▁Lin 100
▁палестинск 100
ализм 100
ьной 100
лятор 100
▁transparency 100
▁Хотите 100
▁IMF 100
▁Yellow 100
▁peacekeeping 100
▁равенства 100
▁judges 100
ПО 100
▁Люди 100
▁известный 100
▁жили 100
▁американских 100
▁жал 100
▁Printer 100
▁Шир 100
EST 100
ui 100
▁водой 100
dol 100
▁подобные 100
▁dust 100
▁manufacture 100
вала 100
▁Chat 100
▁встреч 100
▁gun 100
▁outer 100
▁subjects 100
безопас 100
▁текста 100
▁признак 100
▁традиционн 100
▁obvious 100
▁поселен 100
▁electrical 100
▁begins 100
▁onto 100
nut 100
бега 100
▁каждая 100
▁современные 100
Рабочая 100
▁Основные 100
▁втроем 100
▁сериал 100
▁дальнейши 100
▁entertainment 100
▁показ 100
▁накоплен 100
▁сознания 100
▁Кро 100
▁номеров 100
▁обеспечен 100
leg 100
▁Task 100
▁Дополнительные 100
▁holds 100
▁2014, 100
▁бывший 100
зан 100
▁ключевых 100
▁знают 100
террористическ 100
raft 100
падает 100
tia 100
▁scan 100
▁рисков 100
▁examples 100
▁speaker 100
▁commitments 100
SO 100
гам 100
▁Send 100
▁accompanied 100
▁identification 100
▁браузера 100
▁узнаете 100
▁binary 100
▁концентраци 100
шем 100
▁tribe 100
▁ride 100
▁раком 100
▁свод 100
тори 100
▁2012. 100
тв 100
пак 100
▁уничтож 100
▁обоих 100
▁Мастер 100
▁многое 100
▁подобных 100
▁утверждения 100
плот 100
wide 100
▁силой 100
▁Выбор 100
▁Общественно 100
▁кабинет 100
чек 100
щем 100
▁Arm 100
▁Crimea 100
▁Московск 100
▁преобразован 100
▁steroid 100
▁бал 100
нув 100
▁отдела 100
ОП 100
▁введен 100
культур 100
▁Форм 100
▁conversation 100
▁nipples 100
▁единственным 100
▁Splice 100
▁понимание 100
▁End 100
▁cartoon 100
▁compound 100
▁объединен 100
rp 100
▁favorite 100
mut 100
▁843 100
▁клуба 100
Йорке 100
▁этапа 100
▁воздушны 100
▁КАС 100
▁pad 100
3.5 100
▁arts 100
▁founder 100
▁indicate 100
вых 100
держит 100
▁называ 100
▁VIP 100
ija 100
ира 100
fold 100
ending 100
▁Кара 100
▁historic 100
▁Ram 100
-16 100
▁отбор 100
▁свыше 100
▁parameters 100
▁volunteer 100
▁концепции 100
▁afternoon 100
▁flesh 100
▁Англии 100
▁продовольственн 100
▁стремится 100
▁pet 100
▁Глобальн 100
▁интерьер 100
▁Информация 100
▁пришлось 100
dian 100
▁civilian 100
▁процессы 100
▁Tourism 100
▁Fish 100
▁третьей 100
▁получив 100
ifying 100
▁frequently 100
▁отрицательн 100
▁imposed 100
▁Форум 100
▁88 100
ьности 100
ВИ 100
банк 100
▁typical 100
▁withdraw 100
▁отправить 100
аса 100
▁жестки 100
ela 100
▁компонентов 100
▁практику 100
▁3) 100
▁агентство 100
▁персонаж 100
vet 100
▁commander 100
▁Way 100
▁SM 100
▁opposite 100
▁breast 100
▁пройдет 100
▁экономику 100
▁composed 100
▁territorial 100
▁Каз 100
▁почте 100
▁FOR 100
▁alien 100
▁библиотек 100
▁чай 100
wordpress 100
ийского 100
▁родился 100
▁обеих 100
▁functional 100
СО 100
▁соответствующей 100
▁Институт 100
▁CAS 100
▁machinery 100
▁аналогичны 100
▁предложений 100
шняя 100
bon 100
▁необходимым 100
▁strange 100
▁informal 100
▁ni 100
rink 100
▁зона 100
▁Dar 100
▁докладов 100
▁achievements 100
▁Op 100
▁проблемам 100
▁accounting 100
▁prayer 100
льский 100
▁низкой 100
▁Kremlin 100
▁Nevertheless 100
▁Stainless 100
▁коллекция 100
▁подготовка 100
▁Summer 100
▁волокна 100
▁сердечн 100
▁моделей 100
▁публикации 100
вались 100
▁Though 100
▁restrictions 100
▁производители 100
Все 100
▁streets 100
▁associations 100
▁дают 100
строить 100
▁покрытия 100
▁ruler 100
▁каменн 100
▁литье 100
▁блока 100
▁спроса 100
ализации 100
▁высокое 100
▁accused 100
▁атом 100
уре 100
▁Americans 100
▁мышцы 100
▁generate 100
▁(8 100
стям 100
soci 100
▁ресурсами 100
▁turning 100
▁сообществ 100
▁Cri 100
▁patient 100
▁Ближнем 100
▁браслет 100
▁certification 100
▁глобального 100
▁защищен 100
▁настоящей 100
▁близки 100
▁заболевания 100
▁crew 100
▁productivity 100
▁republic 100
▁каждому 100
▁бесплатные 100
▁Бур 100
▁1973 100
▁Место 100
▁pray 100
▁боли 100
▁опор 100
▁столкну 100
SK 100
▁туда 100
▁05:00 100
энергетическ 100
▁возможных 100
▁Фар 100
PM 100
ipp 100
▁никакой 100
▁смотр 100
▁кре 100
▁hath 100
▁строго 100
▁чистое 100
▁Has 100
uous 100
▁видит 100
▁нормально 100
▁патент 100
▁del 100
▁contributed 100
АЗ 100
▁иностранн 100
▁unemployment 100
▁проверить 100
▁latina 100
▁разработчик 100
▁установка 100
▁habit 100
тельная 100
▁знакомства 100
▁Bro 100
▁walking 100
rav 100
▁millions 100
▁лучшее 100
▁воздухе 100
▁sms 100
dies 100
rine 100
▁restrict 100
▁рекомендуется 100
▁решением 100
▁отправля 100
▁Class 100
▁editor 100
▁Call 100
sil 100
▁relationships 100
▁Кра 100
▁направленных 100
▁леч 100
▁exports 100
▁внизу 100
3⁄4 100
▁Catholic 100
▁scholar 100
▁Sharpe 100
▁restoration 100
▁кислот 100
▁вели 100
▁Charles 100
▁2005, 100
▁службу 100
▁отражает 100
▁пря 100
▁Где 100
▁регуляр 100
▁calculated 100
▁1984 100
TION 100
▁Mc 100
кажите 100
▁sofa 100
▁angel 100
▁покрыт 100
▁Коп 100
▁найдете 100
iva 100
ИЯ 100
▁fold 100
▁пыл 100
▁палат 100
▁Стол 100
опыт 100
▁attraction 100
бирает 100
real 100
против 100
▁начинают 100
▁говорили 100
ющаяся 100
цин 100
▁Ham 100
▁Remote 100
▁Steroid 100
▁achieving 100
▁ходьбы 100
▁вследствие 100
▁учитывать 100
▁датчик 100
▁Plant 100
▁ищете 100
▁Community 100
▁вещей 100
▁камеры 100
▁монет 100
▁включать 100
▁mountains 100
▁работой 100
▁получите 100
▁Inc 100
▁горе 100
пул 100
▁originally 100
▁удобно 100
▁занимается 100
▁полезно 100
▁СО 100
▁реп 100
▁Ат 100
живает 100
фо 100
▁Побед 100
▁PRO 100
=6 100
▁Studio 100
▁Yahweh 100
▁кухня 100
▁следующее 100
▁чиновник 100
▁защитить 100
▁организатор 100
▁последующе 100
▁communicate 100
▁упомина 100
тел 100
▁Money 100
metric 100
дис 100
▁Associated 100
▁Sin 100
▁willing 100
▁absolutely 100
▁точную 100
▁grounds 100
▁неё 100
бри 100
▁кондиционер 100
▁свободной 100
▁info 100
▁updates 100
▁qualified 100
▁Роз 100
craft 100
▁(11 100
▁иска 100
▁залив 100
фир 100
hn 100
▁sample 100
оид 100
▁Yesterday 100
▁emphasis 100
▁territories 100
▁заседание 100
▁действует 100
▁эквивалент 100
▁terminal 100
▁tissue 100
▁представлял 100
▁связ 100
▁утверждал 100
▁smart 100
▁unknown 100
ЕЛ 100
▁Верховного 100
▁Republican 100
▁returns 100
▁Ci 100
▁двойное 100
▁стола 100
▁delegations 100
проект 100
-17 100
2017 100
ене 100
▁красотки 100
▁прошли 100
aught 100
казывать 100
▁Дополнительн 100
Qu 100
▁Acc 100
▁Adam 100
▁professionals 100
▁Wednesday 100
▁дерева 100
kha 100
▁competent 100
▁serving 100
▁Clean 100
▁значительн 100
▁честн 100
▁связано 100
▁хороший 100
Ar 100
▁Чер 100
weight 100
▁Town 100
imp 100
▁Поддержка 100
EU 100
▁thoughts 100
▁Mur 100
MD 100
▁Later 100
талкива 100
▁Бесплатные 100
▁beside 100
код 100
▁wash 100
▁Маль 100
▁проф 100
▁designer 100
▁обеща 100
▁собрал 100
▁применять 100
▁изменен 100
▁Qui 100
iel 100
▁Cabinet 100
▁Certificate 100
▁Covenant 100
▁Россией 100
▁наблюдения 100
▁полномочий 100
▁приведет 100
▁покинул 100
▁капитан 100
ирова 100
▁render 100
▁мораль 100
▁сербск 100
clo 100
СР 100
▁nearby 100
дев 100
-2015 100
▁insert 100
ТУ 100
▁Tube 100
ившись 100
▁среда 100
▁имена 100
▁drawn 100
cam 100
▁механизмы 100
▁похоже 100
▁highlight 100
hand 100
▁новом 100
▁crossdresser 100
▁поставки 100
▁Орган 100
▁castle 100
▁fifth 100
▁дизайна 100
▁Тра 100
Те 100
▁улучшение 100
▁insist 100
сос 100
▁революции 100
▁настоящий 100
▁сыграл 100
▁кровать 100
▁regret 100
pass 100
▁truck 100
▁grain 100
▁предупреждения 100
▁посыл 100
▁fra 100
▁указывает 100
▁Мобильный 100
▁признать 100
▁Американск 100
▁suddenly 100
▁ново 100
150 100
нституци 100
▁одежда 100
▁эффективной 100
raz 100
▁directions 100
▁усили 100
▁дверь 100
▁Crime 100
▁golden 100
▁engage 100
▁Судан 100
▁коммерчески 100
▁сплава 100
▁convert 100
анда 100
▁22. 100
▁Bou 100
▁(+ 100
▁Belt 100
▁держать 100
▁Hungary 100
▁integrity 100
▁Штатах 100
▁недалеко 100
▁умолчанию 100
▁Theatre 100
▁гольф 100
▁landscape 100
▁способствовал 100
иев 100
тана 100
▁заметил 100
▁40% 100
▁converter 100
полнить 100
▁служил 100
eck 100
▁Tele 100
▁grade 100
▁Новой 100
▁adapt 100
▁Матери 100
care 100
▁saved 100
ATE 100
▁XX 100
кру 100
Мар 100
ительным 100
жка 100
▁Чу 100
▁ежедневно 100
▁demonstrate 100
ступает 100
дежда 100
▁Mad 100
skiy 100
door 100
ographic 100
▁Environment 100
жда 100
▁Кат 100
лис 100
▁Премьер 100
▁judgment 100
▁scenario 100
▁отсутствия 100
▁dialog 100
▁cease 100
▁мульти 100
▁показателя 100
▁основ 100
▁технологически 100
oriented 100
▁стара 100
части 100
▁Sexy 100
▁Ирака 100
▁Brand 100
МРСК 100
▁советник 100
▁Sri 100
▁свете 100
ключения 100
▁spoken 100
▁мама 100
▁prohibit 100
card 100
очку 100
▁автора 100
▁constructed 100
▁grid 100
▁Van 100
ером 100
обществ 100
▁американской 100
▁Лин 100
сказ 100
▁Nico 100
площад 100
▁Leader 100
▁Islands 100
▁FTTH 100
▁concentration 100
▁Scientific 100
▁территориальн 100
▁вселенной 100
Or 100
▁должностей 100
▁engineers 100
мг 100
▁balls 100
▁внешне 100
▁cabinet 100
▁Юго 100
girlfriend 100
electric 100
▁booking 100
чке 100
▁популярны 100
▁четверг 100
щими 100
▁Right 100
▁инвесторов 100
▁проводит 100
▁производстве 100
▁собственного 100
▁begun 100
▁succeed 100
tha 100
щё 100
ратор 100
▁ограничений 100
▁initially 100
▁stronger 100
▁Устав 100
▁ремонта 100
ующие 100
▁alter 100
сол 100
▁votes 100
▁trained 100
▁включены 100
▁местом 100
▁beat 100
itis 100
▁Лей 100
▁Cyprus 100
▁NuVid 100
▁empty 100
▁gross 100
▁praise 100
▁reward 100
▁charm 100
▁агентства 100
ПК 100
▁управлением 100
тс 100
▁urge 100
▁использованию 100
Mi 100
стов 100
corporation 100
▁рассмотрен 100
bian 100
▁Аз 100
ić 100
ГА 100
/11 100
▁маг 100
▁газета 100
▁salt 100
▁исполнение 100
gger 100
нас 100
▁Команд 100
▁hairy 100
▁шум 100
▁окон 100
гия 100
▁оперативно 100
▁человеческого 100
▁аргумент 100
▁Style 100
▁Internal 100
▁имен 100
▁humanity 100
▁май 100
▁regulatory 100
▁Camp 100
▁ферм 100
▁транспортных 100
▁exact 100
▁Рон 100
▁Кот 100
▁Operations 100
▁Self 100
UP 100
▁gene 100
▁межрассовое 100
▁обеспокоен 100
▁взнос 100
▁внести 100
than 100
▁травм 100
▁сосредоточ 100
▁окончательно 100
▁kids 100
mature 100
▁кандидата 100
idze 100
▁villages 100
▁представляется 100
▁arise 100
▁увеличил 100
▁fans 100
▁precision 100
▁reconstruction 100
▁психическ 100
▁спортсмен 100
▁Mountain 100
▁медленно 100
▁Brown 100
▁рецепт 100
▁конверт 100
▁неделе 100
▁Martin 100
▁upgrade 100
▁Gas 100
▁остальные 100
▁подверга 100
сле 100
▁правительству 100
▁получа 100
▁beds 100
▁Gran 100
▁воду 100
▁wing 100
▁душа 100
▁послан 100
nan 100
▁идеолог 100
emi 100
▁visits 100
рег 100
▁Париже 100
—19 100
▁запущен 100
tim 100
вание 100
▁проблемами 100
даль 100
▁capabilities 100
▁consensus 100
▁расследования 100
▁слышал 100
▁индекс 100
▁лагеря 100
▁producing 100
этническ 100
▁drivers 100
▁представлять 100
узе 100
▁Управления 100
▁retail 100
▁#2 100
▁dated 100
▁Pump 100
mul 100
▁(12 100
▁broadcast 100
product 100
▁attached 100
bro 100
hil 100
▁(9 100
▁catch 100
анской 100
cient 100
ивание 100
▁argue 100
▁Афганистан 100
▁плох 100
▁дизайнер 100
▁Интернете 100
▁@ 100
▁острове 100
▁мощность 100
▁Гости 100
▁differ 100
фен 100
вёл 100
▁Армении 100
▁Одним 100
▁император 100
▁религиозных 100
▁руководителя 100
▁rev 100
▁ruling 100
▁живут 100
riot 100
▁указать 100
▁topics 100
▁radi 100
страницу 100
eller 100
▁фар 100
уха 100
тический 100
▁необходимая 100
▁определенных 100
▁stake 100
▁края 100
anda 100
шни 100
▁идей 100
ходят 100
▁шаги 100
aya 100
▁климат 100
▁избира 100
▁Имя 100
▁сорт 100
▁Omega 100
▁FetishShrine 100
▁щековин 100
▁хорошее 100
▁trigger 100
▁Следует 100
▁иначе 100
▁культурных 100
▁панель 100
▁Zo 100
rah 100
▁82 100
▁неп 100
ncy 100
▁Stra 100
▁кот 100
▁лицами 100
▁такси 100
Moncler 100
▁завершил 100
▁государственные 100
▁Кал 100
▁навыки 100
▁seeing 100
▁Ему 100
РТ 100
▁runs 100
▁Nur 100
▁центром 100
text 100
gr 100
-2013 100
▁красный 100
wal 100
▁Kir 100
bl 100
▁addresses 100
кул 100
▁Ян 100
▁борьбу 100
▁тысячелетия 100
▁достопримечател 100
▁опустится 100
▁фронт 100
▁почты 100
▁Bureau 100
▁Function 100
▁сперма 100
трон 100
▁использующие 100
osis 100
▁осужден 100
программ 100
казино 100
▁корпуса 100
▁\ 100
▁Bible 100
▁Человек 100
▁lamp 100
▁Being 100
▁Sto 100
▁authors 100
▁considering 100
▁Пят 100
▁дорога 100
▁Bulgaria 100
–19 100
БО 100
▁характеристики 100
кре 100
тельным 100
▁usage 100
▁possess 100
ML 100
▁transactions 100
▁Casinos 100
▁spare 100
▁Ankara 100
▁satisfaction 100
▁Декларации 100
▁пыток 100
▁missile 100
▁XIX 100
▁граждане 100
▁опять 100
▁Павел 100
▁пир 100
▁Больш 100
▁частного 100
▁cargo 100
▁Poly 100
▁parent 100
▁musical 100
▁suck 100
сфер 100
ЛЬ 100
▁крупные 100
▁учит 100
▁demonstrated 100
валь 100
force 100
etting 100
900 100
rench 100
▁оказывает 100
generic 100
рево 100
▁Sil 100
▁жизненно 100
▁comply 100
▁Ибо 100
▁mortal 100
▁maintaining 100
▁Paradise 100
▁ассоциирует 100
▁индукции 100
▁рынков 100
▁complement 100
▁выставке 100
▁уголовного 100
▁Wedding 100
▁Electronic 100
▁турецк 100
▁Prague 100
▁содействовать 100
▁Thailand 100
ленный 100
▁пережив 100
▁ускорен 100
▁сделано 100
▁CC 100
pal 100
▁realization 100
▁предоставит 100
▁ведения 100
▁кровь 100
▁Пара 100
▁Рост 100
▁наслед 100
▁enabled 100
▁реестре 100
овки 100
▁paint 100
▁шарик 100
стрем 100
▁ворот 100
▁Nar 100
▁черно 100
▁катастроф 100
][/ 100
▁Eli 100
▁guarantees 100
▁cream 100
▁Zealand 100
▁следующего 100
▁эксплуатацию 100
▁Королевск 100
▁thick 100
nor 100
▁домой 100
▁проводил 100
▁Дата 100
▁активист 100
▁знаете 100
▁пространстве 100
▁Джу 100
▁withdrawal 100
▁Place 100
▁achievement 100
ивается 100
▁captured 100
▁волосы 100
▁Богом 100
TT 100
▁малых 100
▁Tax 100
ута 100
▁tail 100
▁Bus 100
▁направленные 100
ured 100
▁Angel 100
▁encouraged 100
▁фундаментальн 100
▁поддержал 100
▁приобрести 100
▁стратегий 100
▁превосходн 100
▁мешок 100
▁властей 100
▁свидетельствует 100
▁Battle 100
▁Libya 100
▁fla 100
▁helping 100
▁песен 100
▁элит 100
posed 100
▁признает 100
station 100
правление 100
▁ретро 100
▁окружен 100
▁initiated 100
▁применяется 100
▁остальных 100
греб 100
энерго 100
▁народу 100
▁печать 100
titude 100
▁AB 100
▁Rock 100
амп 100
▁камера 100
▁реестр 100
▁assembl 100
▁wa 100
▁adding 100
▁angle 100
akov 100
газ 100
бран 100
▁собор 100
▁fishing 100
▁Саудовск 100
▁брезент 100
▁зачастую 100
▁коллекции 100
▁конгресс 100
▁heritage 100
▁premises 100
▁Земли 100
▁Существ 100
▁великолепн 100
▁coalition 100
▁меньшей 100
case 100
▁diverse 100
опла 100
▁percentage 100
▁1944 100
▁07:00 100
▁mining 100
▁инвестиционны 100
честве 100
▁создателе 100
azi 100
▁куб 100
▁IC 100
hel 100
tta 100
▁Дей 100
▁Arabia 100
тельство 100
AU 100
▁понимает 100
esti 100
▁sera 100
HI 100
сион 100
▁Fur 100
▁deposits 100
▁Nazi 100
person 100
▁seriously 100
▁Further 100
▁нужд 100
▁Library 100
▁подтверждает 100
▁собственный 100
▁собственным 100
▁голуб 100
▁usual 100
живание 100
▁Pink 100
▁рабочий 100
▁братья 100
▁выполня 100
▁худ 100
▁актов 100
▁rein 100
▁hat 100
▁solar 100
▁ныне 100
▁потенциально 100
▁substances 100
▁Бель 100
▁высш 100
▁Tits 100
▁Меня 100
▁artificial 100
▁sections 100
▁Lab 100
oul 100
▁ванн 100
вард 100
▁убит 100
ционных 100
▁Rose 100
▁squirt 100
▁солнце 100
▁известен 100
▁условии 100
▁требование 100
▁duties 100
▁Care 100
▁residential 100
▁столицы 100
▁Revolution 100
▁shops 100
▁Times 100
▁появляется 100
▁owing 100
▁пакета 100
▁узнал 100
▁Address 100
российск 100
▁Бор 100
occ 100
▁гнев 100
техник 100
250 100
casino 100
▁подключения 100
▁Джи 100
▁grown 100
Минет 100
▁Бес 100
▁важнейши 100
▁характеристик 100
▁Путина 100
▁watches 100
ces 100
иды 100
▁connections 100
▁servants 100
▁blow 100
▁предусматрива 100
▁взросл 100
льц 100
▁повторя 100
▁rid 100
▁calm 100
▁Юр 100
▁discipline 100
▁vegetable 100
▁консенсус 100
▁церемонии 100
▁энергия 100
▁средней 100
▁racial 100
▁стекла 100
▁титул 100
▁организацией 100
▁Глава 100
▁signature 100
▁brick 100
▁рабочие 100
▁голоса 100
▁состоялся 100
▁Име 100
▁1978 100
dio 100
▁Forest 100
▁aims 100
▁scans 100
ствует 100
▁вышел 100
ующих 100
3.1 100
▁unity 100
▁разрыв 100
▁reasonable 100
▁провели 100
▁открытие 100
▁различия 100
▁Mak 100
▁расширя 100
▁анализирует 100
▁полную 100
транс 100
сков 100
▁holder 100
▁motion 100
▁Hold 100
▁Секс 100
▁€1 100
▁exists 100
▁юг 100
pul 100
▁chip 100
lop 100
IO 100
кнул 100
▁privilege 100
▁removal 100
▁поддерживают 100
▁текущего 100
▁штраф 100
▁merely 100
▁музее 100
▁rubber 100
▁голову 100
▁выйти 100
▁dwell 100
▁Латинской 100
▁велико 100
▁стратегия 100
рю 100
▁поручен 100
▁оказался 100
большие 100
▁банковски 100
вз 100
▁apart 100
▁Март 100
▁Extra 100
▁признание 100
гран 100
брал 100
▁реальность 100
позитив 100
▁содержится 100
▁делал 100
▁домена 100
▁желаю 100
▁facilitat 100
▁220 100
щит 100
▁Эль 100
kt 100
▁kit 100
▁привели 100
▁thirty 100
▁законопроект 100
▁коррупции 100
▁durable 100
▁замечания 100
▁Field 100
▁комментарий 100
▁poison 100
▁разработал 100
▁sauna 100
▁Teacher 100
▁ToolTM 100
▁Balance 100
▁друж 100
▁Ур 100
пра 100
спор 100
▁MS 100
▁балл 100
▁peak 100
▁океан 100
▁Estonian 100
▁веса 100
▁применя 100
Total 100
▁даты 100
▁Roll 100
▁близ 100
▁количестве 100
▁Шу 100
нице 100
жить 100
▁поступил 100
рач 100
▁дипломат 100
ащите 100
▁избирательной 100
итов 100
▁Духа 100
eni 100
▁Zh 100
▁Linux 100
▁кодекс 100
грев 100
▁удовольствие 100
▁Alliance 100
▁стремление 100
▁короля 100
▁Далее 100
▁threaten 100
▁Крым 100
▁index 100
▁SP 100
▁снижения 100
▁wire 100
▁Мартин 100
▁Staff 100
▁Специального 100
▁Nature 100
▁протокола 100
dition 100
▁инструмента 100
енц 100
▁subsequently 100
▁specially 100
▁книга 100
▁вирус 100
▁Mos 100
▁фоне 100
▁Iranian 100
▁виновн 100
▁provider 100
▁ведомств 100
ПУ 100
▁дополнительной 100
▁открытом 100
▁Тан 100
▁Арт 100
uv 100
▁passengers 100
ивают 100
бед 100
ility 100
▁Bat 100
ционный 100
▁Economics 100
ашвили 100
▁Keywords 100
▁Property 100
▁prominent 100
▁выглядит 100
▁колготки 100
▁мягко 100
▁crystal 100
▁воскрес 100
▁revised 100
▁Slide 100
крест 100
OK 100
▁Systems 100
▁geo 100
▁тату 100
▁случаи 100
rack 100
▁Without 100
▁Currently 100
жав 100
▁присоединен 100
▁Казахстане 100
словно 100
▁оборон 100
▁всеобщ 100
▁страной 100
▁stamp 100
▁организм 100
IV 100
▁Ag 100
▁HS 100
▁125 100
▁бытов 100
▁аналогичн 100
▁индустрии 100
▁institute 100
▁упал 100
▁Одна 100
Основ 100
▁Taiwan 100
▁cooperate 100
▁территорию 100
▁урегулирования 100
▁заранее 100
▁smoke 100
▁осуществляет 100
▁категория 100
▁островов 100
▁ranking 100
▁продолжить 100
▁organizational 100
▁клиентам 100
▁вопросом 100
standing 100
▁несколькими 100
▁servant 100
▁Британск 100
грузка 100
▁осуществляем 100
▁rejected 100
▁повестк 100
If 100
1.1 100
AZ 100
▁Мас 100
chin 100
▁резин 100
мудр 100
▁Шт 100
▁программное 100
бал 100
▁сознание 100
▁традиции 100
▁worst 100
▁уточн 100
▁льгот 100
▁организовал 100
▁Армения 100
▁Living 100
▁Alexandr 100
crawl 100
▁Иордан 100
атора 100
▁называется 100
берт 100
nar 100
луб 100
▁выпустил 100
▁женщинам 100
▁(14 100
▁чемпион 100
▁acquired 100
ходящих 100
▁массив 100
таб 100
▁Sport 100
СТИ 100
рог 100
▁bags 100
▁решать 100
рал 100
▁округа 100
▁Kal 100
генер 100
▁Павл 100
▁Capital 100
▁Tranny 100
▁мамочки 100
▁медицинского 100
▁copies 100
▁climb 100
▁Рабочи 100
▁HE 100
▁(20 100
▁ткань 100
▁защитн 100
▁desert 100
▁Package 100
имся 100
cel 100
▁главно 100
▁Hotels 100
АМ 100
▁improvements 100
▁обозначает 100
▁статьей 100
ann 100
▁tells 100
▁операционной 100
▁предоставляется 100
▁несет 100
▁Engine 100
cep 100
▁gangbang 100
▁связыва 100
core 100
▁использованы 100
Sh 100
вшегося 100
ирована 100
▁понят 100
▁101 100
▁разнообразн 100
▁субсиди 100
аторов 100
▁прилага 100
▁thin 100
▁Алекс 100
▁mono 100
▁Gambling 100
▁Treatment 100
▁principal 100
▁quantity 100
▁разработку 100
▁рекомендовал 100
▁шаблон 100
▁нападения 100
▁Intel 100
▁станут 100
▁МООН 100
▁Machinery 100
▁совершил 100
▁источники 100
▁испыта 100
▁Ken 100
▁PE 100
▁передни 100
▁operator 100
▁воде 100
▁преимуществ 100
▁отдых 100
▁Фу 100
ализация 100
▁трасс 100
ban 100
▁boots 100
тные 100
fact 100
▁arrive 100
▁intend 100
▁vintage 100
▁70% 100
Всего 100
▁79 100
▁visiting 100
▁радость 100
▁asset 100
▁столько 100
graphic 100
ийский 100
▁алюминиев 100
▁территория 100
▁акцент 100
▁Евросоюз 100
▁рамки 100
▁взаимно 100
▁regulate 100
▁аудио 100
▁YouTube 100
▁дерево 100
▁Kitchen 100
▁топ 100
▁Игра 100
▁summit 100
▁Итак 100
▁вынесен 100
▁RO 100
▁ветер 100
▁recall 100
▁курсов 100
▁сорок 100
▁Dark 100
▁1-2 100
учить 100
-25 100
▁главного 100
▁Ее 100
▁Thu 100
▁показали 100
▁прямой 100
ированной 100
▁controls 100
▁Tuesday 100
▁explanation 100
▁possibly 100
▁recreation 100
▁присутствие 100
▁контролировать 100
▁приобрел 100
▁Расстояние 100
ila 100
▁Website 100
▁Белград 100
эш 100
▁elite 100
▁пилот 100
ющимися 100
▁Delta 100
▁помещений 100
▁пластик 100
▁предан 100
encies 100
▁настаива 100
▁примеру 100
уголь 100
▁последовательно 100
Moscow 100
NU 100
▁summ 100
▁взносов 100
▁обновление 100
▁руках 100
▁взят 100
logy 100
▁settle 100
▁mixed 100
дова 100
▁pin 100
PU 100
▁Ангел 100
▁Fat 100
▁члена 100
▁tablet 100
▁Strategy 100
▁Учитывая 100
▁конкуренции 100
▁diameter 100
▁Interior 100
▁полезную 100
▁руководителей 100
▁Аренда 100
нную 100
▁Artsakh 100
▁музыкант 100
▁огонь 100
▁Gaza 100
▁underground 100
ИК 100
▁именем 100
▁сторонами 100
▁1981 100
▁обвинения 100
▁regardless 100
▁Жил 100
▁1976 100
Un 100
▁содержат 100
▁loved 100
РК 100
▁деталь 100
▁ролик 100
▁portion 100
▁gifts 100
▁спутников 100
НТ 100
▁89 100
von 100
▁Bitcoin 100
тельное 100
▁SO 100
ражение 100
aria 100
chenko 100
▁Rules 100
▁fees 100
BB 100
▁Philip 100
▁инициативе 100
▁URL 100
▁причинам 100
чая 100
ett 100
blo 100
responsibilities 100
▁evaluate 100
▁Участники 100
▁flood 100
▁depict 100
▁воспитан 100
▁существование 100
▁disorder 100
▁ownership 100
▁электрический 100
▁Ana 100
▁expectations 100
быв 100
▁нарушений 100
▁websites 100
▁decoration 100
▁какого 100
▁судей 100
▁dimensions 100
▁Алиев 100
▁теми 100
▁Mega 100
▁manifest 100
BT 100
мл 100
▁SH 100
▁местами 100
ционного 100
▁passing 100
бас 100
▁assume 100
▁проекту 100
▁lice 100
ительных 100
▁товара 100
▁Cho 100
▁Гранд 100
HA 100
ception 100
▁статистическ 100
▁Prosecutor 100
▁afraid 100
▁бдсм 100
▁выражения 100
▁чудес 100
▁Bosnia 100
▁понедельник 100
▁Созда 100
▁выберет 100
▁армия 100
▁ranked 100
▁slide 100
▁вопросами 100
▁учитель 100
движен 100
▁выступал 100
▁authorized 100
▁гу 100
нз 100
▁Fed 100
FO 100
▁1974 100
▁рынках 100
centr 100
▁Arts 100
▁entrepreneur 100
▁стандартам 100
чести 100
▁крупнейших 100
▁traditions 100
▁тренер 100
▁возможным 100
▁acquire 100
▁стоял 100
▁соски 100
Кор 100
▁КА 100
ific 100
▁перечислен 100
▁мобильно 100
▁выброс 100
▁patterns 100
cil 100
▁Нескольк 100
▁Santa 100
▁Фер 100
▁Unfortunately 100
▁Vietnam 100
▁demonstration 100
▁Эстонии 100
▁Trump 100
▁amazing 100
▁здании 100
▁отечественн 100
▁попытка 100
▁последней 100
▁высокая 100
▁лестниц 100
▁справедлив 100
▁вашему 100
▁выступления 100
▁1983 100
▁euros 100
▁wise 100
▁branches 100
▁properly 100
▁analyze 100
▁думал 100
▁планеты 100
▁towns 100
raw 100
▁diet 100
▁extract 100
▁refuse 100
▁gains 100
eti 100
▁фермер 100
anger 100
удивительн 100
▁Through 100
▁Изображения 100
▁мероприятие 100
▁телевизионн 100
▁преступности 100
▁variable 100
▁сократить 100
▁NEW 100
▁социальным 100
▁Буша 100
▁доверие 100
▁crash 100
EP 100
bert 100
▁gradually 100
▁regarded 100
рид 100
▁Программ 100
▁нерв 100
▁Lan 100
▁Cuba 100
▁мониторинг 100
▁леса 100
▁Свое 100
▁кредитов 100
▁курсы 100
▁Basic 100
емое 100
▁resolve 100
учил 100
▁убийства 100
тические 100
чика 100
▁одни 100
▁BR 100
▁fur 100
▁цветы 100
▁Перет 100
▁дороге 100
bedroom 100
▁Supply 100
▁Swedish 100
▁diamond 100
▁ignore 100
▁Наконец 100
▁болезни 100
▁глобальных 100
▁проповед 100
▁родственник 100
▁imagine 100
▁Finnish 100
▁высшего 100
▁поворот 100
▁договоров 100
▁обеспечении 100
сок 100
▁opposed 100
▁Департамента 100
▁Features 100
▁речи 100
▁предупрежд 100
▁растущ 100
▁Sat 100
▁victim 100
▁rare 100
▁noise 100
VPN 100
▁Ир 100
позиция 100
▁transform 100
▁Лет 100
▁Print 100
▁Paper 100
▁compact 100
▁waters 100
▁тестостерона 100
ография 100
▁гре 100
▁определяет 100
▁стабильность 100
ñ 100
▁Accessories 100
▁privacy 100
▁Божье 100
▁настоящим 100
▁совокупн 100
▁causing 100
▁международный 100
▁История 100
▁будущих 100
▁поставщики 100
▁компакт 100
▁suspect 100
▁потребления 100
▁пластин 100
▁возможностями 100
▁плюс 100
▁возрос 100
▁reception 100
▁hunt 100
▁steam 100
LP 100
ющему 100
▁bonds 100
▁наследия 100
▁Две 100
▁Пресс 100
neg 100
▁Индия 100
▁doctors 100
бес 100
сем 100
▁lecture 100
piece 100
III 100
▁periods 100
▁ею 100
▁учреждениями 100
from 100
▁созданы 100
cat 100
▁Эй 100
▁росту 100
▁facial 100
▁отдал 100
▁даст 100
▁Вт 100
▁бисера 100
▁screw 100
▁Таиланд 100
▁protein 100
wallpaper 100
▁авторитет 100
▁предоставлять 100
ядерных 100
▁потребовал 100
▁распространя 100
▁уваж 100
▁турнира 100
▁Хал 100
▁Jackets 100
▁1969 100
▁Отец 100
▁Have 100
makers 100
▁Большая 100
▁создают 100
▁заряд 100
▁база 100
▁показывают 100
▁картинки 100
чиков 100
▁Plate 100
▁studying 100
адрес 100
▁flows 100
▁независимость 100
▁практика 100
▁pleased 100
▁falling 100
▁Gene 100
▁Пример 100
▁Черно 100
▁японски 100
айл 100
▁обвинен 100
dict 100
▁Resort 100
▁небольших 100
▁несомненно 100
▁Malaysia 100
▁impression 100
▁стадии 100
▁платформы 100
▁Георг 100
▁руководитель 100
▁уча 100
▁Создание 100
▁sending 100
▁диван 100
▁Shu 100
▁shell 100
▁civilians 100
soft 100
окси 100
▁предоставлении 100
dak 100
▁bra 100
чел 100
▁Log 100
▁Engineering 100
аторы 100
▁бумаг 100
регистр 100
▁Stand 100
break 100
▁парка 100
очно 100
ico 100
▁te 100
▁воздушно 100
нными 100
▁источником 100
most 100
▁параметров 100
равне 100
▁Западно 100
bell 100
▁диска 100
нулся 100
▁Азиатки 100
▁codes 100
oven 100
▁закончил 100
▁Fabric 100
▁Imperial 100
▁significance 100
▁Финляндии 100
▁книге 100
▁миллиардов 100
▁мышью 100
▁зарплат 100
▁Sterling 100
▁безусловно 100
▁природных 100
▁тенге 100
▁распределения 100
▁Clear 100
▁wholesale 100
▁shipping 100
▁молоко 100
▁departure 100
▁missing 100
▁compete 100
▁civilization 100
▁allocated 100
▁mask 100
оцен 100
eon 100
▁assert 100
▁недостатк 100
▁занятия 100
▁плита 100
▁своём 100
▁observers 100
▁Чем 100
▁alia 100
turn 100
▁тематическ 100
▁sick 100
.03. 100
▁namely 100
amateur 100
атт 100
high 100
▁Ms 100
▁Stone 100
IE 100
▁Применение 100
▁внешний 100
▁кирпич 100
▁сюжет 100
▁контент 100
▁Telephone 100
▁проживающи 100
▁whereas 100
▁закреплен 100
▁уважение 100
▁появилась 100
▁thermal 100
▁fly 100
▁91 100
▁пользователям 100
▁secretary 100
▁Payment 100
физически 100
▁Ассоциации 100
▁уделя 100
▁оказаться 100
▁maid 100
▁слабый 100
▁Consul 100
▁Мой 100
▁Optical 100
▁человеку 100
▁burn 100
млрд 100
▁ожидаем 100
▁регионального 100
▁publications 100
▁возвращен 100
ильная 100
▁1500 100
KA 100
COM 100
▁восьми 100
▁girlfriend 100
▁Лондоне 100
▁украшен 100
▁близко 100
▁продолжил 100
▁современным 100
▁borrow 100
▁valley 100
▁monster 100
▁Установка 100
▁Текст 100
ania 100
▁beings 100
идзе 100
▁процентны 100
▁Хор 100
▁вооруж 100
▁победы 100
▁Нем 100
▁1968 100
▁addressing 100
▁выбрал 100
▁российской 100
▁Лос 100
▁серия 100
strong 100
▁специальн 100
ствие 100
▁конкретно 100
▁trace 100
▁квадрат 100
▁Боже 100
▁собственность 100
▁hardly 100
▁размеры 100
▁Детск 100
▁rebel 100
▁грамот 100
▁беременн 100
▁California 100
Спец 100
▁Millennium 100
▁reputation 100
▁voluntary 100
▁Египта 100
▁Реплика 100
▁красавицы 100
▁поддержать 100
▁Dream 100
▁обязанностей 100
▁рабочего 100
▁Movie 100
▁рекорд 100
▁Film 100
▁уничтожен 100
▁оставить 100
▁возникает 100
▁gear 100
▁announcement 100
4° 100
▁проекте 100
▁тел 100
▁перспективы 100
▁луч 100
ЮН 100
▁финансиру 100
▁strict 100
strat 100
▁Ger 100
▁Баку 100
▁определенные 100
▁Nik 100
СПИД 100
far 100
▁meter 100
материал 100
▁capture 100
▁техника 100
▁Link 100
▁Six 100
▁поддержания 100
outs 100
▁facts 100
▁Sep 100
▁вероятность 100
▁EP 100
▁прибыл 100
mol 100
suit 100
▁Рез 100
▁march 100
▁восстановлен 100
▁mun 100
▁diploma 100
2,000 100
щего 100
▁anabolic 100
▁ourselves 100
▁shadow 100
▁parallel 100
▁Гонконг 100
▁участок 100
▁краткосрочн 100
▁перетащит 100
▁Ministers 100
▁состоялось 100
▁организацию 100
▁НПО 100
▁мертв 100
зал 100
▁холм 100
▁Brazilian 100
▁способствую 100
▁многим 100
▁находи 100
▁финансовым 100
▁дополн 100
▁активности 100
▁Muslims 100
▁Главны 100
▁Matt 100
▁Kor 100
получ 100
дам 100
▁obligation 100
▁DS 100
тич 100
▁Jun 100
▁рейтингу 100
▁plays 100
▁(13 100
тельного 100
▁возле 100
USD 100
Гр 100
▁платы 100
▁армян 100
▁hide 100
▁установления 100
▁чему 100
hardcore 100
кредит 100
▁опасно 100
▁объектив 100
▁Класс 100
▁Morocco 100
ž 100
щелкнуть 100
▁Caribbean 100
▁Major 100
▁Official 100
▁neutral 100
▁pregnant 100
▁Нажмите 100
▁пользователи 100
▁Colombia 100
▁единственный 100
▁огня 100
▁dogging 100
▁desired 100
▁спортивно 100
ёв 100
▁оружием 100
▁herself 100
НС 100
▁Nikola 100
▁Фра 100
▁constitution 100
▁globalization 100
магистр 100
▁3000 100
юн 100
▁широкого 100
▁105 100
▁repeat 100
▁учреждениях 100
master 100
blowjob 100
тическая 100
▁победу 100
ываются 100
▁TS 100
▁расширениями 100
▁Fran 100
▁душу 100
▁статью 100
▁occurs 100
▁psycho 100
▁Operation 100
▁periodic 100
гат 100
▁Helsinki 100
▁Holiday 100
▁smoking 100
▁просьбой 100
▁сегмент 100
▁silence 100
▁империи 100
тем 100
▁энергетики 100
▁удалить 100
▁ultra 100
▁Меж 100
▁Terms 100
▁captain 100
▁laugh 100
▁нормы 100
▁разработать 100
▁гарантировать 100
▁Мария 100
3° 100
▁выражение 100
▁alive 100
▁звезды 100
▁признав 100
▁Winter 100
shop 100
▁Француз 100
▁CB 100
▁Потому 100
LC 100
▁счёт 100
▁PL 100
proliferation 100
СИ 100
▁Код 100
кович 100
▁reply 100
▁Пен 100
/7 100
Рос 100
▁провела 100
▁террор 100
GE 100
▁указанны 100
▁Brussels 100
▁воскресенье 100
▁Ocean 100
▁сочетании 100
▁kilo 100
▁Wild 100
▁летом 100
▁luck 100
▁центры 100
pra 100
▁цену 100
лайн 100
▁высоком 100
▁выступает 100
▁уровней 100
волок 100
▁promised 100
▁одежду 100
▁damaged 100
▁позиция 100
▁лед 100
СТА 100
double 100
▁темно 100
MT 100
▁фильмы 100
▁Mas 100
▁ката 100
▁свободного 100
▁институтов 100
▁Транс 100
ированная 100
▁associating 100
▁societies 100
▁Добавлен 100
▁юстиции 100
▁Having 100
▁утверждают 100
▁polish 100
▁generations 100
▁многочисленных 100
open 100
▁публичны 100
▁Используйте 100
право 100
▁Слу 100
▁Sen 100
▁entering 100
▁салон 100
▁putting 100
▁Syn 100
▁сотни 100
▁повыша 100
Ta 100
ысокого 100
▁engines 100
▁заработн 100
▁невы 100
▁заявила 100
count 100
▁targeted 100
▁очередн 100
▁подряд 100
АЛ 100
олл 100
▁colleagues 100
kan 100
▁затрагива 100
ведении 100
▁связана 100
band 100
▁Стр 100
▁violent 100
▁заседаний 100
▁верхней 100
▁прокурор 100
▁stretch 100
▁процедура 100
▁растительн 100
▁моды 100
▁интегр 100
▁открытым 100
▁юридических 100
яя 100
/5 100
▁Flash 100
▁faces 100
▁лекарств 100
▁приобрет 100
▁Бан 100
▁местности 100
▁reflects 100
▁Сад 100
ильный 100
aga 100
▁огне 100
Hz 100
▁убийств 100
алл 100
▁прекращ 100
▁Арабск 100
▁churches 100
▁заведения 100
gol 100
▁substance 100
ago 100
▁slowly 100
▁преимущество 100
▁чувства 100
ault 100
▁альтернативу 100
мира 100
▁Пас 100
imi 100
▁мирного 100
▁shoulder 100
▁идеальн 100
спользуйте 100
lau 100
▁бесп 100
▁employed 100
▁постоянн 100
▁weapon 100
▁enormous 100
▁Ирландии 100
▁скидки 100
▁понимания 100
▁Революционны 100
▁ЗА 100
▁citizenship 100
тут 100
▁applies 100
▁Лучшие 100
▁laser 100
▁Адам 100
-01 100
▁продлен 100
▁недвижимость 100
▁играл 100
▁господин 100
ущий 100
▁80% 100
▁Божественн 100
▁сохранение 100
▁celebrate 100
евая 100
▁bow 100
измом 100
each 100
ural 100
forum 100
▁clouds 100
▁напечата 100
ссии 100
▁Использу 100
▁Palestine 100
▁Церковь 100
▁десятилетий 100
▁поздравления 100
▁стерлингов 100
▁углерод 100
▁человечества 100
▁конструкция 100
▁ссылки 100
▁discharge 100
4.5 100
▁submission 100
▁Navy 100
▁Provide 100
DL 100
▁Общая 100
▁УФ 100
▁юн 100
▁Африканск 100
▁понятия 100
чества 100
.05. 100
▁lie 100
▁напряжения 100
чное 100
▁1948 100
▁allies 100
▁остава 100
▁Мэ 100
ографии 100
перед 100
▁неофициальн 100
dec 100
▁CON 100
▁Афганистане 100
▁настроить 100
▁$5 100
▁creatures 100
-2017 100
верг 100
▁центральной 100
Большие 100
▁Дел 100
▁квартал 100
▁приветствует 100
▁фаз 100
ishvili 100
▁Administrative 100
▁appreciation 100
▁calendar 100
▁Встреча 100
▁Россию 100
▁напоминает 100
▁прокуратур 100
▁фестиваль 100
▁Henry 100
▁Southern 100
ворачива 100
▁Соединённы 100
▁модерн 100
▁ЕЭК 100
▁thread 100
▁(3) 100
FL 100
dress 100
▁твой 100
▁1971 100
▁гарантии 100
▁рубежом 100
вторых 100
ивших 100
▁Дар 100
▁describe 100
▁региональном 100
анти 100
▁Artist 100
▁республик 100
▁снег 100
~ 100
▁Лес 100
▁bri 100
▁бумага 100
ходы 100
▁Iraqi 100
▁Груз 100
▁поэт 100
▁файлом 100
migrant 100
kr 100
▁фла 100
▁Sergey 100
▁alcohol 100
▁twelve 100
▁Дизайн 100
▁Христос 100
▁отсутствует 100
▁Организацией 100
▁камня 100
▁Leave 100
▁Help 100
▁столице 100
▁страш 100
▁Labor 100
▁патента 100
▁проводятся 100
bedrooms 100
тона 100
▁спрашива 100
▁precisely 100
▁молча 100
бон 100
▁названия 100
▁Ган 100
mine 100
2° 100
▁Miss 100
▁consumers 100
▁сделает 100
▁generated 100
main 100
▁ответственны 100
ище 100
▁́ 100
▁instruction 100
▁therapy 100
▁располага 100
Mar 100
2006 100
▁exceptional 100
хранение 100
▁парков 100
▁priests 100
mph 100
▁Веб 100
▁основана 100
′′ 100
▁TrannyOne 100
▁legitimate 100
▁unusual 100
▁Генеральная 100
▁ошибок 100
▁областей 100
▁invasion 100
▁сомнения 100
▁подготовить 100
▁Джеймс 100
руша 100
▁завода 100
▁послал 100
▁факторы 100
AY 100
▁chart 100
BR 100
▁Alloy 100
▁purchased 100
▁inspired 100
есса 100
▁Specification 100
конструк 100
▁общую 100
▁Mature 100
▁пациентов 100
▁нашими 100
hab 100
▁справедливо 100
▁компьютере 100
RP 100
▁личность 100
▁cry 100
uer 100
▁процессу 100
Da 100
-22 100
устройств 100
▁headed 100
вла 100
ировку 100
▁гараж 100
▁объявление 100
бус 100
▁бан 100
▁игроки 100
▁fleet 100
▁нашли 100
▁organic 100
▁презент 100
▁Singapore 100
▁Technologies 100
▁двоично 100
▁compromise 100
▁Загрузки 100
▁предвыборн 100
▁судебных 100
▁хотим 100
▁psychological 100
▁Массаж 100
мещение 100
▁пунктирн 100
▁применим 100
Ст 100
▁Mode 100
▁Лев 100
▁twin 100
чувств 100
2.2 100
▁озабоченность 100
▁размеща 100
▁структуру 100
▁кодекса 100
▁Given 100
▁Common 100
▁passage 100
▁брата 100
▁расширений 100
▁местной 100
▁Сар 100
▁планируется 100
▁федерально 100
▁нестабильн 100
▁гражданин 100
▁выдача 100
▁предоставил 100
▁Java 100
ерами 100
▁ядерной 100
включая 100
▁epi 100
▁sensitive 100
▁manifestation 100
▁consultation 100
надежно 100
▁enhanced 100
▁realized 100
▁метода 100
▁душев 100
▁Off 100
▁throw 100
▁firms 100
▁придержива 100
▁Гра 100
▁concepts 100
▁Beautiful 100
▁Publish 100
▁exhaust 100
▁камень 100
▁Diamond 100
▁Speed 100
▁половине 100
▁duration 100
▁sugar 100
▁имеем 100
▁sperm 100
▁клитор 100
▁отказаться 100
▁Edition 100
▁programming 100
функционирования 100
▁protecting 100
▁поставить 100
▁Тот 100
▁бывшего 100
▁промышленных 100
IMG 100
▁popularity 100
▁Результаты 100
▁трудности 100
рги 100
▁Images 100
▁Qua 100
▁Бол 100
▁Святой 100
ичные 100
пек 100
▁Frank 100
▁ухода 100
пустим 100
American 100
ливо 100
▁вступления 100
▁лак 100
▁программам 100
▁gather 100
▁уменьшить 100
kz 100
GS 100
▁Serb 100
▁сайтов 100
HR 100
▁миллион 100
▁судебной 100
▁prospects 100
▁Mediterranean 100
▁adventure 100
▁disabilities 100
▁латинки 100
▁ocean 100
▁Nigeria 100
▁expenses 100
▁магнит 100
have 100
▁biological 100
▁NGOs 100
stal 100
▁holidays 100
▁marine 100
▁Authority 100
▁Экономическо 100
RF 100
▁behold 100
▁lands 100
▁workshops 100
▁металла 100
тека 100
▁promise 100
▁signing 100
▁таблиц 100
▁reaching 100
принят 100
crypt 100
▁обеспокоенность 100
quar 100
km 100
yna 100
▁мной 100
НП 100
▁Борис 100
▁tape 100
▁принимают 100
▁Bol 100
▁освобожден 100
▁estimates 100
▁Советом 100
▁рекламы 100
▁defence 100
▁Позже 100
▁prevail 100
▁investigate 100
gul 100
▁сканирует 100
▁отходов 100
▁Richard 100
▁появились 100
▁символы 100
▁индус 100
energo 100
▁Prize 100
цист 100
▁нейлон 100
▁крем 100
▁рос 100
▁сахар 100
▁дожд 100
▁XI 100
Под 100
▁серьезные 100
▁Desk 100
▁термо 100
▁директоров 100
▁Белый 100
▁Cover 100
▁покупки 100
▁усилива 100
▁Анна 100
ought 100
bike 100
▁молодой 100
▁owned 100
▁утверждение 100
▁Кипр 100
ison 100
▁94 100
▁Узбекистан 100
ставляют 100
▁Sav 100
1.5 100
▁scatter 100
▁Tatarstan 100
▁possibilities 100
▁внешних 100
▁royal 100
▁excessive 100
▁создавшего 100
▁Це 100
▁certificates 100
ируйте 100
теле 100
▁proud 100
▁теме 100
▁удовлетворения 100
▁личной 100
▁принятых 100
▁Members 100
▁clip 100
-24 100
agan 100
▁serves 100
mbo 100
▁{ 100
Ra 100
проб 100
технолог 100
omi 100
GP 100
itz 100
▁сотрудник 100
орг 100
▁Кли 100
▁производственны 100
▁заполнен 100
▁orgy 100
ющееся 100
▁предел 100
▁bite 100
▁administrator 100
▁tattoo 100
▁worry 100
▁четырёх 100
▁Denmark 100
▁decree 100
▁crowd 100
▁паспорт 100
▁Корея 100
▁Audi 100
▁находился 100
▁трансфер 100
▁Плитаа 100
▁Посла 100
▁пунктом 100
▁музыкально 100
rass 100
▁arranged 100
▁мг 100
lands 100
▁терроризмом 100
▁clit 100
▁количеством 100
▁оценив 100
prop 100
▁инвалид 100
▁Dom 100
LU 100
En 100
▁propose 100
дри 100
жный 100
▁Государственны 100
▁camps 100
vision 100
шую 100
▁министерства 100
били 100
▁Комп 100
▁доходы 100
люс 100
▁undertake 100
▁видели 100
▁statistical 100
▁Правительства 100
▁управлении 100
▁Louis 100
▁архитектор 100
▁Oblast 100
▁изучение 100
▁нём 100
ственные 100
▁оказанию 100
вич 100
▁собрать 100
oh 100
licit 100
▁dick 100
НГ 100
▁correspond 100
▁горизонт 100
▁GR 100
▁мандата 100
▁корзин 100
▁possession 100
110 100
клин 100
▁популярных 100
▁considers 100
UA 100
▁Las 100
▁boot 100
▁Буш 100
liter 100
ационной 100
▁roads 100
фика 100
mag 100
▁degrees 100
▁отражен 100
най 100
▁денежно 100
▁собрание 100
ğ 100
▁flexibility 100
▁Азартные 100
▁Выберите 100
▁появление 100
▁пехот 100
▁Бюро 100
▁alliance 100
▁injection 100
▁идею 100
▁космически 100
▁преступник 100
▁roles 100
▁реальное 100
▁Обзор 100
▁Миссии 100
▁HP 100
▁1990- 100
▁1977 100
▁носил 100
▁Cold 100
▁1939 100
▁повторно 100
ьи 100
бактери 100
LAN 100
▁проходят 100
▁Origin 100
▁опасность 100
▁службе 100
nom 100
бул 100
▁приятно 100
▁suite 100
ИИ 100
▁массы 100
▁Sheet 100
EF 100
▁Credit 100
▁ticket 100
▁ворота 100
▁neighbor 100
▁хорошим 100
▁Сайт 100
▁перво 100
▁другая 100
▁ммс 100
▁resist 100
▁Mikhail 100
▁vibration 100
▁widespread 100
▁Татарстан 100
▁симптом 100
▁следующей 100
▁shield 100
▁carrier 100
▁suppress 100
▁выразить 100
▁бесконечно 100
▁dropped 100
▁explains 100
пустын 100
▁Регул 100
▁улучшению 100
▁everywhere 100
▁бассейна 100
▁Ап 100
▁Андре 100
питан 100
There 100
▁creates 100
TU 100
▁фотографий 100
греческ 100
▁boys 100
▁acceptable 100
▁ser 100
▁translated 100
▁dates 100
▁ослаб 100
▁1965 100
▁живет 100
tergovernmental 100
▁содейств 100
▁savings 100
▁высшем 100
▁заповед 100
▁Bike 100
▁городского 100
▁письменно 100
▁Восточно 100
▁акционер 100
AA 100
▁coordinate 100
▁Цел 100
▁Hair 100
▁распространи 100
▁districts 100
▁облака 100
▁пошел 100
▁sole 100
▁упомянут 100
▁удержива 100
ури 100
▁Кру 100
How 100
▁Drive 100
▁License 100
▁Method 100
▁eurozone 100
▁procurement 100
▁Квартира 100
▁декларации 100
▁компенсации 100
▁очевидны 100
▁тюрем 100
▁порошок 100
pharmacy 100
ú 100
▁ceiling 100
▁Course 100
▁Question 100
▁переехал 100
▁начнет 100
▁Ведь 100
▁чуть 100
▁Countries 100
▁989] 100
▁rehabilitation 100
▁copyright 100
▁кафе 100
▁третьего 100
▁испытаний 100
▁performing 100
▁барьер 100
pec 100
▁лазер 100
▁posted 100
▁iOS 100
▁Novo 100
▁тока 100
▁отчетности 100
▁национально 100
▁имущество 100
▁связанным 100
нно 100
▁сильным 100
нци 100
iki 100
▁Gate 100
▁ученых 100
lah 100
▁Ash 100
даются 100
▁отмечен 100
▁торговой 100
УР 100
▁exit 100
▁качеством 100
iy 100
▁supporters 100
▁25% 100
ечный 100
▁ответы 100
▁построить 100
▁мощно 100
ç 100
▁Closure 100
▁достижению 100
▁следовательно 100
▁сопротивления 100
▁тенденции 100
▁политическую 100
▁Economy 100
▁vice 100
▁Packaging 100
▁адресу 100
▁opinions 100
▁sovereignty 100
▁treaties 100
▁запасов 100
▁lighting 100
▁Хай 100
▁сынов 100
▁dag 100
▁surrounded 100
▁совместны 100
беспеч 100
▁побочны 100
▁dimension 100
▁захватыва 100
oi 100
▁чемпионат 100
▁столб 100
▁Touch 100
▁reverse 100
▁Техническ 100
▁очки 100
LT 100
▁lowest 100
▁Heat 100
▁Seven 100
▁разреша 100
▁заключенных 100
▁расти 100
▁2.0 100
ироваться 100
▁использовали 100
▁raising 100
▁93 100
▁издания 100
inder 100
▁transit 100
▁Comments 100
▁двусторонн 100
SR 100
dig 100
▁зале 100
левых 100
▁большее 100
▁vessels 100
▁charter 100
▁практик 100
▁stakeholders 100
▁атрибут 100
▁европейской 100
▁совещание 100
▁Storage 100
▁Ultra 100
▁Италия 100
▁Television 100
▁радикальн 100
uploads 100
▁характеризу 100
!!! 100
Female 100
▁Клиент 100
▁инф 100
▁недавне 100
▁оказать 100
▁мужчина 100
▁freely 100
▁gay 100
▁текстов 100
▁СНГ 100
elli 100
▁1972 100
lac 100
▁mat 100
▁Chile 100
дняя 100
mper 100
строение 100
▁общая 100
▁Kan 100
▁Й 100
▁15% 100
▁Saul 100
▁операционн 100
▁strengthened 100
▁Ассамблее 100
аде 100
▁нечто 100
2001 100
▁Australian 100
▁фильмов 100
▁dose 100
logical 100
▁резки 100
▁driven 100
▁turns 100
американ 100
▁Channel 100
▁diversity 100
▁swallow 100
▁Бизнес 100
▁Объем 100
▁дискуссии 100
▁коэффициент 100
▁chamber 100
▁fragment 100
▁экономикой 100
▁официальных 100
▁EX 100
▁русские 100
▁реализован 100
▁Дэвид 100
▁вокзал 100
▁Адрес 100
▁Banner 100
▁patch 100
▁managing 100
▁suggests 100
настоящему 100
▁углу 100
▁Ker 100
▁вариантов 100
НЕ 100
▁conventional 100
▁случая 100
▁обратиться 100
▁усилен 100
▁всемирно 100
▁удаля 100
▁статистик 100
▁чуж 100
phan 100
▁protests 100
Babe 100
lux 100
▁rely 100
Su 100
чес 100
▁LA 100
▁партнерами 100
▁официального 100
▁долгов 100
▁Turk 100
▁оформлен 100
▁dual 100
тип 100
function 100
▁бедных 100
▁включения 100
▁декор 100
▁нанесен 100
▁Slovakia 100
▁Available 100
▁Document 100
▁Дешевые 100
▁Церкви 100
▁борьба 100
▁мобильных 100
▁сопротивление 100
▁упаковки 100
▁неправильно 100
▁ошибка 100
▁понрави 100
▁Consider 100
▁считаем 100
▁intense 100
▁развертывания 100
▁smile 100
▁падения 100
▁реальности 100
▁постановил 100
▁Конференция 100
▁аналог 100
▁данными 100
▁арестован 100
▁сократил 100
▁покрытием 100
▁затраты 100
▁Environmental 100
экс 100
▁контролем 100
md 100
▁Turn 100
▁cookies 100
UT 100
▁соблюдать 100
Ли 100
▁Process 100
▁инвалидов 100
плав 100
▁heels 100
▁страницы 100
add 100
polis 100
онг 100
шит 100
▁assistant 100
государств 100
first 100
альд 100
▁indicator 100
▁bond 100
▁ценам 100
▁capacities 100
▁поощрения 100
▁королевск 100
▁сессия 100
▁требуем 100
▁версию 100
▁заявляет 100
ТЕЛЬ 100
▁соединение 100
▁улицы 100
RY 100
▁упрощен 100
▁Доступность 100
▁встроенн 100
▁озера 100
▁simultaneously 100
▁нуждается 100
▁опира 100
▁лыж 100
▁dining 100
▁Jack 100
▁Cro 100
▁aspect 100
▁метрах 100
▁convinced 100
▁tested 100
▁Load 100
▁философии 100
▁доклады 100
▁departments 100
▁Бак 100
ущего 100
oni 100
▁Audit 100
гель 100
aire 100
▁продажу 100
▁Rob 100
▁леди 100
елей 100
компания 100
говорит 100
Asian 100
▁возможностью 100
▁60% 100
▁совместной 100
мог 100
Car 100
бет 100
▁Linen 100
▁Spec 100
where 100
▁Hairdryer 100
▁Venezuela 100
▁внутренние 100
▁предстоит 100
▁электроэнергии 100
▁Ричард 100
▁dinner 100
▁женщинами 100
▁Backpack 100
▁терроризма 100
▁путей 100
▁cult 100
▁установлены 100
▁открытого 100
▁archive 100
▁предыдущих 100
▁специального 100
ИЙ 100
▁everyday 100
▁распределительн 100
▁информационной 100
ерс 100
▁ваша 100
▁younger 100
nameli 100
▁объеме 100
▁портал 100
▁AG 100
▁Relations 100
▁председательств 100
▁Сара 100
▁exclude 100
hem 100
бить 100
▁новыми 100
демократ 100
chlor 100
uro 100
▁приобретен 100
▁альбома 100
▁небе 100
▁viewed 100
▁важной 100
хирург 100
▁Door 100
▁гром 100
▁Ruspeach 100
▁VipTube 100
▁autumn 100
▁calculation 100
▁negotiate 100
▁администратор 100
▁бригад 100
▁pleasant 100
▁лежит 100
▁категорий 100
▁думать 100
▁papers 100
▁Offer 100
▁Риге 100
▁партнерства 100
▁заявили 100
▁dependent 100
▁истреб 100
▁ры 100
▁ставок 100
▁producer 100
▁Mid 100
kel 100
▁anni 100
bun 100
VER 100
▁handling 100
чил 100
▁fate 100
▁губ 100
human 100
энергети 100
станавлива 100
▁conferences 100
▁носить 100
падают 100
▁legs 100
арка 100
▁господ 100
▁BA 100
▁Unsur 100
лажен 100
− 100
стек 100
source 100
юк 100
ьё 100
▁Zu 100
стол 100
▁Ent 100
▁enforce 100
▁клиенты 100
▁Odessa 100
▁behaviour 100
▁индикатор 100
▁пятьдесят 100
▁аренду 100
Современны 100
▁Земле 100
▁подачи 100
▁бороться 100
▁жилья 100
▁полиция 100
▁слух 100
▁сумм 100
▁radiation 100
▁leak 100
▁Сервер 100
корейск 100
tial 100
▁Привет 100
▁1964 100
▁устойчивы 100
▁кас 100
▁Генри 100
▁способов 100
][ 100
▁региональные 100
▁glasses 100
▁Dol 100
olic 100
▁ставка 100
sexual 100
▁Hor 100
▁размеров 100
▁ящик 100
▁Events 100
▁mill 100
▁дым 100
дите 100
owned 100
▁звон 100
that 100
▁доказательства 100
▁Cast 100
▁artistic 100
ГО 100
-05 100
▁музыка 100
▁coal 100
0.1 100
пил 100
▁Ky 100
nova 100
▁240 100
▁tall 100
JSC 100
▁receipt 100
▁медицинской 100
▁тазобедренно 100
▁hormone 100
▁Прежде 100
▁Resources 100
▁апостол 100
▁пассажиров 100
▁русский 100
▁Вскоре 100
▁invitation 100
▁английский 100
▁дважды 100
▁факультет 100
▁Freedom 100
▁страницу 100
▁Luc 100
▁Её 100
▁специалисты 100
▁hate 100
▁улица 100
▁широкой 100
▁delight 100
▁Образ 100
▁административно 100
KO 100
▁Мур 100
.07. 100
asi 100
▁эмо 100
▁progressive 100
▁долги 100
▁паст 100
гло 100
▁вовлечен 100
▁НЕ 100
▁Kon 100
шель 100
▁neo 100
▁согласие 100
uda 100
прям 100
▁сведению 100
пункт 100
▁перехода 100
▁вооруженны 100
▁должностны 100
▁stones 100
▁азиат 100
▁получит 100
SCO 100
▁книгу 100
▁обсуждение 100
▁technique 100
▁shirt 100
▁Шарп 100
▁hearts 100
▁movies 100
Blowjob 100
▁каждое 100
▁honest 100
Зрелые 100
▁посольств 100
▁entity 100
▁competence 100
▁Рей 100
▁adverse 100
▁осмотр 100
▁Condition 100
▁blame 100
Золот 100
240 100
▁cooling 100
▁исполнения 100
▁Train 100
▁giant 100
umble 100
▁край 100
Пер 100
онкурентоспособн 100
▁pipeline 100
▁Bed 100
▁военным 100
▁Групп 100
▁хор 100
арий 100
▁моих 100
▁storm 100
▁Дев 100
▁Oct 100
4.1 100
▁правовых 100
▁poet 100
▁имею 100
▁избирательных 100
▁филиал 100
▁crown 100
▁Marine 100
▁burning 100
AG 100
БА 100
present 100
▁contacts 100
Ра 100
2004 100
▁пункты 100
▁театра 100
▁культурного 100
▁убиты 100
▁Between 100
▁Faculty 100
▁prosecutor 100
▁Партнер 100
▁квалификации 100
▁территорий 100
▁bikini 100
▁растения 100
▁Housing 100
▁contradict 100
▁cinema 100
▁palace 100
▁вооружений 100
▁Васил 100
▁Kat 100
▁fitted 100
▁perception 100
▁norms 100
▁щит 100
▁обладают 100
▁clo 100
▁Tower 100
▁indicates 100
-21 100
▁возвращения 100
▁1961 100
ингтон 100
▁replacement 100
▁− 100
▁специальности 100
▁экономист 100
ДИ 100
члены 100
▁Больше 100
▁Бре 100
▁Inn 100
▁emphasize 100
▁Длина 100
▁длина 100
ifies 100
▁оперативны 100
жек 100
ификация 100
▁интерфейс 100
▁восьм 100
▁Тал 100
▁Current 100
▁gal 100
lem 100
▁тихо 100
▁информирован 100
▁Protect 100
▁Requirements 100
▁advocate 100
▁extraordinary 100
▁penalty 100
▁phrase 100
▁vacuum 100
▁безработицы 100
▁огромное 100
▁трибунал 100
▁Blonde 100
▁console 100
▁Kyiv 100
▁Labour 100
▁бетон 100
▁исключа 100
▁passport 100
▁Request 100
ologi 100
used 100
▁красиво 100
wan 100
▁работающих 100
▁привлечь 100
инского 100
▁1942 100
ряж 100
НЫЙ 100
▁Мои 100
▁зеленый 100
▁feelings 100
▁уверенность 100
хождение 100
▁единственно 100
▁sins 100
▁направлений 100
сид 100
▁хр 100
американск 100
▁zones 100
▁Face 100
▁республики 100
▁печь 100
▁какую 100
· 100
особ 100
watch 100
анал 100
▁Pl 100
▁филе 100
mond 100
▁ремонту 100
▁Luxury 100
▁mirror 100
▁preliminary 100
▁реконструкции 100
▁управлению 100
txt 100
мягч 100
▁задержк 100
▁трехкомнатны 100
▁бомб 100
▁Поиск 100
▁somewhat 100
▁мысль 100
▁любым 100
▁deeply 100
ОЗ 100
▁Начало 100
▁anywhere 100
▁Правила 100
▁revision 100
▁Мед 100
▁ярко 100
TL 100
▁противодействи 100
▁содержать 100
My 100
лыб 100
▁pound 100
▁кара 100
▁settled 100
▁bas 100
Гостиницы 100
▁периодически 100
▁выплаты 100
ведён 100
релиз 100
zen 100
▁нож 100
▁мотор 100
сир 100
▁608 100
▁опасны 100
word 100
bri 100
▁Share 100
▁Vita 100
▁Иерусалиме 100
▁Lev 100
▁authentic 100
Wallpaper 100
▁Macedonia 100
▁Региональн 100
▁Услуги 100
▁Харьков 100
▁поддерживал 100
▁theoretical 100
▁напрямую 100
▁Европейской 100
▁оценкой 100
▁spacious 100
▁empower 100
▁zero 100
▁формирование 100
▁сути 100
щиков 100
шифров 100
верж 100
тической 100
▁обстоятельствах 100
▁представляю 100
▁пра 100
▁кадром 100
▁Monitoring 100
▁Cost 100
▁Мать 100
▁визита 100
▁Южно 100
▁Videos 100
▁forty 100
▁сосредоточен 100
▁assumed 100
▁направил 100
писание 100
питал 100
▁обращение 100
▁удел 100
▁электронных 100
▁Жан 100
osa 100
▁располагает 100
НОВ 100
▁компьютеров 100
▁pla 100
had 100
▁точность 100
▁measured 100
drive 100
itu 100
▁Brace 100
▁счете 100
▁Флор 100
▁Guard 100
▁решительно 100
▁recruit 100
секс 100
▁преодолен 100
▁welfare 100
▁фестиваля 100
▁энергию 100
▁Welcome 100
▁участии 100
▁Сумки 100
▁Собственн 100
▁запуск 100
сети 100
▁отдельным 100
▁стражей 100
▁Нас 100
▁recommends 100
▁guns 100
▁Товар 100
▁длинными 100
▁вызвать 100
тельства 100
▁depart 100
▁RF 100
▁Оста 100
▁основного 100
▁farmers 100
Бывш 100
▁политический 100
▁сочетание 100
▁известна 100
▁выступили 100
сар 100
▁дам 100
▁гарантий 100
▁флот 100
▁двига 100
▁включал 100
▁90% 100
▁fulfil 100
util 100
▁карту 100
doc 100
▁hole 100
▁prohibited 100
▁традиционно 100
▁Исламск 100
▁declined 100
▁preserve 100
▁жертвы 100
▁ответа 100
▁быстрого 100
▁4000 100
▁confront 100
face 100
oil 100
▁эффективное 100
▁рассе 100
▁Чили 100
▁Bentley 100
▁Молдовы 100
▁Урантии 100
▁каждую 100
▁миграции 100
▁экземпляр 100
▁affirm 100
▁buried 100
▁pvc 100
▁литья 100
▁телеканал 100
▁сыновья 100
onia 100
▁Tim 100
▁сегодняшне 100
раздел 100
▁theatre 100
▁базу 100
▁darkness 100
▁доцент 100
▁disputes 100
▁очистки 100
▁Lithuanian 100
▁парке 100
▁изготовления 100
▁Spins 100
▁settlements 100
▁insects 100
▁выработк 100
ывал 100
▁выпускник 100
▁Simon 100
FF 100
▁wearing 100
▁блюда 100
▁кем 100
▁Magic 100
▁170 100
нин 100
▁ведут 100
▁производить 100
▁Форт 100
▁кому 100
▁answers 100
▁Come 100
андр 100
▁Домой 100
▁Save 100
скрип 100
cf 100
ų 100
▁Restaurant 100
▁Вьетнам 100
▁Result 100
▁потребностям 100
▁первичн 100
▁characteristic 100
▁Метод 100
▁Outlet 100
▁ультра 100
▁изначально 100
▁warrant 100
▁Malta 100
▁Congo 100
▁впечатление 100
▁союзник 100
▁старик 100
▁characterized 100
▁Rod 100
▁Цз 100
▁доллар 100
▁steroids 100
▁документации 100
▁exposed 100
▁жизнью 100
▁причина 100
▁ultimately 100
▁традиционных 100
▁произведений 100
▁Просмотр 100
▁Университета 100
▁подчеркива 100
isa 100
▁Trust 100
ОБ 100
смотреть 100
▁правами 100
свобод 100
ставляя 100
▁юридической 100
ranging 100
▁examine 100
точных 100
▁Филиппин 100
▁OK 100
zu 100
▁отделение 100
system 100
masturbation 100
▁managers 100
condition 100
тратегия 100
BU 100
ожеств 100
▁pour 100
▁милли 100
▁Implementation 100
▁Recovery 100
▁Иногда 100
▁Константин 100
▁объём 100
▁выиграть 100
▁Основной 100
▁воск 100
▁transmit 100
▁grace 100
▁USSR 100
▁Пекин 100
▁перевода 100
▁русском 100
▁rational 100
▁хорошие 100
▁representing 100
▁числу 100
▁Boot 100
▁adjust 100
▁шагом 100
elle 100
▁определяется 100
-2012 100
▁mold 100
▁tied 100
исследовательск 100
▁задачей 100
▁interpret 100
▁преподаватель 100
▁Massage 100
▁plain 100
▁1.1 100
мона 100
/8 100
▁технические 100
▁продаже 100
▁Pop 100
▁магазины 100
▁restored 100
рё 100
▁езды 100
after 100
▁признания 100
▁Исполнительн 100
чики 100
▁normally 100
▁Роман 100
▁Connect 100
▁144 100
▁праву 100
▁2.5 100
▁complain 100
▁графическ 100
▁XXI 100
▁360 100
пря 100
cultural 100
▁отчетов 100
кругл 100
енном 100
▁Cathedral 100
▁UNICEF 100
▁phenomenon 100
▁survival 100
▁действующе 100
▁соревнования 100
▁конфигурации 100
▁физической 100
▁спокойно 100
▁folk 100
▁Francisco 100
▁vertical 100
▁образован 100
roach 100
kova 100
▁попросил 100
▁GMT 100
сток 100
▁passion 100
греется 100
▁Мама 100
▁Pictures 100
▁Черн 100
▁Дома 100
▁russian 100
▁Оба 100
▁Трамп 100
▁indoor 100
▁ending 100
▁национальным 100
▁нарушен 100
▁Независимо 100
OV 100
▁прошла 100
▁линий 100
▁робот 100
▁complaints 100
летней 100
loss 100
национал 100
▁Mont 100
ello 100
щиеся 100
▁трубы 100
▁alleged 100
атом 100
▁Journalist 100
2002 100
хозяйственных 100
дания 100
▁tournaments 100
▁селе 100
▁определенно 100
effective 100
German 100
▁попал 100
▁municipal 100
▁reviewed 100
форд 100
▁Kyrgyz 100
▁туризм 100
being 100
▁Ethiopia 100
▁absorb 100
▁defatted 100
▁faculty 100
▁optimal 100
▁portfolio 100
▁современный 100
▁Канады 100
▁Бургас 100
▁Gallery 100
▁пенсионн 100
▁knee 100
▁условие 100
▁Thank 100
▁Irish 100
▁minorities 100
149 100
▁analyse 100
▁Решение 100
▁Ряд 100
eff 100
▁выходит 100
▁министерство 100
▁непрерывн 100
▁islands 100
▁float 100
▁Востока 100
5.5 100
▁max 100
▁slip 100
▁repeated 100
оптическ 100
▁удаления 100
▁Черный 100
▁используемых 100
вилл 100
▁уголовны 100
▁исходя 100
▁распад 100
▁основой 100
▁2,5 100
brag 100
▁Такая 100
▁стандарты 100
▁researchers 100
▁pun 100
▁Ара 100
▁промышленность 100
▁Kara 100
hour 100
dresses 100
когда 100
viagra 100
▁cabin 100
▁китайск 100
▁Portuguese 100
▁economist 100
▁музыку 100
▁оппозиции 100
▁участков 100
▁расширить 100
▁приложении 100
▁костюм 100
▁injured 100
▁второе 100
▁teeth 100
▁Корпус 100
▁Кореи 100
▁явление 100
▁graphics 100
▁altar 100
▁fault 100
▁permitted 100
▁VPorn 100
▁Посмотреть 100
»). 100
▁внедрения 100
▁привлечения 100
▁Bridge 100
▁бедности 100
▁специальный 100
▁Иаков 100
▁значительные 100
▁убил 100
боль 100
▁командир 100
▁круга 100
▁Coll 100
▁Японск 100
▁доступен 100
▁Кер 100
▁Suite 100
▁полет 100
ийских 100
▁акты 100
WC 100
▁возбужд 100
▁кроссдрессинг 100
Info 100
эд 100
▁знание 100
▁скрыва 100
▁вряд 100
▁$4 100
▁духа 100
▁Based 100
▁кафедр 100
▁приступ 100
him 100
▁tough 100
▁достоинств 100
▁яхт 100
second 100
▁Thr 100
travel 100
▁гармони 100
Ü 100
▁Permanent 100
▁accelerate 100
▁enabling 100
▁salvation 100
▁Сингапур 100
▁аккумулятор 100
▁консультант 100
▁принудительн 100
▁толщин 100
▁density 100
▁сталкиваются 100
▁essence 100
▁bugs 100
▁почтовы 100
▁восстанавлива 100
▁laboratory 100
▁балкон 100
▁fought 100
циями 100
▁Transfer 100
▁WiFi 100
млн 100
ировано 100
▁uncle 100
▁crack 100
▁образованию 100
▁prospect 100
Нью 100
▁spell 100
▁SGS 100
▁кредитор 100
SF 100
▁весел 100
▁стратегических 100
▁крово 100
▁частным 100
ЭК 100
▁сложных 100
▁игров 100
▁приносит 100
▁осв 100
▁применением 100
▁Officer 100
▁девять 100
▁commissions 100
▁Андрей 100
▁Пат 100
▁оценкам 100
▁хотела 100
▁reject 100
▁потоков 100
▁Austrian 100
▁estimate 100
▁Armed 100
▁cloth 100
▁birds 100
▁portal 100
stat 100
▁chose 100
▁передаче 100
КП 100
▁outcomes 100
scope 100
▁sovereign 100
▁Круг 100
service 100
▁FLOWER 100
▁modified 100
▁кровати 100
▁Сент 100
▁elsewhere 100
▁safeguard 100
▁проанализируе 100
▁алмаз 100
▁пятницу 100
▁Farm 100
март 100
▁пойти 100
▁redhead 100
▁Турция 100
▁Installation 100
▁hook 100
▁skinny 100
▁пары 100
виг 100
▁рукавами 100
▁предметы 100
▁Driver 100
▁производится 100
▁предварительны 100
▁1962 100
▁общения 100
▁уничтожения 100
▁точек 100
▁seminars 100
8° 100
▁Wake 100
▁tickets 100
flat 100
▁принятии 100
▁обнаружения 100
▁другу 100
dri 100
▁Израилем 100
Глав 100
если 100
ходящего 100
Mon 100
▁обширн 100
▁ставит 100
парк 100
чего 100
▁boxes 100
палуб 100
▁Иоанн 100
▁Ана 100
▁dig 100
ington 100
umi 100
▁1.2 100
▁Ред 100
▁precise 100
▁Начина 100
контрол 100
▁состоял 100
▁координаци 100
▁кости 100
▁обязаны 100
▁Tak 100
▁belly 100
▁consisting 100
▁Bak 100
ecH 100
▁стеклянн 100
▁Aluminum 100
▁Caucasus 100
▁Dynamic 100
▁Sustainable 100
▁chronic 100
▁домашних 100
▁последующих 100
▁распоряжении 100
▁реакции 100
▁Jacob 100
▁инфляции 100
▁Roma 100
▁Quick 100
▁Firm 100
▁недавни 100
▁рассматривал 100
▁растет 100
▁изображений 100
▁tear 100
mnt 100
▁bal 100
▁общины 100
▁артист 100
▁refugee 100
Пар 100
▁просмотр 100
▁1958 100
▁случайно 100
▁unlikely 100
▁Bin 100
▁adaptation 100
пли 100
▁напряжение 100
зрел 100
▁ущерба 100
▁rub 100
▁attempted 100
▁финал 100
▁describes 100
МЕН 100
ительного 100
▁образу 100
▁cow 100
ношения 100
унг 100
▁Opera 100
смотрите 100
▁preventing 100
истом 100
▁promoted 100
▁Дек 100
▁Communications 100
▁полученные 100
▁Made 100
временно 100
▁Map 100
▁INTERNATIONAL 100
▁Virtual 100
▁displaced 100
▁impressive 100
▁Агентство 100
▁Швейцарии 100
▁благоприятны 100
▁оплачива 100
▁Стоимость 100
▁теннис 100
▁численности 100
▁rival 100
▁supervision 100
▁премии 100
▁Промышленн 100
▁shore 100
▁масса 100
▁стоят 100
bling 100
▁фильме 100
Секс 100
▁объяснить 100
▁знали 100
▁producers 100
▁посетите 100
yk 100
▁pig 100
mart 100
Сити 100
▁отряд 100
..." 100
▁разве 100
▁airline 100
▁набора 100
▁argued 100
▁сложи 100
▁чрезмерно 100
chu 100
▁государству 100
▁pose 100
ГИ 100
Russia 100
▁танк 100
▁повышен 100
знания 100
î 100
▁Corporation 100
▁Monument 100
▁Resolution 100
▁equity 100
▁implications 100
▁Господу 100
▁волосатые 100
▁миссий 100
▁обычных 100
наименее 100
читаемом 100
▁toiletries 100
▁пород 100
▁desk 100
▁bulk 100
ящим 100
▁падение 100
▁deals 100
Sha 100
insky 100
▁Супер 100
▁pace 100
▁forever 100
▁Soft 100
▁attacked 100
▁сокращен 100
▁критически 100
1.3 100
работа 100
рук 100
▁Джона 100
▁panels 100
▁значительное 100
▁marking 100
▁вмешательства 100
▁подтвержден 100
OO 100
казав 100
▁Любительское 100
селенных 100
▁accumulat 100
▁Ring 100
▁Договора 100
ИМ 100
▁уж 100
▁мечта 100
▁bull 100
2019 100
▁Perhaps 100
▁Screen 100
▁Testosterone 100
▁ассортимент 100
▁поддержкой 100
▁подростков 100
▁пожелания 100
▁признательность 100
▁смазливые 100
▁смартфон 100
▁сюрприз 100
▁функцию 100
▁cubic 100
▁Документ 100
▁последнюю 100
▁pretty 100
▁появления 100
▁Польши 100
видим 100
▁robot 100
▁отмечал 100
▁магазина 100
▁помогают 100
▁представлена 100
▁перемеща 100
▁уведомления 100
▁фраз 100
▁завершить 100
▁dishes 100
серд 100
▁мэр 100
▁conclusions 100
0.5 100
▁Tan 100
▁арабских 100
▁членам 100
▁ночи 100
▁чувствовал 100
▁проник 100
▁составит 100
▁интегрирован 100
▁стих 100
▁SD 100
▁symptoms 100
МП 100
▁позволяющи 100
▁publish 100
3.2 100
▁коды 100
▁различным 100
▁совместных 100
▁дата 100
oom 100
▁athletes 100
гур 100
▁мерах 100
▁Сына 100
▁Спорт 100
▁идеал 100
▁талант 100
▁Almaty 100
▁Belgium 100
▁Canadian 100
▁Thomas 100
▁biennium 100
▁евреев 100
▁суверенитет 100
▁эволюцион 100
Брюнетки 100
▁аккредит 100
▁клеток 100
▁вынуждены 100
▁желающих 100
cycle 100
▁оправдан 100
▁газет 100
▁Promotion 100
▁распределение 100
▁положить 100
▁цирк 100
▁фруктов 100
▁Reserve 100
▁precious 100
▁happening 100
▁обвини 100
▁adhere 100
▁Cock 100
▁exam 100
▁transaction 100
0.3 100
▁VII 100
▁угроз 100
▁fucking 100
одных 100
▁началась 100
▁Государств 100
▁открыты 100
▁политикой 100
▁Мала 100
▁Договор 100
ированного 100
▁забыв 100
▁satisfied 100
▁ожидать 100
▁обращен 100
▁правой 100
▁проведены 100
▁арт 100
▁угроза 100
▁обучен 100
▁целый 100
hom 100
▁survive 100
▁охране 100
▁культ 100
▁конф 100
▁глазами 100
DN 100
▁graduates 100
▁обед 100
hoe 100
▁одет 100
кладка 100
▁afford 100
▁Gun 100
hum 100
▁государственном 100
ожидается 100
▁Near 100
▁complicated 100
▁consolidate 100
▁Швеции 100
▁выигрыш 100
▁посещения 100
ë 100
▁останется 100
▁evolve 100
▁architectural 100
▁физических 100
▁годовщин 100
▁Kyrgyzstan 100
иком 100
▁двухкомнатные 100
▁колеса 100
▁гендерны 100
▁зеркал 100
▁Romanian 100
▁определя 100
▁читать 100
работка 100
pack 100
▁spec 100
Build 100
▁dozen 100
▁бирж 100
▁engagement 100
тру 100
вался 100
▁Русский 100
▁терминал 100
ранжев 100
ФИ 100
▁похожи 100
▁1949 100
▁sheep 100
▁engineer 100
▁обязательство 100
▁перспективе 100
▁partnerships 100
▁Posted 100
▁создали 100
▁составила 100
▁изыска 100
▁0.9 100
▁голод 100
▁отпуск 100
Велик 100
▁exclusively 100
▁Heart 100
▁Молод 100
But 100
▁участниками 100
▁obstacles 100
распространяется 100
роп 100
▁пошли 100
совет 100
раста 100
▁оптимально 100
oro 100
fix 100
▁РА 100
▁ultimate 100
▁Специально 100
▁Final 100
rated 100
jpg 100
▁достигнуты 100
▁careful 100
▁уязвимы 100
▁стероидов 100
▁Особенно 100
moncler 100
▁Munich 100
▁prosecution 100
▁commence 100
▁последним 100
▁прекратить 100
▁vacation 100
▁желания 100
▁pursuan 100
▁дочери 100
▁нагрузки 100
▁hypo 100
▁обозначен 100
▁ATP 100
▁Daniel 100
▁Политика 100
▁Solomon 100
▁соединя 100
▁самолёт 100
avatar 100
НЫЕ 100
▁spray 100
▁Cash 100
▁glad 100
▁difficulty 100
▁цепи 100
▁аудитор 100
▁debut 100
▁освобождения 100
▁amounted 100
▁1963 100
ДУ 100
▁охватывает 100
▁1947 100
▁информационн 100
▁изменя 100
▁strap 100
▁1966 100
▁вошли 100
▁Palestinians 100
▁ruin 100
▁belongs 100
shine 100
▁доставка 100
▁Lock 100
▁заместителя 100
anti 100
▁Upon 100
бук 100
▁Дети 100
▁нагрева 100
▁имела 100
▁внутренне 100
одонепроницаемый 100
▁уступ 100
▁эффекты 100
ительное 100
▁мирных 100
▁любую 100
▁loin 100
▁specialist 100
▁backing 100
▁plea 100
местный 100
▁океана 100
▁местном 100
▁equally 100
▁цифровой 100
▁Израилевы 100
month 100
▁импорта 100
▁возможные 100
amine 100
АЛЬ 100
oehn 100
▁моно 100
▁Statistics 100
▁enhancing 100
▁necessarily 100
▁substantive 100
▁throat 100
▁вертикаль 100
▁глобальном 100
▁математик 100
▁наоборот 100
▁ноутбук 100
▁превышает 100
▁Lesbian 100
▁сокраща 100
▁govern 100
▁модернизации 100
ule 100
▁производителя 100
▁Until 100
▁admir 100
▁ток 100
▁expanding 100
▁референдума 100
▁следовать 100
▁Wife 100
▁требованиями 100
дачу 100
▁Roses 100
зрев 100
жилых 100
▁раскрыва 100
▁Tech 100
▁наглядном 100
Высш 100
▁глас 100
▁формиру 100
▁высказыва 100
▁oldest 100
▁Yugoslavia 100
dog 100
оген 100
▁shoot 100
▁construct 100
▁ежедневн 100
▁научной 100
▁wider 100
▁случаю 100
люби 100
▁volumes 100
▁Kim 100
▁ориентир 100
▁commonly 100
▁timely 100
▁сохранен 100
мировых 100
▁Кей 100
▁operated 100
▁Спас 100
▁dealt 100
▁заканчива 100
lent 100
▁arbitr 100
▁champion 100
▁Higher 100
▁Province 100
▁Апартаменты 100
▁казалось 100
▁латекс 100
▁миссия 100
communist 100
▁принимая 100
▁optimis 100
▁фабрики 100
▁Discount 100
▁желает 100
▁Desktop 100
▁panties 100
[...]
